[PAD]
[unused1]
[unused2]
[unused3]
[unused4]
[unused5]
[unused6]
[unused7]
[unused8]
[unused9]
[unused10]
[unused11]
[unused12]
[unused13]
[unused14]
[unused15]
[unused16]
[unused17]
[unused18]
[unused19]
[unused20]
[unused21]
[unused22]
[unused23]
[unused24]
[unused25]
[unused26]
[unused27]
[unused28]
[unused29]
[unused30]
[unused31]
[unused32]
[unused33]
[unused34]
[unused35]
[unused36]
[unused37]
[unused38]
[unused39]
[unused40]
[unused41]
[unused42]
[unused43]
[unused44]
[unused45]
[unused46]
[unused47]
[unused48]
[unused49]
[unused50]
[unused51]
[unused52]
[unused53]
[unused54]
[unused55]
[unused56]
[unused57]
[unused58]
[unused59]
[unused60]
[unused61]
[unused62]
[unused63]
[unused64]
[unused65]
[unused66]
[unused67]
[unused68]
[unused69]
[unused70]
[unused71]
[unused72]
[unused73]
[unused74]
[unused75]
[unused76]
[unused77]
[unused78]
[unused79]
[unused80]
[unused81]
[unused82]
[unused83]
[unused84]
[unused85]
[unused86]
[unused87]
[unused88]
[unused89]
[unused90]
[unused91]
[unused92]
[unused93]
[unused94]
[unused95]
[unused96]
[unused97]
[unused98]
[unused99]
[UNK]
[CLS]
[SEP]
[MASK]
<S>
<T>
!
"
#
$
%
&
'
(
)
*
+
,
-
.
/
0
1
2
3
4
5
6
7
8
9
:
;
<
=
>
?
@
[
\
]
^
_
a
b
c
d
e
f
g
h
i
j
k
l
m
n
o
p
q
r
s
t
u
v
w
x
y
z
{
|
}
~
£
¤
¥
§
©
«
®
°
±
²
³
µ
·
¹
º
»
¼
×
ß
æ
÷
ø
đ
ŋ
ɔ
ə
ɡ
ʰ
ˇ
ˈ
ˊ
ˋ
ˍ
ː
˙
˚
ˢ
α
β
γ
δ
ε
η
θ
ι
κ
λ
μ
ν
ο
π
ρ
ς
σ
τ
υ
φ
χ
ψ
ω
а
б
в
г
д
е
ж
з
и
к
л
м
н
о
п
р
с
т
у
ф
х
ц
ч
ш
ы
ь
я
і
ا
ب
ة
ت
د
ر
س
ع
ل
م
ن
ه
و
ي
۩
ก
ง
น
ม
ย
ร
อ
า
เ
๑
་
ღ
ᄀ
ᄁ
ᄂ
ᄃ
ᄅ
ᄆ
ᄇ
ᄈ
ᄉ
ᄋ
ᄌ
ᄎ
ᄏ
ᄐ
ᄑ
ᄒ
ᅡ
ᅢ
ᅣ
ᅥ
ᅦ
ᅧ
ᅨ
ᅩ
ᅪ
ᅬ
ᅭ
ᅮ
ᅯ
ᅲ
ᅳ
ᅴ
ᅵ
ᆨ
ᆫ
ᆯ
ᆷ
ᆸ
ᆺ
ᆻ
ᆼ
ᗜ
ᵃ
ᵉ
ᵍ
ᵏ
ᵐ
ᵒ
ᵘ
‖
„
†
•
‥
‧
 
‰
′
″
‹
›
※
‿
⁄
ⁱ
⁺
ⁿ
₁
₂
₃
₄
€
℃
№
™
ⅰ
ⅱ
ⅲ
ⅳ
ⅴ
←
↑
→
↓
↔
↗
↘
⇒
∀
−
∕
∙
√
∞
∟
∠
∣
∥
∩
∮
∶
∼
∽
≈
≒
≡
≤
≥
≦
≧
≪
≫
⊙
⋅
⋈
⋯
⌒
①
②
③
④
⑤
⑥
⑦
⑧
⑨
⑩
⑴
⑵
⑶
⑷
⑸
⒈
⒉
⒊
⒋
ⓒ
ⓔ
ⓘ
─
━
│
┃
┅
┆
┊
┌
└
├
┣
═
║
╚
╞
╠
╭
╮
╯
╰
╱
╳
▂
▃
▅
▇
█
▉
▋
▌
▍
▎
■
□
▪
▫
▬
▲
△
▶
►
▼
▽
◆
◇
○
◎
●
◕
◠
◢
◤
☀
★
☆
☕
☞
☺
☼
♀
♂
♠
♡
♣
♥
♦
♪
♫
♬
✈
✔
✕
✖
✦
✨
✪
✰
✿
❀
❤
➜
➤
⦿
、
。
〃
々
〇
〈
〉
《
》
「
」
『
』
【
】
〓
〔
〕
〖
〗
〜
〝
〞
ぁ
あ
ぃ
い
う
ぇ
え
お
か
き
く
け
こ
さ
し
す
せ
そ
た
ち
っ
つ
て
と
な
に
ぬ
ね
の
は
ひ
ふ
へ
ほ
ま
み
む
め
も
ゃ
や
ゅ
ゆ
ょ
よ
ら
り
る
れ
ろ
わ
を
ん
゜
ゝ
ァ
ア
ィ
イ
ゥ
ウ
ェ
エ
ォ
オ
カ
キ
ク
ケ
コ
サ
シ
ス
セ
ソ
タ
チ
ッ
ツ
テ
ト
ナ
ニ
ヌ
ネ
ノ
ハ
ヒ
フ
ヘ
ホ
マ
ミ
ム
メ
モ
ャ
ヤ
ュ
ユ
ョ
ヨ
ラ
リ
ル
レ
ロ
ワ
ヲ
ン
ヶ
・
ー
ヽ
ㄅ
ㄆ
ㄇ
ㄉ
ㄋ
ㄌ
ㄍ
ㄎ
ㄏ
ㄒ
ㄚ
ㄛ
ㄞ
ㄟ
ㄢ
ㄤ
ㄥ
ㄧ
ㄨ
ㆍ
㈦
㊣
㎡
㗎
一
丁
七
万
丈
三
上
下
不
与
丐
丑
专
且
丕
世
丘
丙
业
丛
东
丝
丞
丟
両
丢
两
严
並
丧
丨
个
丫
中
丰
串
临
丶
丸
丹
为
主
丼
丽
举
丿
乂
乃
久
么
义
之
乌
乍
乎
乏
乐
乒
乓
乔
乖
乗
乘
乙
乜
九
乞
也
习
乡
书
乩
买
乱
乳
乾
亀
亂
了
予
争
事
二
于
亏
云
互
五
井
亘
亙
亚
些
亜
亞
亟
亡
亢
交
亥
亦
产
亨
亩
享
京
亭
亮
亲
亳
亵
人
亿
什
仁
仃
仄
仅
仆
仇
今
介
仍
从
仏
仑
仓
仔
仕
他
仗
付
仙
仝
仞
仟
代
令
以
仨
仪
们
仮
仰
仲
件
价
任
份
仿
企
伉
伊
伍
伎
伏
伐
休
伕
众
优
伙
会
伝
伞
伟
传
伢
伤
伦
伪
伫
伯
估
伴
伶
伸
伺
似
伽
佃
但
佇
佈
位
低
住
佐
佑
体
佔
何
佗
佘
余
佚
佛
作
佝
佞
佟
你
佢
佣
佤
佥
佩
佬
佯
佰
佳
併
佶
佻
佼
使
侃
侄
來
侈
例
侍
侏
侑
侖
侗
供
依
侠
価
侣
侥
侦
侧
侨
侬
侮
侯
侵
侶
侷
便
係
促
俄
俊
俎
俏
俐
俑
俗
俘
俚
保
俞
俟
俠
信
俨
俩
俪
俬
俭
修
俯
俱
俳
俸
俺
俾
倆
倉
個
倌
倍
倏
們
倒
倔
倖
倘
候
倚
倜
借
倡
値
倦
倩
倪
倫
倬
倭
倶
债
值
倾
偃
假
偈
偉
偌
偎
偏
偕
做
停
健
側
偵
偶
偷
偻
偽
偿
傀
傅
傍
傑
傘
備
傚
傢
傣
傥
储
傩
催
傭
傲
傳
債
傷
傻
傾
僅
働
像
僑
僕
僖
僚
僥
僧
僭
僮
僱
僵
價
僻
儀
儂
億
儆
儉
儋
儒
儕
儘
償
儡
優
儲
儷
儼
儿
兀
允
元
兄
充
兆
兇
先
光
克
兌
免
児
兑
兒
兔
兖
党
兜
兢
入
內
全
兩
八
公
六
兮
兰
共
兲
关
兴
兵
其
具
典
兹
养
兼
兽
冀
内
円
冇
冈
冉
冊
册
再
冏
冒
冕
冗
写
军
农
冠
冢
冤
冥
冨
冪
冬
冯
冰
冲
决
况
冶
冷
冻
冼
冽
冾
净
凄
准
凇
凈
凉
凋
凌
凍
减
凑
凛
凜
凝
几
凡
凤
処
凪
凭
凯
凰
凱
凳
凶
凸
凹
出
击
函
凿
刀
刁
刃
分
切
刈
刊
刍
刎
刑
划
列
刘
则
刚
创
初
删
判
別
刨
利
刪
别
刮
到
制
刷
券
刹
刺
刻
刽
剁
剂
剃
則
剉
削
剋
剌
前
剎
剐
剑
剔
剖
剛
剜
剝
剣
剤
剥
剧
剩
剪
副
割
創
剷
剽
剿
劃
劇
劈
劉
劊
劍
劏
劑
力
劝
办
功
加
务
劣
动
助
努
劫
劭
励
劲
劳
労
劵
効
劾
势
勁
勃
勇
勉
勋
勐
勒
動
勖
勘
務
勛
勝
勞
募
勢
勤
勧
勳
勵
勸
勺
勻
勾
勿
匀
包
匆
匈
匍
匐
匕
化
北
匙
匝
匠
匡
匣
匪
匮
匯
匱
匹
区
医
匾
匿
區
十
千
卅
升
午
卉
半
卍
华
协
卑
卒
卓
協
单
卖
南
単
博
卜
卞
卟
占
卡
卢
卤
卦
卧
卫
卮
卯
印
危
即
却
卵
卷
卸
卻
卿
厂
厄
厅
历
厉
压
厌
厕
厘
厚
厝
原
厢
厥
厦
厨
厩
厭
厮
厲
厳
去
县
叁
参
參
又
叉
及
友
双
反
収
发
叔
取
受
变
叙
叛
叟
叠
叡
叢
口
古
句
另
叨
叩
只
叫
召
叭
叮
可
台
叱
史
右
叵
叶
号
司
叹
叻
叼
叽
吁
吃
各
吆
合
吉
吊
吋
同
名
后
吏
吐
向
吒
吓
吕
吖
吗
君
吝
吞
吟
吠
吡
否
吧
吨
吩
含
听
吭
吮
启
吱
吳
吴
吵
吶
吸
吹
吻
吼
吽
吾
呀
呂
呃
呆
呈
告
呋
呎
呐
呓
呕
呗
员
呛
呜
呢
呤
呦
周
呱
呲
味
呵
呷
呸
呻
呼
命
咀
咁
咂
咄
咆
咋
和
咎
咏
咐
咒
咔
咕
咖
咗
咘
咙
咚
咛
咣
咤
咦
咧
咨
咩
咪
咫
咬
咭
咯
咱
咲
咳
咸
咻
咽
咿
哀
品
哂
哄
哆
哇
哈
哉
哋
哌
响
哎
哏
哐
哑
哒
哔
哗
哟
員
哥
哦
哧
哨
哩
哪
哭
哮
哲
哺
哼
哽
唁
唄
唆
唇
唉
唏
唐
唑
唔
唠
唤
唧
唬
售
唯
唰
唱
唳
唷
唸
唾
啃
啄
商
啉
啊
問
啓
啕
啖
啜
啞
啟
啡
啤
啥
啦
啧
啪
啫
啬
啮
啰
啱
啲
啵
啶
啷
啸
啻
啼
啾
喀
喂
喃
善
喆
喇
喉
喊
喋
喎
喏
喔
喘
喙
喚
喜
喝
喟
喧
喪
喫
喬
單
喰
喱
喲
喳
喵
営
喷
喹
喺
喻
喽
嗅
嗆
嗇
嗎
嗑
嗒
嗓
嗔
嗖
嗚
嗜
嗝
嗟
嗡
嗣
嗤
嗦
嗨
嗪
嗬
嗯
嗰
嗲
嗳
嗶
嗷
嗽
嘀
嘅
嘆
嘈
嘉
嘌
嘍
嘎
嘔
嘖
嘗
嘘
嘚
嘛
嘜
嘞
嘟
嘢
嘣
嘤
嘧
嘩
嘭
嘮
嘯
嘰
嘱
嘲
嘴
嘶
嘸
嘹
嘻
嘿
噁
噌
噎
噓
噔
噗
噙
噜
噠
噢
噤
器
噩
噪
噬
噱
噴
噶
噸
噹
噻
噼
嚀
嚇
嚎
嚏
嚐
嚓
嚕
嚟
嚣
嚥
嚨
嚮
嚴
嚷
嚼
囂
囉
囊
囍
囑
囔
囗
囚
四
囝
回
囟
因
囡
团
団
囤
囧
囪
囫
园
困
囱
囲
図
围
囹
固
国
图
囿
圃
圄
圆
圈
國
圍
圏
園
圓
圖
團
圜
土
圣
圧
在
圩
圭
地
圳
场
圻
圾
址
坂
均
坊
坍
坎
坏
坐
坑
块
坚
坛
坝
坞
坟
坠
坡
坤
坦
坨
坪
坯
坳
坵
坷
垂
垃
垄
型
垒
垚
垛
垠
垢
垣
垦
垩
垫
垭
垮
垵
埂
埃
埋
城
埔
埕
埗
域
埠
埤
埵
執
埸
培
基
埼
堀
堂
堃
堅
堆
堇
堑
堕
堙
堡
堤
堪
堯
堰
報
場
堵
堺
堿
塊
塌
塑
塔
塗
塘
塚
塞
塢
塩
填
塬
塭
塵
塾
墀
境
墅
墉
墊
墒
墓
増
墘
墙
墜
增
墟
墨
墩
墮
墳
墻
墾
壁
壅
壆
壇
壊
壑
壓
壕
壘
壞
壟
壢
壤
壩
士
壬
壮
壯
声
売
壳
壶
壹
壺
壽
处
备
変
复
夏
夔
夕
外
夙
多
夜
够
夠
夢
夥
大
天
太
夫
夭
央
夯
失
头
夷
夸
夹
夺
夾
奂
奄
奇
奈
奉
奋
奎
奏
奐
契
奔
奕
奖
套
奘
奚
奠
奢
奥
奧
奪
奬
奮
女
奴
奶
奸
她
好
如
妃
妄
妆
妇
妈
妊
妍
妒
妓
妖
妘
妙
妝
妞
妣
妤
妥
妨
妩
妪
妮
妲
妳
妹
妻
妾
姆
姉
姊
始
姍
姐
姑
姒
姓
委
姗
姚
姜
姝
姣
姥
姦
姨
姪
姫
姬
姹
姻
姿
威
娃
娄
娅
娆
娇
娉
娑
娓
娘
娛
娜
娟
娠
娣
娥
娩
娱
娲
娴
娶
娼
婀
婁
婆
婉
婊
婕
婚
婢
婦
婧
婪
婭
婴
婵
婶
婷
婺
婿
媒
媚
媛
媞
媧
媲
媳
媽
媾
嫁
嫂
嫉
嫌
嫑
嫔
嫖
嫘
嫚
嫡
嫣
嫦
嫩
嫲
嫵
嫻
嬅
嬉
嬌
嬗
嬛
嬢
嬤
嬪
嬰
嬴
嬷
嬸
嬿
孀
孃
子
孑
孔
孕
孖
字
存
孙
孚
孛
孜
孝
孟
孢
季
孤
学
孩
孪
孫
孬
孰
孱
孳
孵
學
孺
孽
孿
宁
它
宅
宇
守
安
宋
完
宏
宓
宕
宗
官
宙
定
宛
宜
宝
实
実
宠
审
客
宣
室
宥
宦
宪
宫
宮
宰
害
宴
宵
家
宸
容
宽
宾
宿
寂
寄
寅
密
寇
富
寐
寒
寓
寛
寝
寞
察
寡
寢
寥
實
寧
寨
審
寫
寬
寮
寰
寵
寶
寸
对
寺
寻
导
対
寿
封
専
射
将
將
專
尉
尊
尋
對
導
小
少
尔
尕
尖
尘
尚
尝
尤
尧
尬
就
尴
尷
尸
尹
尺
尻
尼
尽
尾
尿
局
屁
层
屄
居
屆
屈
屉
届
屋
屌
屍
屎
屏
屐
屑
展
屜
属
屠
屡
屢
層
履
屬
屯
山
屹
屿
岀
岁
岂
岌
岐
岑
岔
岖
岗
岘
岙
岚
岛
岡
岩
岫
岬
岭
岱
岳
岷
岸
峇
峋
峒
峙
峡
峤
峥
峦
峨
峪
峭
峯
峰
峴
島
峻
峽
崁
崂
崆
崇
崎
崑
崔
崖
崗
崙
崛
崧
崩
崭
崴
崽
嵇
嵊
嵋
嵌
嵐
嵘
嵩
嵬
嵯
嶂
嶄
嶇
嶋
嶙
嶺
嶼
嶽
巅
巍
巒
巔
巖
川
州
巡
巢
工
左
巧
巨
巩
巫
差
己
已
巳
巴
巷
巻
巽
巾
巿
币
市
布
帅
帆
师
希
帐
帑
帕
帖
帘
帚
帛
帜
帝
帥
带
帧
師
席
帮
帯
帰
帳
帶
帷
常
帼
帽
幀
幂
幄
幅
幌
幔
幕
幟
幡
幢
幣
幫
干
平
年
并
幸
幹
幺
幻
幼
幽
幾
广
庁
広
庄
庆
庇
床
序
庐
库
应
底
庖
店
庙
庚
府
庞
废
庠
度
座
庫
庭
庵
庶
康
庸
庹
庾
廁
廂
廃
廈
廉
廊
廓
廖
廚
廝
廟
廠
廢
廣
廬
廳
延
廷
建
廿
开
弁
异
弃
弄
弈
弊
弋
式
弑
弒
弓
弔
引
弗
弘
弛
弟
张
弥
弦
弧
弩
弭
弯
弱
張
強
弹
强
弼
弾
彅
彆
彈
彌
彎
归
当
录
彗
彙
彝
形
彤
彥
彦
彧
彩
彪
彫
彬
彭
彰
影
彷
役
彻
彼
彿
往
征
径
待
徇
很
徉
徊
律
後
徐
徑
徒
従
徕
得
徘
徙
徜
從
徠
御
徨
復
循
徬
微
徳
徴
徵
德
徹
徼
徽
心
必
忆
忌
忍
忏
忐
忑
忒
忖
志
忘
忙
応
忠
忡
忤
忧
忪
快
忱
念
忻
忽
忿
怀
态
怂
怅
怆
怎
怏
怒
怔
怕
怖
怙
怜
思
怠
怡
急
怦
性
怨
怪
怯
怵
总
怼
恁
恃
恆
恋
恍
恐
恒
恕
恙
恚
恢
恣
恤
恥
恨
恩
恪
恫
恬
恭
息
恰
恳
恵
恶
恸
恺
恻
恼
恿
悄
悅
悉
悌
悍
悔
悖
悚
悟
悠
患
悦
您
悩
悪
悬
悯
悱
悲
悴
悵
悶
悸
悻
悼
悽
情
惆
惇
惊
惋
惑
惕
惘
惚
惜
惟
惠
惡
惦
惧
惨
惩
惫
惬
惭
惮
惯
惰
惱
想
惴
惶
惹
惺
愁
愆
愈
愉
愍
意
愕
愚
愛
愜
感
愣
愤
愧
愫
愷
愿
慄
慈
態
慌
慎
慑
慕
慘
慚
慟
慢
慣
慧
慨
慫
慮
慰
慳
慵
慶
慷
慾
憂
憊
憋
憎
憐
憑
憔
憚
憤
憧
憨
憩
憫
憬
憲
憶
憾
懂
懇
懈
應
懊
懋
懑
懒
懦
懲
懵
懶
懷
懸
懺
懼
懾
懿
戀
戈
戊
戌
戍
戎
戏
成
我
戒
戕
或
战
戚
戛
戟
戡
戦
截
戬
戮
戰
戲
戳
戴
戶
户
戸
戻
戾
房
所
扁
扇
扈
扉
手
才
扎
扑
扒
打
扔
払
托
扛
扣
扦
执
扩
扪
扫
扬
扭
扮
扯
扰
扱
扳
扶
批
扼
找
承
技
抄
抉
把
抑
抒
抓
投
抖
抗
折
抚
抛
抜
択
抟
抠
抡
抢
护
报
抨
披
抬
抱
抵
抹
押
抽
抿
拂
拄
担
拆
拇
拈
拉
拋
拌
拍
拎
拐
拒
拓
拔
拖
拗
拘
拙
拚
招
拜
拟
拡
拢
拣
拥
拦
拧
拨
择
括
拭
拮
拯
拱
拳
拴
拷
拼
拽
拾
拿
持
挂
指
挈
按
挎
挑
挖
挙
挚
挛
挝
挞
挟
挠
挡
挣
挤
挥
挨
挪
挫
振
挲
挹
挺
挽
挾
捂
捅
捆
捉
捋
捌
捍
捎
捏
捐
捕
捞
损
捡
换
捣
捧
捨
捩
据
捱
捲
捶
捷
捺
捻
掀
掂
掃
掇
授
掉
掌
掏
掐
排
掖
掘
掙
掛
掠
採
探
掣
接
控
推
掩
措
掬
掰
掲
掳
掴
掷
掸
掺
揀
揃
揄
揆
揉
揍
描
提
插
揖
揚
換
握
揣
揩
揪
揭
揮
援
揶
揸
揹
揽
搀
搁
搂
搅
損
搏
搐
搓
搔
搖
搗
搜
搞
搡
搪
搬
搭
搵
搶
携
搽
摀
摁
摄
摆
摇
摈
摊
摒
摔
摘
摞
摟
摧
摩
摯
摳
摸
摹
摺
摻
撂
撃
撅
撇
撈
撐
撑
撒
撓
撕
撚
撞
撤
撥
撩
撫
撬
播
撮
撰
撲
撵
撷
撸
撻
撼
撿
擀
擁
擂
擄
擅
擇
擊
擋
操
擎
擒
擔
擘
據
擞
擠
擡
擢
擦
擬
擰
擱
擲
擴
擷
擺
擼
擾
攀
攏
攒
攔
攘
攙
攜
攝
攞
攢
攣
攤
攥
攪
攫
攬
支
收
攸
改
攻
放
政
故
效
敌
敍
敎
敏
救
敕
敖
敗
敘
教
敛
敝
敞
敢
散
敦
敬
数
敲
整
敵
敷
數
斂
斃
文
斋
斌
斎
斐
斑
斓
斗
料
斛
斜
斟
斡
斤
斥
斧
斩
斫
斬
断
斯
新
斷
方
於
施
旁
旃
旅
旋
旌
旎
族
旖
旗
无
既
日
旦
旧
旨
早
旬
旭
旮
旱
时
旷
旺
旻
昀
昂
昆
昇
昉
昊
昌
明
昏
易
昔
昕
昙
星
映
春
昧
昨
昭
是
昱
昴
昵
昶
昼
显
晁
時
晃
晉
晋
晌
晏
晒
晓
晔
晕
晖
晗
晚
晝
晞
晟
晤
晦
晨
晩
普
景
晰
晴
晶
晷
智
晾
暂
暄
暇
暈
暉
暌
暐
暑
暖
暗
暝
暢
暧
暨
暫
暮
暱
暴
暸
暹
曄
曆
曇
曉
曖
曙
曜
曝
曠
曦
曬
曰
曲
曳
更
書
曹
曼
曾
替
最
會
月
有
朋
服
朐
朔
朕
朗
望
朝
期
朦
朧
木
未
末
本
札
朮
术
朱
朴
朵
机
朽
杀
杂
权
杆
杈
杉
李
杏
材
村
杓
杖
杜
杞
束
杠
条
来
杨
杭
杯
杰
東
杳
杵
杷
杼
松
板
极
构
枇
枉
枋
析
枕
林
枚
果
枝
枢
枣
枪
枫
枭
枯
枰
枱
枳
架
枷
枸
柄
柏
某
柑
柒
染
柔
柘
柚
柜
柞
柠
柢
查
柩
柬
柯
柱
柳
柴
柵
査
柿
栀
栃
栄
栅
标
栈
栉
栋
栎
栏
树
栓
栖
栗
校
栩
株
样
核
根
格
栽
栾
桀
桁
桂
桃
桅
框
案
桉
桌
桎
桐
桑
桓
桔
桜
桠
桡
桢
档
桥
桦
桧
桨
桩
桶
桿
梁
梅
梆
梏
梓
梗
條
梟
梢
梦
梧
梨
梭
梯
械
梳
梵
梶
检
棂
棄
棉
棋
棍
棒
棕
棗
棘
棚
棟
棠
棣
棧
森
棱
棲
棵
棹
棺
椁
椅
椋
植
椎
椒
検
椪
椭
椰
椹
椽
椿
楂
楊
楓
楔
楚
楝
楞
楠
楣
楨
楫
業
楮
極
楷
楸
楹
楼
楽
概
榄
榆
榈
榉
榔
榕
榖
榛
榜
榨
榫
榭
榮
榱
榴
榷
榻
槁
槃
構
槌
槍
槎
槐
槓
様
槛
槟
槤
槭
槲
槳
槻
槽
槿
樁
樂
樊
樑
樓
標
樞
樟
模
樣
権
横
樫
樯
樱
樵
樸
樹
樺
樽
樾
橄
橇
橋
橐
橘
橙
機
橡
橢
橫
橱
橹
橼
檀
檄
檎
檐
檔
檗
檜
檢
檬
檯
檳
檸
檻
櫃
櫚
櫛
櫥
櫸
櫻
欄
權
欒
欖
欠
次
欢
欣
欧
欲
欸
欺
欽
款
歆
歇
歉
歌
歎
歐
歓
歙
歛
歡
止
正
此
步
武
歧
歩
歪
歯
歲
歳
歴
歷
歸
歹
死
歼
殁
殃
殆
殇
殉
殊
残
殒
殓
殖
殘
殞
殡
殤
殭
殯
殲
殴
段
殷
殺
殼
殿
毀
毁
毂
毅
毆
毋
母
毎
每
毒
毓
比
毕
毗
毘
毙
毛
毡
毫
毯
毽
氈
氏
氐
民
氓
气
氖
気
氙
氛
氟
氡
氢
氣
氤
氦
氧
氨
氪
氫
氮
氯
氰
氲
水
氷
永
氹
氾
汀
汁
求
汆
汇
汉
汎
汐
汕
汗
汙
汛
汝
汞
江
池
污
汤
汨
汩
汪
汰
汲
汴
汶
汹
決
汽
汾
沁
沂
沃
沅
沈
沉
沌
沏
沐
沒
沓
沖
沙
沛
沟
没
沢
沣
沥
沦
沧
沪
沫
沭
沮
沱
河
沸
油
治
沼
沽
沾
沿
況
泄
泉
泊
泌
泓
法
泗
泛
泞
泠
泡
波
泣
泥
注
泪
泫
泮
泯
泰
泱
泳
泵
泷
泸
泻
泼
泽
泾
洁
洄
洋
洒
洗
洙
洛
洞
津
洩
洪
洮
洱
洲
洵
洶
洸
洹
活
洼
洽
派
流
浃
浄
浅
浆
浇
浊
测
济
浏
浑
浒
浓
浔
浙
浚
浜
浣
浦
浩
浪
浬
浮
浯
浴
海
浸
涂
涅
涇
消
涉
涌
涎
涓
涔
涕
涙
涛
涝
涞
涟
涠
涡
涣
涤
润
涧
涨
涩
涪
涮
涯
液
涵
涸
涼
涿
淀
淄
淅
淆
淇
淋
淌
淑
淒
淖
淘
淙
淚
淞
淡
淤
淦
淨
淩
淪
淫
淬
淮
深
淳
淵
混
淹
淺
添
淼
清
済
渉
渊
渋
渍
渎
渐
渔
渗
渙
渚
減
渝
渠
渡
渣
渤
渥
渦
温
測
渭
港
渲
渴
游
渺
渾
湃
湄
湊
湍
湖
湘
湛
湟
湧
湫
湮
湯
湳
湾
湿
満
溃
溅
溉
溏
源
準
溜
溝
溟
溢
溥
溧
溪
溫
溯
溱
溴
溶
溺
溼
滁
滂
滄
滅
滇
滋
滌
滑
滓
滔
滕
滙
滚
滝
滞
滟
满
滢
滤
滥
滦
滨
滩
滬
滯
滲
滴
滷
滸
滾
滿
漁
漂
漆
漉
漏
漓
演
漕
漠
漢
漣
漩
漪
漫
漬
漯
漱
漲
漳
漸
漾
漿
潆
潇
潋
潍
潑
潔
潘
潛
潜
潞
潟
潢
潤
潦
潧
潭
潮
潰
潴
潸
潺
潼
澀
澄
澆
澈
澍
澎
澗
澜
澡
澤
澧
澱
澳
澹
激
濁
濂
濃
濑
濒
濕
濘
濛
濟
濠
濡
濤
濫
濬
濮
濯
濱
濺
濾
瀅
瀆
瀉
瀋
瀏
瀑
瀕
瀘
瀚
瀛
瀝
瀞
瀟
瀧
瀨
瀬
瀰
瀾
灌
灏
灑
灘
灝
灞
灣
火
灬
灭
灯
灰
灵
灶
灸
灼
災
灾
灿
炀
炁
炅
炉
炊
炎
炒
炔
炕
炖
炙
炜
炫
炬
炭
炮
炯
炳
炷
炸
点
為
炼
炽
烁
烂
烃
烈
烊
烏
烘
烙
烛
烟
烤
烦
烧
烨
烩
烫
烬
热
烯
烷
烹
烽
焉
焊
焕
焖
焗
焘
焙
焚
焜
無
焦
焯
焰
焱
然
焼
煅
煉
煊
煌
煎
煒
煖
煙
煜
煞
煤
煥
煦
照
煨
煩
煮
煲
煸
煽
熄
熊
熏
熒
熔
熙
熟
熠
熨
熬
熱
熵
熹
熾
燁
燃
燄
燈
燉
燊
燎
燒
燔
燕
燙
燜
營
燥
燦
燧
燭
燮
燴
燻
燼
燿
爆
爍
爐
爛
爪
爬
爭
爰
爱
爲
爵
父
爷
爸
爹
爺
爻
爽
爾
牆
片
版
牌
牍
牒
牙
牛
牝
牟
牠
牡
牢
牦
牧
物
牯
牲
牴
牵
特
牺
牽
犀
犁
犄
犊
犍
犒
犢
犧
犬
犯
状
犷
犸
犹
狀
狂
狄
狈
狎
狐
狒
狗
狙
狞
狠
狡
狩
独
狭
狮
狰
狱
狸
狹
狼
狽
猎
猕
猖
猗
猙
猛
猜
猝
猥
猩
猪
猫
猬
献
猴
猶
猷
猾
猿
獄
獅
獎
獐
獒
獗
獠
獣
獨
獭
獰
獲
獵
獷
獸
獺
獻
獼
獾
玄
率
玉
王
玑
玖
玛
玟
玠
玥
玩
玫
玮
环
现
玲
玳
玷
玺
玻
珀
珂
珅
珈
珉
珊
珍
珏
珐
珑
珙
珞
珠
珣
珥
珩
珪
班
珮
珲
珺
現
球
琅
理
琇
琉
琊
琍
琏
琐
琛
琢
琥
琦
琨
琪
琬
琮
琰
琲
琳
琴
琵
琶
琺
琼
瑀
瑁
瑄
瑋
瑕
瑗
瑙
瑚
瑛
瑜
瑞
瑟
瑠
瑣
瑤
瑩
瑪
瑯
瑰
瑶
瑾
璀
璁
璃
璇
璉
璋
璎
璐
璜
璞
璟
璧
璨
環
璽
璿
瓊
瓏
瓒
瓜
瓢
瓣
瓤
瓦
瓮
瓯
瓴
瓶
瓷
甄
甌
甕
甘
甙
甚
甜
生
產
産
甥
甦
用
甩
甫
甬
甭
甯
田
由
甲
申
电
男
甸
町
画
甾
畀
畅
界
畏
畑
畔
留
畜
畝
畢
略
畦
番
畫
異
畲
畳
畴
當
畸
畹
畿
疆
疇
疊
疏
疑
疔
疖
疗
疙
疚
疝
疟
疡
疣
疤
疥
疫
疮
疯
疱
疲
疳
疵
疸
疹
疼
疽
疾
痂
病
症
痈
痉
痊
痍
痒
痔
痕
痘
痙
痛
痞
痠
痢
痣
痤
痧
痨
痪
痫
痰
痱
痴
痹
痺
痼
痿
瘀
瘁
瘋
瘍
瘓
瘘
瘙
瘟
瘠
瘡
瘢
瘤
瘦
瘧
瘩
瘪
瘫
瘴
瘸
瘾
療
癇
癌
癒
癖
癜
癞
癡
癢
癣
癥
癫
癬
癮
癱
癲
癸
発
登
發
白
百
皂
的
皆
皇
皈
皋
皎
皑
皓
皖
皙
皚
皮
皰
皱
皴
皺
皿
盂
盃
盅
盆
盈
益
盎
盏
盐
监
盒
盔
盖
盗
盘
盛
盜
盞
盟
盡
監
盤
盥
盧
盪
目
盯
盱
盲
直
相
盹
盼
盾
省
眈
眉
看
県
眙
眞
真
眠
眦
眨
眩
眯
眶
眷
眸
眺
眼
眾
着
睁
睇
睏
睐
睑
睛
睜
睞
睡
睢
督
睥
睦
睨
睪
睫
睬
睹
睽
睾
睿
瞄
瞅
瞇
瞋
瞌
瞎
瞑
瞒
瞓
瞞
瞟
瞠
瞥
瞧
瞩
瞪
瞬
瞭
瞰
瞳
瞻
瞼
瞿
矇
矍
矗
矚
矛
矜
矢
矣
知
矩
矫
短
矮
矯
石
矶
矽
矾
矿
码
砂
砌
砍
砒
研
砖
砗
砚
砝
砣
砥
砧
砭
砰
砲
破
砷
砸
砺
砼
砾
础
硅
硐
硒
硕
硝
硫
硬
确
硯
硼
碁
碇
碉
碌
碍
碎
碑
碓
碗
碘
碚
碛
碟
碣
碧
碩
碰
碱
碳
碴
確
碼
碾
磁
磅
磊
磋
磐
磕
磚
磡
磨
磬
磯
磲
磷
磺
礁
礎
礙
礡
礦
礪
礫
礴
示
礼
社
祀
祁
祂
祇
祈
祉
祎
祐
祕
祖
祗
祚
祛
祜
祝
神
祟
祠
祢
祥
票
祭
祯
祷
祸
祺
祿
禀
禁
禄
禅
禍
禎
福
禛
禦
禧
禪
禮
禱
禹
禺
离
禽
禾
禿
秀
私
秃
秆
秉
秋
种
科
秒
秘
租
秣
秤
秦
秧
秩
秭
积
称
秸
移
秽
稀
稅
程
稍
税
稔
稗
稚
稜
稞
稟
稠
稣
種
稱
稲
稳
稷
稹
稻
稼
稽
稿
穀
穂
穆
穌
積
穎
穗
穢
穩
穫
穴
究
穷
穹
空
穿
突
窃
窄
窈
窍
窑
窒
窓
窕
窖
窗
窘
窜
窝
窟
窠
窥
窦
窨
窩
窪
窮
窯
窺
窿
竄
竅
竇
竊
立
竖
站
竜
竞
竟
章
竣
童
竭
端
競
竹
竺
竽
竿
笃
笆
笈
笋
笏
笑
笔
笙
笛
笞
笠
符
笨
第
笹
笺
笼
筆
等
筊
筋
筍
筏
筐
筑
筒
答
策
筛
筝
筠
筱
筲
筵
筷
筹
签
简
箇
箋
箍
箏
箐
箔
箕
算
箝
管
箩
箫
箭
箱
箴
箸
節
篁
範
篆
篇
築
篑
篓
篙
篝
篠
篡
篤
篩
篪
篮
篱
篷
簇
簌
簍
簡
簦
簧
簪
簫
簷
簸
簽
簾
簿
籁
籃
籌
籍
籐
籟
籠
籤
籬
籮
籲
米
类
籼
籽
粄
粉
粑
粒
粕
粗
粘
粟
粤
粥
粧
粪
粮
粱
粲
粳
粵
粹
粼
粽
精
粿
糅
糊
糍
糕
糖
糗
糙
糜
糞
糟
糠
糧
糬
糯
糰
糸
系
糾
紀
紂
約
紅
紉
紊
紋
納
紐
紓
純
紗
紘
紙
級
紛
紜
素
紡
索
紧
紫
紮
累
細
紳
紹
紺
終
絃
組
絆
経
結
絕
絞
絡
絢
給
絨
絮
統
絲
絳
絵
絶
絹
綁
綏
綑
經
継
続
綜
綠
綢
綦
綫
綬
維
綱
網
綴
綵
綸
綺
綻
綽
綾
綿
緊
緋
総
緑
緒
緘
線
緝
緞
締
緣
編
緩
緬
緯
練
緹
緻
縁
縄
縈
縛
縝
縣
縫
縮
縱
縴
縷
總
績
繁
繃
繆
繇
繋
織
繕
繚
繞
繡
繩
繪
繫
繭
繳
繹
繼
繽
纂
續
纍
纏
纓
纔
纖
纜
纠
红
纣
纤
约
级
纨
纪
纫
纬
纭
纯
纰
纱
纲
纳
纵
纶
纷
纸
纹
纺
纽
纾
线
绀
练
组
绅
细
织
终
绊
绍
绎
经
绑
绒
结
绔
绕
绘
给
绚
绛
络
绝
绞
统
绡
绢
绣
绥
绦
继
绩
绪
绫
续
绮
绯
绰
绳
维
绵
绶
绷
绸
绻
综
绽
绾
绿
缀
缄
缅
缆
缇
缈
缉
缎
缓
缔
缕
编
缘
缙
缚
缜
缝
缠
缢
缤
缥
缨
缩
缪
缭
缮
缰
缱
缴
缸
缺
缽
罂
罄
罌
罐
网
罔
罕
罗
罚
罡
罢
罩
罪
置
罰
署
罵
罷
罹
羁
羅
羈
羊
羌
美
羔
羚
羞
羟
羡
羣
群
羥
羧
羨
義
羯
羲
羸
羹
羽
羿
翁
翅
翊
翌
翎
習
翔
翘
翟
翠
翡
翦
翩
翰
翱
翳
翹
翻
翼
耀
老
考
耄
者
耆
耋
而
耍
耐
耒
耕
耗
耘
耙
耦
耨
耳
耶
耷
耸
耻
耽
耿
聂
聆
聊
聋
职
聒
联
聖
聘
聚
聞
聪
聯
聰
聲
聳
聴
聶
職
聽
聾
聿
肃
肄
肅
肆
肇
肉
肋
肌
肏
肓
肖
肘
肚
肛
肝
肠
股
肢
肤
肥
肩
肪
肮
肯
肱
育
肴
肺
肽
肾
肿
胀
胁
胃
胄
胆
背
胍
胎
胖
胚
胛
胜
胝
胞
胡
胤
胥
胧
胫
胭
胯
胰
胱
胳
胴
胶
胸
胺
能
脂
脅
脆
脇
脈
脉
脊
脍
脏
脐
脑
脓
脖
脘
脚
脛
脣
脩
脫
脯
脱
脲
脳
脸
脹
脾
腆
腈
腊
腋
腌
腎
腐
腑
腓
腔
腕
腥
腦
腩
腫
腭
腮
腰
腱
腳
腴
腸
腹
腺
腻
腼
腾
腿
膀
膈
膊
膏
膑
膘
膚
膛
膜
膝
膠
膦
膨
膩
膳
膺
膻
膽
膾
膿
臀
臂
臃
臆
臉
臊
臍
臓
臘
臟
臣
臥
臧
臨
自
臬
臭
至
致
臺
臻
臼
臾
舀
舂
舅
舆
與
興
舉
舊
舌
舍
舎
舐
舒
舔
舖
舗
舛
舜
舞
舟
航
舫
般
舰
舱
舵
舶
舷
舸
船
舺
舾
艇
艋
艘
艙
艦
艮
良
艰
艱
色
艳
艷
艹
艺
艾
节
芃
芈
芊
芋
芍
芎
芒
芙
芜
芝
芡
芥
芦
芩
芪
芫
芬
芭
芮
芯
花
芳
芷
芸
芹
芻
芽
芾
苁
苄
苇
苋
苍
苏
苑
苒
苓
苔
苕
苗
苛
苜
苞
苟
苡
苣
若
苦
苫
苯
英
苷
苹
苻
茁
茂
范
茄
茅
茉
茎
茏
茗
茜
茧
茨
茫
茬
茭
茯
茱
茲
茴
茵
茶
茸
茹
茼
荀
荃
荆
草
荊
荏
荐
荒
荔
荖
荘
荚
荞
荟
荠
荡
荣
荤
荥
荧
荨
荪
荫
药
荳
荷
荸
荻
荼
荽
莅
莆
莉
莊
莎
莒
莓
莖
莘
莞
莠
莢
莧
莪
莫
莱
莲
莴
获
莹
莺
莽
莿
菀
菁
菅
菇
菈
菊
菌
菏
菓
菖
菘
菜
菟
菠
菡
菩
華
菱
菲
菸
菽
萁
萃
萄
萊
萋
萌
萍
萎
萘
萝
萤
营
萦
萧
萨
萩
萬
萱
萵
萸
萼
落
葆
葉
著
葚
葛
葡
董
葦
葩
葫
葬
葭
葯
葱
葳
葵
葷
葺
蒂
蒋
蒐
蒔
蒙
蒜
蒞
蒟
蒡
蒨
蒲
蒸
蒹
蒻
蒼
蒿
蓁
蓄
蓆
蓉
蓋
蓑
蓓
蓖
蓝
蓟
蓦
蓬
蓮
蓼
蓿
蔑
蔓
蔔
蔗
蔘
蔚
蔡
蔣
蔥
蔫
蔬
蔭
蔵
蔷
蔺
蔻
蔼
蔽
蕁
蕃
蕈
蕉
蕊
蕎
蕙
蕤
蕨
蕩
蕪
蕭
蕲
蕴
蕻
蕾
薄
薅
薇
薈
薊
薏
薑
薔
薙
薛
薦
薨
薩
薪
薬
薯
薰
薹
藉
藍
藏
藐
藓
藕
藜
藝
藤
藥
藩
藹
藻
藿
蘆
蘇
蘊
蘋
蘑
蘚
蘭
蘸
蘼
蘿
虎
虏
虐
虑
虔
處
虚
虛
虜
虞
號
虢
虧
虫
虬
虱
虹
虻
虽
虾
蚀
蚁
蚂
蚊
蚌
蚓
蚕
蚜
蚝
蚣
蚤
蚩
蚪
蚯
蚱
蚵
蛀
蛆
蛇
蛊
蛋
蛎
蛐
蛔
蛙
蛛
蛟
蛤
蛭
蛮
蛰
蛳
蛹
蛻
蛾
蜀
蜂
蜃
蜆
蜇
蜈
蜊
蜍
蜒
蜓
蜕
蜗
蜘
蜚
蜜
蜡
蜢
蜥
蜱
蜴
蜷
蜻
蜿
蝇
蝈
蝉
蝌
蝎
蝕
蝗
蝙
蝟
蝠
蝦
蝨
蝴
蝶
蝸
蝼
螂
螃
融
螞
螢
螨
螯
螳
螺
蟀
蟄
蟆
蟋
蟎
蟑
蟒
蟠
蟬
蟲
蟹
蟻
蟾
蠅
蠍
蠔
蠕
蠛
蠟
蠡
蠢
蠣
蠱
蠶
蠹
蠻
血
衄
衅
衆
行
衍
術
衔
街
衙
衛
衝
衞
衡
衢
衣
补
表
衩
衫
衬
衮
衰
衲
衷
衹
衾
衿
袁
袂
袄
袅
袈
袋
袍
袒
袖
袜
袞
袤
袪
被
袭
袱
裁
裂
装
裆
裊
裏
裔
裕
裘
裙
補
裝
裟
裡
裤
裨
裱
裳
裴
裸
裹
製
裾
褂
複
褐
褒
褓
褔
褚
褥
褪
褫
褲
褶
褻
襁
襄
襟
襠
襪
襬
襯
襲
西
要
覃
覆
覇
見
規
覓
視
覚
覦
覧
親
覬
観
覷
覺
覽
觀
见
观
规
觅
视
览
觉
觊
觎
觐
觑
角
觞
解
觥
触
觸
言
訂
計
訊
討
訓
訕
訖
託
記
訛
訝
訟
訣
訥
訪
設
許
訳
訴
訶
診
註
証
詆
詐
詔
評
詛
詞
詠
詡
詢
詣
試
詩
詫
詬
詭
詮
詰
話
該
詳
詹
詼
誅
誇
誉
誌
認
誓
誕
誘
語
誠
誡
誣
誤
誥
誦
誨
說
説
読
誰
課
誹
誼
調
諄
談
請
諏
諒
論
諗
諜
諡
諦
諧
諫
諭
諮
諱
諳
諷
諸
諺
諾
謀
謁
謂
謄
謊
謎
謐
謔
謗
謙
講
謝
謠
謨
謬
謹
謾
譁
證
譎
譏
識
譙
譚
譜
警
譬
譯
議
譲
譴
護
譽
讀
變
讓
讚
讞
计
订
认
讥
讧
讨
让
讪
讫
训
议
讯
记
讲
讳
讴
讶
讷
许
讹
论
讼
讽
设
访
诀
证
诃
评
诅
识
诈
诉
诊
诋
词
诏
译
试
诗
诘
诙
诚
诛
话
诞
诟
诠
诡
询
诣
诤
该
详
诧
诩
诫
诬
语
误
诰
诱
诲
说
诵
诶
请
诸
诺
读
诽
课
诿
谀
谁
调
谄
谅
谆
谈
谊
谋
谌
谍
谎
谏
谐
谑
谒
谓
谔
谕
谗
谘
谙
谚
谛
谜
谟
谢
谣
谤
谥
谦
谧
谨
谩
谪
谬
谭
谯
谱
谲
谴
谶
谷
豁
豆
豇
豈
豉
豊
豌
豎
豐
豔
豚
象
豢
豪
豫
豬
豹
豺
貂
貅
貌
貓
貔
貘
貝
貞
負
財
貢
貧
貨
販
貪
貫
責
貯
貰
貳
貴
貶
買
貸
費
貼
貽
貿
賀
賁
賂
賃
賄
資
賈
賊
賑
賓
賜
賞
賠
賡
賢
賣
賤
賦
質
賬
賭
賴
賺
購
賽
贅
贈
贊
贍
贏
贓
贖
贛
贝
贞
负
贡
财
责
贤
败
账
货
质
贩
贪
贫
贬
购
贮
贯
贰
贱
贲
贴
贵
贷
贸
费
贺
贻
贼
贾
贿
赁
赂
赃
资
赅
赈
赊
赋
赌
赎
赏
赐
赓
赔
赖
赘
赚
赛
赝
赞
赠
赡
赢
赣
赤
赦
赧
赫
赭
走
赳
赴
赵
赶
起
趁
超
越
趋
趕
趙
趟
趣
趨
足
趴
趵
趸
趺
趾
跃
跄
跆
跋
跌
跎
跑
跖
跚
跛
距
跟
跡
跤
跨
跩
跪
路
跳
践
跷
跹
跺
跻
踉
踊
踌
踏
踐
踝
踞
踟
踢
踩
踪
踮
踱
踴
踵
踹
蹂
蹄
蹇
蹈
蹉
蹊
蹋
蹑
蹒
蹙
蹟
蹣
蹤
蹦
蹩
蹬
蹭
蹲
蹴
蹶
蹺
蹼
蹿
躁
躇
躉
躊
躋
躍
躏
躪
身
躬
躯
躲
躺
軀
車
軋
軌
軍
軒
軟
転
軸
軼
軽
軾
較
載
輒
輓
輔
輕
輛
輝
輟
輩
輪
輯
輸
輻
輾
輿
轄
轅
轆
轉
轍
轎
轟
车
轧
轨
轩
转
轭
轮
软
轰
轲
轴
轶
轻
轼
载
轿
较
辄
辅
辆
辇
辈
辉
辊
辍
辐
辑
输
辕
辖
辗
辘
辙
辛
辜
辞
辟
辣
辦
辨
辩
辫
辭
辮
辯
辰
辱
農
边
辺
辻
込
辽
达
迁
迂
迄
迅
过
迈
迎
运
近
返
还
这
进
远
违
连
迟
迢
迤
迥
迦
迩
迪
迫
迭
述
迴
迷
迸
迹
迺
追
退
送
适
逃
逅
逆
选
逊
逍
透
逐
递
途
逕
逗
這
通
逛
逝
逞
速
造
逢
連
逮
週
進
逵
逶
逸
逻
逼
逾
遁
遂
遅
遇
遊
運
遍
過
遏
遐
遑
遒
道
達
違
遗
遙
遛
遜
遞
遠
遢
遣
遥
遨
適
遭
遮
遲
遴
遵
遶
遷
選
遺
遼
遽
避
邀
邁
邂
邃
還
邇
邈
邊
邋
邏
邑
邓
邕
邛
邝
邢
那
邦
邨
邪
邬
邮
邯
邰
邱
邳
邵
邸
邹
邺
邻
郁
郅
郊
郎
郑
郜
郝
郡
郢
郤
郦
郧
部
郫
郭
郴
郵
郷
郸
都
鄂
鄉
鄒
鄔
鄙
鄞
鄢
鄧
鄭
鄰
鄱
鄲
鄺
酉
酊
酋
酌
配
酐
酒
酗
酚
酝
酢
酣
酥
酩
酪
酬
酮
酯
酰
酱
酵
酶
酷
酸
酿
醃
醇
醉
醋
醍
醐
醒
醚
醛
醜
醞
醣
醪
醫
醬
醮
醯
醴
醺
釀
釁
采
釉
释
釋
里
重
野
量
釐
金
釗
釘
釜
針
釣
釦
釧
釵
鈀
鈉
鈍
鈎
鈔
鈕
鈞
鈣
鈦
鈪
鈴
鈺
鈾
鉀
鉄
鉅
鉉
鉑
鉗
鉚
鉛
鉤
鉴
鉻
銀
銃
銅
銑
銓
銖
銘
銜
銬
銭
銮
銳
銷
銹
鋁
鋅
鋒
鋤
鋪
鋰
鋸
鋼
錄
錐
錘
錚
錠
錢
錦
錨
錫
錮
錯
録
錳
錶
鍊
鍋
鍍
鍛
鍥
鍰
鍵
鍺
鍾
鎂
鎊
鎌
鎏
鎔
鎖
鎗
鎚
鎧
鎬
鎮
鎳
鏈
鏖
鏗
鏘
鏞
鏟
鏡
鏢
鏤
鏽
鐘
鐮
鐲
鐳
鐵
鐸
鐺
鑄
鑊
鑑
鑒
鑣
鑫
鑰
鑲
鑼
鑽
鑾
鑿
针
钉
钊
钎
钏
钒
钓
钗
钙
钛
钜
钝
钞
钟
钠
钡
钢
钣
钤
钥
钦
钧
钨
钩
钮
钯
钰
钱
钳
钴
钵
钺
钻
钼
钾
钿
铀
铁
铂
铃
铄
铅
铆
铉
铎
铐
铛
铜
铝
铠
铡
铢
铣
铤
铨
铩
铬
铭
铮
铰
铲
铵
银
铸
铺
链
铿
销
锁
锂
锄
锅
锆
锈
锉
锋
锌
锏
锐
锑
错
锚
锟
锡
锢
锣
锤
锥
锦
锭
键
锯
锰
锲
锵
锹
锺
锻
镀
镁
镂
镇
镉
镌
镍
镐
镑
镕
镖
镗
镛
镜
镣
镭
镯
镰
镳
镶
長
长
門
閃
閉
開
閎
閏
閑
閒
間
閔
閘
閡
関
閣
閥
閨
閩
閱
閲
閹
閻
閾
闆
闇
闊
闌
闍
闔
闕
闖
闘
關
闡
闢
门
闪
闫
闭
问
闯
闰
闲
间
闵
闷
闸
闹
闺
闻
闽
闾
阀
阁
阂
阅
阆
阇
阈
阉
阎
阐
阑
阔
阕
阖
阙
阚
阜
队
阡
阪
阮
阱
防
阳
阴
阵
阶
阻
阿
陀
陂
附
际
陆
陇
陈
陋
陌
降
限
陕
陛
陝
陞
陟
陡
院
陣
除
陨
险
陪
陰
陲
陳
陵
陶
陷
陸
険
陽
隅
隆
隈
隊
隋
隍
階
随
隐
隔
隕
隘
隙
際
障
隠
隣
隧
隨
險
隱
隴
隶
隸
隻
隼
隽
难
雀
雁
雄
雅
集
雇
雉
雋
雌
雍
雎
雏
雑
雒
雕
雖
雙
雛
雜
雞
離
難
雨
雪
雯
雰
雲
雳
零
雷
雹
電
雾
需
霁
霄
霆
震
霈
霉
霊
霍
霎
霏
霑
霓
霖
霜
霞
霧
霭
霰
露
霸
霹
霽
霾
靂
靄
靈
青
靓
靖
静
靚
靛
靜
非
靠
靡
面
靥
靦
革
靳
靴
靶
靼
鞅
鞋
鞍
鞏
鞑
鞘
鞠
鞣
鞦
鞭
韆
韋
韌
韓
韜
韦
韧
韩
韬
韭
音
韵
韶
韻
響
頁
頂
頃
項
順
須
頌
預
頑
頒
頓
頗
領
頜
頡
頤
頫
頭
頰
頷
頸
頹
頻
頼
顆
題
額
顎
顏
顔
願
顛
類
顧
顫
顯
顱
顴
页
顶
顷
项
顺
须
顼
顽
顾
顿
颁
颂
预
颅
领
颇
颈
颉
颊
颌
颍
颐
频
颓
颔
颖
颗
题
颚
颛
颜
额
颞
颠
颡
颢
颤
颦
颧
風
颯
颱
颳
颶
颼
飄
飆
风
飒
飓
飕
飘
飙
飚
飛
飞
食
飢
飨
飩
飪
飯
飲
飼
飽
飾
餃
餅
餉
養
餌
餐
餒
餓
餘
餚
餛
餞
餡
館
餮
餵
餾
饅
饈
饋
饌
饍
饑
饒
饕
饗
饞
饥
饨
饪
饬
饭
饮
饯
饰
饱
饲
饴
饵
饶
饷
饺
饼
饽
饿
馀
馁
馄
馅
馆
馈
馋
馍
馏
馒
馔
首
馗
香
馥
馨
馬
馭
馮
馳
馴
駁
駄
駅
駆
駐
駒
駕
駛
駝
駭
駱
駿
騁
騎
騏
験
騙
騨
騰
騷
驀
驅
驊
驍
驒
驕
驗
驚
驛
驟
驢
驥
马
驭
驮
驯
驰
驱
驳
驴
驶
驷
驸
驹
驻
驼
驾
驿
骁
骂
骄
骅
骆
骇
骈
骊
骋
验
骏
骐
骑
骗
骚
骛
骜
骞
骠
骡
骤
骥
骧
骨
骯
骰
骶
骷
骸
骼
髂
髅
髋
髏
髒
髓
體
髖
高
髦
髪
髮
髯
髻
鬃
鬆
鬍
鬓
鬚
鬟
鬢
鬣
鬥
鬧
鬱
鬼
魁
魂
魄
魅
魇
魍
魏
魔
魘
魚
魯
魷
鮑
鮨
鮪
鮭
鮮
鯉
鯊
鯖
鯛
鯨
鯰
鯽
鰍
鰓
鰭
鰲
鰻
鰾
鱈
鱉
鱔
鱗
鱷
鱸
鱼
鱿
鲁
鲈
鲍
鲑
鲛
鲜
鲟
鲢
鲤
鲨
鲫
鲱
鲲
鲶
鲷
鲸
鳃
鳄
鳅
鳌
鳍
鳕
鳖
鳗
鳝
鳞
鳥
鳩
鳳
鳴
鳶
鴉
鴕
鴛
鴦
鴨
鴻
鴿
鵑
鵜
鵝
鵡
鵬
鵰
鵲
鶘
鶩
鶯
鶴
鷗
鷲
鷹
鷺
鸚
鸞
鸟
鸠
鸡
鸢
鸣
鸥
鸦
鸨
鸪
鸭
鸯
鸳
鸵
鸽
鸾
鸿
鹂
鹃
鹄
鹅
鹈
鹉
鹊
鹌
鹏
鹑
鹕
鹘
鹜
鹞
鹤
鹦
鹧
鹫
鹭
鹰
鹳
鹵
鹹
鹼
鹽
鹿
麂
麋
麒
麓
麗
麝
麟
麥
麦
麩
麴
麵
麸
麺
麻
麼
麽
麾
黃
黄
黍
黎
黏
黑
黒
黔
默
黛
黜
黝
點
黠
黨
黯
黴
鼋
鼎
鼐
鼓
鼠
鼬
鼹
鼻
鼾
齁
齊
齋
齐
齒
齡
齢
齣
齦
齿
龄
龅
龈
龊
龋
龌
龍
龐
龔
龕
龙
龚
龛
龜
龟
︰
︱
︶
︿
﹁
﹂
﹍
﹏
﹐
﹑
﹒
﹔
﹕
﹖
﹗
﹙
﹚
﹝
﹞
﹡
﹣
！
＂
＃
＄
％
＆
＇
（
）
＊
＋
，
－
．
／
０
１
２
３
４
５
６
７
８
９
：
；
＜
＝
＞
？
＠
［
＼
］
＾
＿
｀
ａ
ｂ
ｃ
ｄ
ｅ
ｆ
ｇ
ｈ
ｉ
ｊ
ｋ
ｌ
ｍ
ｎ
ｏ
ｐ
ｑ
ｒ
ｓ
ｔ
ｕ
ｖ
ｗ
ｘ
ｙ
ｚ
｛
｜
｝
～
｡
｢
｣
､
･
ｯ
ｰ
ｲ
ｸ
ｼ
ｽ
ﾄ
ﾉ
ﾌ
ﾗ
ﾙ
ﾝ
ﾞ
ﾟ
￣
￥
👍
🔥
😂
😎
...
yam
10
2017
12
11
2016
20
30
15
06
lofter
##s
2015
by
16
14
18
13
24
17
2014
21
##0
22
19
25
23
com
100
00
05
2013
##a
03
09
08
28
##2
50
01
04
##1
27
02
2012
##3
26
##e
07
##8
##5
##6
##4
##9
##7
29
2011
40
##t
2010
##o
##d
##i
2009
##n
app
www
the
##m
31
##c
##l
##y
##r
##g
2008
60
http
200
qq
##p
80
##f
google
pixnet
90
cookies
tripadvisor
500
##er
##k
35
##h
facebook
2007
2000
70
##b
of
##x
##u
45
300
iphone
32
1000
2006
48
ip
36
in
38
3d
##w
##ing
55
ctrip
##on
##v
33
##の
to
34
400
id
2005
it
37
windows
llc
top
99
42
39
000
led
at
##an
41
51
52
46
49
43
53
44
##z
android
58
and
59
2004
56
vr
##か
5000
2003
47
blogthis
twitter
54
##le
150
ok
2018
57
75
cn
no
ios
##in
##mm
##00
800
on
te
3000
65
2001
360
95
ig
lv
120
##ng
##を
##us
##に
pc
てす
──
600
##te
85
2002
88
##ed
html
ncc
wifi
email
64
blog
is
##10
##て
mail
online
##al
dvd
##ic
studio
##は
##℃
##ia
##と
line
vip
72
##q
98
##ce
##en
for
##is
##ra
##es
##j
usb
net
cp
1999
asia
4g
##cm
diy
new
3c
##お
ta
66
language
vs
apple
tw
86
web
##ne
ipad
62
you
##re
101
68
##tion
ps
de
bt
pony
atm
##2017
1998
67
##ch
ceo
##or
go
##na
av
pro
cafe
96
pinterest
97
63
pixstyleme3c
##ta
more
said
##2016
1997
mp3
700
##ll
nba
jun
##20
92
tv
1995
pm
61
76
nbsp
250
##ie
linux
##ma
cd
110
hd
##17
78
##ion
77
6000
am
##th
##st
94
##se
##et
69
180
gdp
my
105
81
abc
89
flash
79
one
93
1990
1996
##ck
gps
##も
##ly
web885
106
2020
91
##ge
4000
1500
xd
boss
isbn
1994
org
##ry
me
love
##11
0fork
73
##12
3g
##ter
##ar
71
82
##la
hotel
130
1970
pk
83
87
140
ie
##os
##30
##el
74
##50
seo
cpu
##ml
p2p
84
may
##る
sun
tue
internet
cc
posted
youtube
##at
##ン
##man
ii
##ル
##15
abs
nt
pdf
yahoo
ago
1980
##it
news
mac
104
##てす
##me
##り
java
1992
spa
##de
##nt
hk
all
plus
la
1993
##mb
##16
##ve
west
##da
160
air
##い
##ps
から
##to
1989
logo
htc
php
https
fi
momo
##son
sat
##ke
##80
ebd
suv
wi
day
apk
##88
##um
mv
galaxy
wiki
or
brake
##ス
1200
する
this
1991
mon
##こ
❤2017
po
##ない
javascript
life
home
june
##ss
system
900
##ー
##０
pp
1988
world
fb
4k
br
##as
ic
ai
leonardo
safari
##60
live
free
xx
wed
win7
kiehl
##co
lg
o2o
##go
us
235
1949
mm
しい
vfm
kanye
##90
##2015
##id
jr
##ey
123
rss
##sa
##ro
##am
##no
thu
fri
350
##sh
##ki
103
comments
name
##のて
##pe
##ine
max
1987
8000
uber
##mi
##ton
wordpress
office
1986
1985
##ment
107
bd
win10
##ld
##li
gmail
bb
dior
##rs
##ri
##rd
##ます
up
cad
##®
dr
して
read
##21
をお
##io
##99
url
1984
pvc
paypal
show
policy
##40
##ty
##18
with
##★
##01
txt
102
##ba
dna
from
post
mini
ar
taiwan
john
##ga
privacy
agoda
##13
##ny
word
##24
##22
##by
##ur
##hz
1982
##ang
265
cookie
netscape
108
##ka
##～
##ad
house
share
note
ibm
code
hello
nike
sim
survey
##016
1979
1950
wikia
##32
##017
5g
cbc
##tor
##kg
1983
##rt
##14
campaign
store
2500
os
##ct
##ts
##°
170
api
##ns
365
excel
##な
##ao
##ら
##し
～～
##nd
university
163
には
518
##70
##ya
##il
##25
pierre
ipo
0020
897
##23
hotels
##ian
のお
125
years
6606
##ers
##26
high
##day
time
##ay
bug
##line
##く
##す
##be
xp
talk2yam
yamservice
10000
coco
##dy
sony
##ies
1978
microsoft
david
people
##ha
1960
instagram
intel
その
##ot
iso
1981
##va
115
##mo
##land
xxx
man
co
ltxsw
##ation
baby
220
##pa
##ol
1945
7000
tag
450
##ue
msn
##31
oppo
##ト
##ca
control
##om
st
chrome
##ure
##ん
be
##き
lol
##19
した
##bo
240
lady
##100
##way
##から
4600
##ko
##do
##un
4s
corporation
168
##ni
herme
##28
ｃｐ
978
##up
##06
ui
##ds
ppt
admin
three
します
bbc
re
128
##48
ca
##015
##35
hp
##ee
tpp
##た
##ive
××
root
##cc
##ました
##ble
##ity
adobe
park
114
et
oled
city
##ex
##ler
##ap
china
##book
20000
view
##ice
global
##km
your
hong
##mg
out
##ms
ng
ebay
##29
menu
ubuntu
##cy
rom
##view
open
ktv
do
server
##lo
if
english
##ね
##５
##oo
1600
##02
step1
kong
club
135
july
inc
1976
mr
hi
##net
touch
##ls
##ii
michael
lcd
##05
##33
phone
james
step2
1300
ios9
##box
dc
##２
##ley
samsung
111
280
pokemon
css
##ent
##les
いいえ
##１
s8
atom
play
bmw
##said
sa
etf
ctrl
♥yoyo♥
##55
2025
##2014
##66
adidas
amazon
1958
##ber
##ner
visa
##77
##der
1800
connectivity
##hi
firefox
109
118
hr
so
style
mark
pop
ol
skip
1975
as
##27
##ir
##61
190
mba
##う
##ai
le
##ver
1900
cafe2017
lte
super
113
129
##ron
amd
like
##☆
are
##ster
we
##sk
paul
data
international
##ft
longchamp
ssd
good
##ート
##ti
reply
##my
↓↓↓
apr
star
##ker
source
136
js
112
get
force
photo
##one
126
##2013
##ow
link
bbs
1972
goods
##lin
python
119
##ip
game
##ics
##ません
blue
##●
520
##45
page
itunes
##03
1955
260
1968
gt
gif
618
##ff
##47
group
くたさい
about
bar
ganji
##nce
music
lee
not
1977
1971
1973
##per
an
faq
comment
##って
days
##ock
116
##bs
1974
1969
v1
player
1956
xbox
sql
fm
f1
139
##ah
210
##lv
##mp
##000
melody
1957
##３
550
17life
199
1966
xml
market
##au
##71
999
##04
what
gl
##95
##age
tips
##68
book
##ting
mysql
can
1959
230
##ung
wonderland
watch
10℃
##ction
9000
mar
mobile
1946
1962
article
##db
part
▲top
party
って
1967
1964
1948
##07
##ore
##op
この
dj
##78
##38
010
main
225
1965
##ong
art
320
ad
134
020
##73
117
pm2
japan
228
##08
ts
1963
##ica
der
sm
##36
2019
##wa
ct
##７
##や
##64
1937
homemesh
search
##85
##れは
##tv
##di
macbook
##９
##くたさい
service
##♥
type
った
750
##ier
##si
##75
##います
##ok
best
##ット
goris
lock
##った
cf
3m
big
##ut
ftp
carol
##vi
１０
1961
happy
sd
##ac
122
anti
pe
cnn
iii
1920
138
##ラ
1940
esp
jan
tags
##98
##51
august
vol
##86
154
##™
##fs
##れ
##sion
design
ac
##ム
press
jordan
ppp
that
key
check
##６
##tt
##㎡
1080p
##lt
power
##42
1952
##bc
vivi
##ック
he
133
121
jpg
##rry
201
175
3500
1947
nb
##ted
##rn
しています
1954
usd
##t00
master
##ンク
001
model
##58
al
##09
1953
##34
ram
goo
ても
##ui
127
1930
red
##ary
rpg
item
##pm
##41
270
##za
project
##2012
hot
td
blogabstract
##ger
##62
650
##44
gr2
##します
##ｍ
black
electronic
nfc
year
asus
また
html5
cindy
##hd
m3
132
esc
##od
booking
##53
fed
tvb
##81
##ina
mit
165
##いる
chan
192
distribution
next
になる
peter
bios
steam
cm
1941
にも
pk10
##ix
##65
##91
dec
nasa
##ana
icecat
00z
b1
will
##46
li
se
##ji
##み
##ard
oct
##ain
jp
##ze
##bi
cio
##56
smart
h5
##39
##port
curve
vpn
##nm
##dia
utc
##あり
12345678910
##52
rmvb
chanel
a4
miss
##and
##im
media
who
##63
she
girl
5s
124
vera
##して
class
vivo
king
##フ
##ei
national
ab
1951
5cm
888
145
ipod
ap
1100
5mm
211
ms
2756
##69
mp4
msci
##po
##89
131
mg
index
380
##bit
##out
##zz
##97
##67
158
apec
##８
photoshop
opec
￥799
ては
##96
##tes
##ast
2g
○○
##ール
￥2899
##ling
##よ
##ory
1938
##ical
kitty
content
##43
step3
##cn
win8
155
vc
1400
iphone7
robert
##した
tcl
137
beauty
##87
en
dollars
##ys
##oc
step
pay
yy
a1
##2011
##lly
##ks
##♪
1939
188
download
1944
sep
exe
ph
います
school
gb
center
pr
street
##board
uv
##37
##lan
winrar
##que
##ua
##com
1942
1936
480
gpu
##４
ettoday
fu
tom
##54
##ren
##via
149
##72
b2b
144
##79
##tch
rose
arm
mb
##49
##ial
##nn
nvidia
step4
mvp
00㎡
york
156
##イ
how
cpi
591
2765
gov
kg
joe
##xx
mandy
pa
##ser
copyright
fashion
1935
don
##け
ecu
##ist
##art
erp
wap
have
##lm
talk
##ek
##ning
##if
ch
##ite
video
1943
cs
san
iot
look
##84
##2010
##ku
october
##ux
trump
##hs
##ide
box
141
first
##ins
april
##ight
##83
185
angel
protected
aa
151
162
x1
m2
##fe
##×
##ho
size
143
min
ofo
fun
gomaji
ex
hdmi
food
dns
march
chris
kevin
##のか
##lla
##pp
##ec
ag
ems
6s
720p
##rm
##ham
off
##92
asp
team
fandom
ed
299
▌♥
##ell
info
されています
##82
sina
4066
161
##able
##ctor
330
399
315
dll
rights
ltd
idc
jul
3kg
1927
142
ma
surface
##76
##ク
～～～
304
mall
eps
146
green
##59
map
space
donald
v2
sodu
##light
1931
148
1700
まて
310
reserved
htm
##han
##57
2d
178
mod
##ise
##tions
152
ti
##shi
doc
1933
icp
055
wang
##ram
shopping
aug
##pi
##well
now
wam
b2
からお
##hu
236
1928
##gb
266
f2
##93
153
mix
##ef
##uan
bwl
##plus
##res
core
##ess
tea
5℃
hktvmall
nhk
##ate
list
##ese
301
feb
4m
inn
ての
nov
159
12345
daniel
##ci
pass
##bet
##nk
coffee
202
ssl
airbnb
##ute
fbi
woshipm
skype
ea
cg
sp
##fc
##www
yes
edge
alt
007
##94
fpga
##ght
##gs
iso9001
さい
##ile
##wood
##uo
image
lin
icon
american
##em
1932
set
says
##king
##tive
blogger
##74
なと
256
147
##ox
##zy
##red
##ium
##lf
nokia
claire
##リ
##ding
november
lohas
##500
##tic
##マ
##cs
##ある
##che
##ire
##gy
##ult
db
january
win
##カ
166
road
ptt
##ま
##つ
198
##fa
##mer
anna
pchome
はい
udn
ef
420
##time
##tte
2030
##ア
g20
white
かかります
1929
308
garden
eleven
di
##おります
chen
309b
777
172
young
cosplay
ちてない
4500
bat
##123
##tra
##ては
kindle
npc
steve
etc
##ern
##｜
call
xperia
ces
travel
sk
s7
##ous
1934
##int
みいたたけます
183
edu
file
cho
qr
##car
##our
186
##ant
##ｄ
eric
1914
rends
##jo
##する
mastercard
##2000
kb
##min
290
##ino
vista
##ris
##ud
jack
2400
##set
169
pos
1912
##her
##ou
taipei
しく
205
beta
##ませんか
232
##fi
express
255
body
##ill
aphojoy
user
december
meiki
##ick
tweet
richard
##av
##ᆫ
iphone6
##dd
ちてすか
views
##mark
321
pd
##００
times
##▲
level
##ash
10g
point
5l
##ome
208
koreanmall
##ak
george
q2
206
wma
tcp
##200
スタッフ
full
mlb
##lle
##watch
tm
run
179
911
smith
business
##und
1919
color
##tal
222
171
##less
moon
4399
##rl
update
pcb
shop
499
157
little
なし
end
##mhz
van
dsp
easy
660
##house
##key
history
##ｏ
oh
##001
##hy
##web
oem
let
was
##2009
##gg
review
##wan
182
##°c
203
uc
title
##val
united
233
2021
##ons
doi
trivago
overdope
sbs
##ance
##ち
grand
special
573032185
imf
216
wx17house
##so
##ーム
audi
##he
london
william
##rp
##ake
science
beach
cfa
amp
ps4
880
##800
##link
##hp
crm
ferragamo
bell
make
##eng
195
under
zh
photos
2300
##style
##ント
via
176
da
##gi
company
i7
##ray
thomas
370
ufo
i5
##max
plc
ben
back
research
8g
173
mike
##pc
##ッフ
september
189
##ace
vps
february
167
pantos
wp
lisa
1921
★★
jquery
night
long
offer
##berg
##news
1911
##いて
ray
fks
wto
せます
over
164
340
##all
##rus
1924
##888
##works
blogtitle
loftpermalink
##→
187
martin
test
ling
km
##め
15000
fda
v3
##ja
##ロ
ｗedding
かある
outlet
family
##ea
をこ
##top
story
##ness
salvatore
##lu
204
swift
215
room
している
oracle
##ul
1925
sam
b2c
week
pi
rock
##のは
##ａ
##けと
##ean
##300
##gle
cctv
after
chinese
##back
powered
x2
##tan
1918
##nes
##イン
canon
only
181
##zi
##las
say
##oe
184
##sd
221
##bot
##world
##zo
sky
made
top100
just
1926
pmi
802
234
gap
##vr
177
les
174
▲topoct
ball
vogue
vi
ing
ofweek
cos
##list
##ort
▲topmay
##なら
##lon
として
last
##tc
##of
##bus
##gen
real
eva
##コ
a3
nas
##lie
##ria
##coin
##bt
▲topapr
his
212
cat
nata
vive
health
⋯⋯
drive
sir
▲topmar
du
cup
##カー
##ook
##よう
##sy
alex
msg
tour
しました
3ce
##word
193
ebooks
r8
block
318
##より
2200
nice
pvp
207
months
1905
rewards
##ther
1917
0800
##xi
##チ
##sc
micro
850
gg
blogfp
op
1922
daily
m1
264
true
##bb
ml
##tar
##のお
##ky
anthony
196
253
##yo
state
218
##ara
##aa
##rc
##tz
##ston
より
gear
##eo
##ade
ge
see
1923
##win
##ura
ss
heart
##den
##ita
down
##sm
el
png
2100
610
rakuten
whatsapp
bay
dream
add
##use
680
311
pad
gucci
mpv
##ode
##fo
island
▲topjun
##▼
223
jason
214
chicago
##❤
しの
##hone
io
##れる
##ことか
sogo
be2
##ology
990
cloud
vcd
##con
2～3
##ford
##joy
##kb
##こさいます
##rade
but
##ach
docker
##ful
rfid
ul
##ase
hit
ford
##star
580
##○
１１
a2
sdk
reading
edited
##are
cmos
##mc
238
siri
light
##ella
##ため
bloomberg
##read
pizza
##ison
jimmy
##vm
college
node
journal
ba
18k
##play
245
##cer
２０
magic
##yu
191
jump
288
tt
##ings
asr
##lia
3200
step5
network
##cd
mc
いします
1234
pixstyleme
273
##600
2800
money
★★★★★
1280
１２
430
bl
みの
act
##tus
tokyo
##rial
##life
emba
##ae
saas
tcs
##rk
##wang
summer
##sp
ko
##ving
390
premium
##その
netflix
##ヒ
uk
mt
##lton
right
frank
two
209
える
##ple
##cal
021
##んな
##sen
##ville
hold
nexus
dd
##ius
てお
##mah
##なく
tila
zero
820
ce
##tin
resort
##ws
charles
old
p10
5d
report
##360
##ru
##には
bus
vans
lt
##est
pv
##レ
links
rebecca
##ツ
##dm
azure
##365
きな
limited
bit
4gb
##mon
1910
moto
##eam
213
1913
var
eos
なとの
226
blogspot
された
699
e3
dos
dm
fc
##ments
##ik
##kw
boy
##bin
##ata
960
er
##せ
219
##vin
##tu
##ula
194
##∥
station
##ろ
##ature
835
files
zara
hdr
top10
nature
950
magazine
s6
marriott
##シ
avira
case
##っと
tab
##ran
tony
##home
oculus
im
##ral
jean
saint
cry
307
rosie
##force
##ini
ice
##bert
のある
##nder
##mber
pet
2600
##◆
plurk
▲topdec
##sis
00kg
▲topnov
720
##ence
tim
##ω
##nc
##ても
##name
log
ips
great
ikea
malaysia
unix
##イト
3600
##ncy
##nie
12000
akb48
##ye
##oid
404
##chi
##いた
oa
xuehai
##1000
##orm
##rf
275
さん
##ware
##リー
980
ho
##pro
text
##era
560
bob
227
##ub
##2008
8891
scp
avi
##zen
2022
mi
wu
museum
qvod
apache
lake
jcb
▲topaug
★★★
ni
##hr
hill
302
ne
weibo
490
ruby
##ーシ
##ヶ
##row
4d
▲topjul
iv
##ish
github
306
mate
312
##スト
##lot
##ane
andrew
のハイト
##tina
t1
rf
ed2k
##vel
##900
way
final
りの
ns
5a
705
197
##メ
sweet
bytes
##ene
▲topjan
231
##cker
##2007
##px
100g
topapp
229
helpapp
rs
low
14k
g4g
care
630
ldquo
あり
##fork
leave
rm
edition
##gan
##zon
##qq
▲topsep
##google
##ism
gold
224
explorer
##zer
toyota
category
select
visual
##labels
restaurant
##md
posts
s1
##ico
もっと
angelababy
123456
217
sports
s3
mbc
1915
してくたさい
shell
x86
candy
##new
kbs
face
xl
470
##here
4a
swissinfo
v8
▲topfeb
dram
##ual
##vice
3a
##wer
sport
q1
ios10
public
int
card
##ｃ
ep
au
rt
##れた
1080
bill
##mll
kim
３０
460
wan
##uk
##ミ
x3
298
0t
scott
##ming
239
e5
##3d
h7n9
worldcat
brown
##あります
##vo
##led
##580
##ax
249
410
##ert
paris
##～6
polo
925
##lr
599
##ナ
capital
##hing
bank
cv
1g
##chat
##ｓ
##たい
adc
##ule
2m
##ｅ
digital
hotmail
268
##pad
870
bbq
quot
##ring
before
wali
##まて
mcu
2k
2b
という
costco
316
north
333
switch
##city
##ｐ
philips
##mann
management
panasonic
##cl
##vd
##ping
##rge
alice
##lk
##ましょう
css3
##ney
vision
alpha
##ular
##400
##tter
lz
にお
##ありません
mode
gre
1916
pci
##tm
237
1～2
##yan
##そ
について
##let
##キ
work
war
coach
ah
mary
##ᅵ
huang
##pt
a8
pt
follow
##berry
1895
##ew
a5
ghost
##ション
##wn
##og
south
##code
girls
##rid
action
villa
git
r11
table
games
##cket
error
##anonymoussaid
##ag
here
##ame
##gc
qa
##■
##lis
gmp
##gin
vmalife
##cher
yu
wedding
##tis
demo
dragon
530
soho
social
bye
##rant
river
orz
acer
325
##↑
##ース
##ats
261
del
##ven
440
ups
##ように
##ター
305
value
macd
yougou
##dn
661
##ano
ll
##urt
##rent
continue
script
##wen
##ect
paper
263
319
shift
##chel
##フト
##cat
258
x5
fox
243
##さん
car
aaa
##blog
loading
##yn
##tp
kuso
799
si
sns
イカせるテンマ
ヒンクテンマ3
rmb
vdc
forest
central
prime
help
ultra
##rmb
##ような
241
square
688
##しい
のないフロクに
##field
##reen
##ors
##ju
c1
start
510
##air
##map
cdn
##wo
cba
stephen
m8
100km
##get
opera
##base
##ood
vsa
com™
##aw
##ail
251
なのて
count
t2
##ᅡ
##een
2700
hop
##gp
vsc
tree
##eg
##ose
816
285
##ories
##shop
alphago
v4
1909
simon
##ᆼ
fluke62max
zip
スホンサー
##sta
louis
cr
bas
##～10
bc
##yer
hadoop
##ube
##wi
1906
0755
hola
##low
place
centre
5v
d3
##fer
252
##750
##media
281
540
0l
exchange
262
series
##ハー
##san
eb
##bank
##ｋ
q3
##nge
##mail
take
##lp
259
1888
client
east
cache
event
vincent
##ールを
きを
##nse
sui
855
adchoice
##и
##stry
##なたの
246
##zone
ga
apps
sea
##ab
248
cisco
##タ
##rner
kymco
##care
dha
##pu
##yi
minkoff
royal
p1
への
annie
269
collection
kpi
playstation
257
になります
866
bh
##bar
queen
505
radio
1904
andy
armani
##xy
manager
iherb
##ery
##share
spring
raid
johnson
1908
##ob
volvo
hall
##ball
v6
our
taylor
##hk
bi
242
##cp
kate
bo
water
technology
##rie
サイトは
277
##ona
##sl
hpv
303
gtx
hip
rdquo
jayz
stone
##lex
##rum
namespace
##やり
620
##ale
##atic
des
##erson
##ql
##ves
##type
enter
##この
##てきます
d2
##168
##mix
##bian
との
a9
jj
ky
##lc
access
movie
##hc
リストに
tower
##ration
##mit
ます
##nch
ua
tel
prefix
##o2
1907
##point
1901
ott
～10
##http
##ury
baidu
##ink
member
##logy
bigbang
nownews
##js
##shot
##tb
##こと
247
eba
##tics
##lus
ける
v5
spark
##ama
there
##ions
god
##lls
##down
hiv
##ress
burberry
day2
##kv
◆◆
jeff
related
film
edit
joseph
283
##ark
cx
32gb
order
g9
30000
##ans
##tty
s5
##bee
かあります
thread
xr
buy
sh
005
land
spotify
mx
##ari
276
##verse
×email
sf
why
##ことて
244
7headlines
nego
sunny
dom
exo
401
666
positioning
fit
rgb
##tton
278
kiss
alexa
adam
lp
みリストを
##ｇ
mp
##ties
##llow
amy
##du
np
002
institute
271
##rth
##lar
2345
590
##des
sidebar
１５
imax
site
##cky
##kit
##ime
##009
season
323
##fun
##ンター
##ひ
gogoro
a7
pu
lily
fire
twd600
##ッセーシを
いて
##vis
30ml
##cture
##をお
information
##オ
close
friday
##くれる
yi
nick
てすか
##tta
##tel
6500
##lock
cbd
economy
254
かお
267
tinker
double
375
8gb
voice
##app
oops
channel
today
985
##right
raw
xyz
##＋
jim
edm
##cent
7500
supreme
814
ds
##its
##asia
dropbox
##てすか
##tti
books
272
100ml
##tle
##ller
##ken
##more
##boy
sex
309
##dom
t3
##ider
##なります
##unch
1903
810
feel
5500
##かった
##put
により
s2
mo
##gh
men
ka
amoled
div
##tr
##n1
port
howard
##tags
ken
dnf
##nus
adsense
##а
ide
##へ
buff
thunder
##town
##ique
has
##body
auto
pin
##erry
tee
てした
295
number
##the
##013
object
psp
cool
udnbkk
16gb
##mic
miui
##tro
most
r2
##alk
##nity
1880
±0
##いました
428
s4
law
version
##oa
n1
sgs
docomo
##tf
##ack
henry
fc2
##ded
##sco
##014
##rite
286
0mm
linkedin
##ada
##now
wii
##ndy
ucbug
##◎
sputniknews
legalminer
##ika
##xp
2gb
##bu
q10
oo
b6
come
##rman
cheese
ming
maker
##gm
nikon
##fig
ppi
kelly
##ります
jchere
てきます
ted
md
003
fgo
tech
##tto
dan
soc
##gl
##len
hair
earth
640
521
img
##pper
##a1
##てきる
##ロク
acca
##ition
##ference
suite
##ig
outlook
##mond
##cation
398
##pr
279
101vip
358
##999
282
64gb
3800
345
airport
##over
284
##おり
jones
##ith
lab
##su
##いるのて
co2
town
piece
##llo
no1
vmware
24h
##qi
focus
reader
##admin
##ora
tb
false
##log
1898
know
lan
838
##ces
f4
##ume
motel
stop
##oper
na
flickr
netcomponents
##af
##─
pose
williams
local
##ound
##cg
##site
##iko
いお
274
5m
gsm
con
##ath
1902
friends
##hip
cell
317
##rey
780
cream
##cks
012
##dp
facebooktwitterpinterestgoogle
sso
324
shtml
song
swiss
##mw
##キンク
lumia
xdd
string
tiffany
522
marc
られた
insee
russell
sc
dell
##ations
ｏｋ
camera
289
##vs
##flow
##late
classic
287
##nter
stay
g1
mtv
512
##ever
##lab
##nger
qe
sata
ryan
d1
50ml
cms
##cing
su
292
3300
editor
296
##nap
security
sunday
association
##ens
##700
##bra
acg
##かり
sofascore
とは
mkv
##ign
jonathan
gary
build
labels
##oto
tesla
moba
qi
gohappy
general
ajax
1024
##かる
サイト
society
##test
##urs
wps
fedora
##ich
mozilla
328
##480
##dr
usa
urn
##lina
##ｒ
grace
##die
##try
##ader
1250
##なり
elle
570
##chen
##ᆯ
price
##ten
uhz
##ough
eq
##hen
states
push
session
balance
wow
506
##cus
##py
when
##ward
##ep
34e
wong
library
prada
##サイト
##cle
running
##ree
313
ck
date
q4
##ctive
##ool
##＞
mk
##ira
##163
388
die
secret
rq
dota
buffet
は１ヶ
e6
##ez
pan
368
ha
##card
##cha
2a
##さ
alan
day3
eye
f3
##end
france
keep
adi
rna
tvbs
##ala
solo
nova
##え
##tail
##ょう
support
##ries
##なる
##ved
base
copy
iis
fps
##ways
hero
hgih
profile
fish
mu
ssh
entertainment
chang
##wd
click
cake
##ond
pre
##tom
kic
pixel
##ov
##fl
product
6a
##pd
dear
##gate
es
yumi
audio
##²
##sky
echo
bin
where
##ture
329
##ape
find
sap
isis
##なと
nand
##101
##load
##ream
band
a6
525
never
##post
festival
50cm
##we
555
guide
314
zenfone
##ike
335
gd
forum
jessica
strong
alexander
##ould
software
allen
##ious
program
360°
else
lohasthree
##gar
することかてきます
please
##れます
rc
##ggle
##ric
bim
50000
##own
eclipse
355
brian
3ds
##side
061
361
##other
##ける
##tech
##ator
485
engine
##ged
##ｔ
plaza
##fit
cia
ngo
westbrook
shi
tbs
50mm
##みませんか
sci
291
reuters
##ily
contextlink
##hn
af
##cil
bridge
very
##cel
1890
cambridge
##ize
15g
##aid
##data
790
frm
##head
award
butler
##sun
meta
##mar
america
ps3
puma
pmid
##すか
lc
670
kitchen
##lic
オーフン5
きなしソフトサーヒス
そして
day1
future
★★★★
##text
##page
##rris
pm1
##ket
fans
##っています
1001
christian
bot
kids
trackback
##hai
c3
display
##hl
n2
1896
idea
さんも
##sent
airmail
##ug
##men
pwm
けます
028
##lution
369
852
awards
schemas
354
asics
wikipedia
font
##tional
##vy
c2
293
##れている
##dget
##ein
っている
contact
pepper
スキル
339
##～5
294
##uel
##ument
730
##hang
みてす
q5
##sue
rain
##ndi
wei
swatch
##cept
わせ
331
popular
##ste
##tag
p2
501
trc
1899
##west
##live
justin
honda
ping
messenger
##rap
v9
543
##とは
unity
appqq
はすへて
025
leo
##tone
##テ
##ass
uniqlo
##010
502
her
jane
memory
moneydj
##tical
human
12306
していると
##m2
coc
miacare
##mn
tmt
##core
vim
kk
##may
fan
target
use
too
338
435
2050
867
737
fast
##2c
services
##ope
omega
energy
##わ
pinkoi
1a
##なから
##rain
jackson
##ement
##シャンルの
374
366
そんな
p9
rd
##ᆨ
1111
##tier
##vic
zone
##│
385
690
dl
isofix
cpa
m4
322
kimi
めて
davis
##lay
lulu
##uck
050
weeks
qs
##hop
920
##ｎ
ae
##ear
～5
eia
405
##fly
korea
jpeg
boost
##ship
small
##リア
1860
eur
297
425
valley
##iel
simple
##ude
rn
k2
##ena
されます
non
patrick
しているから
##ナー
feed
5757
30g
process
well
qqmei
##thing
they
aws
lu
pink
##ters
##kin
または
board
##vertisement
wine
##ien
unicode
##dge
r1
359
##tant
いを
##twitter
##3c
cool1
される
##れて
##ｌ
isp
##012
standard
45㎡2
402
##150
matt
##fu
326
##iner
googlemsn
pixnetfacebookyahoo
##ラン
x7
886
##uce
メーカー
sao
##ev
##きました
##file
9678
403
xddd
shirt
6l
##rio
##hat
3mm
givenchy
ya
bang
##lio
monday
crystal
ロクイン
##abc
336
head
890
ubuntuforumwikilinuxpastechat
##vc
##～20
##rity
cnc
7866
ipv6
null
1897
##ost
yang
imsean
tiger
##fet
##ンス
352
##＝
dji
327
ji
maria
##come
##んて
foundation
3100
##beth
##なった
1m
601
active
##aft
##don
3p
sr
349
emma
##khz
living
415
353
1889
341
709
457
sas
x6
##face
pptv
x4
##mate
han
sophie
##jing
337
fifa
##mand
other
sale
inwedding
##gn
てきちゃいます
##mmy
##pmlast
bad
nana
nbc
してみてくたさいね
なとはお
##wu
##かあります
##あ
note7
single
##340
せからこ
してくたさい♪この
しにはとんとんワークケートを
するとあなたにもっとマッチした
ならワークケートへ
もみつかっちゃうかも
ワークケートの
##bel
window
##dio
##ht
union
age
382
１４
##ivity
##ｙ
コメント
domain
neo
##isa
##lter
5k
f5
steven
##cts
powerpoint
tft
self
g2
ft
##テル
zol
##act
mwc
381
343
もう
nbapop
408
てある
eds
ace
##room
previous
author
tomtom
il
##ets
hu
financial
☆☆☆
っています
bp
5t
chi
1gb
##hg
fairmont
cross
008
gay
h2
function
##けて
356
also
1b
625
##ータ
##raph
1894
3～5
##ils
i3
334
avenue
##host
による
##bon
##tsu
message
navigation
50g
fintech
h6
##ことを
8cm
##ject
##vas
##firm
credit
##wf
xxxx
form
##nor
##space
huawei
plan
json
sbl
##dc
machine
921
392
wish
##120
##sol
windows7
edward
##ために
development
washington
##nsis
lo
818
##sio
##ym
##bor
planet
##～8
##wt
ieee
gpa
##めて
camp
ann
gm
##tw
##oka
connect
##rss
##work
##atus
wall
chicken
soul
2mm
##times
fa
##ather
##cord
009
##eep
hitachi
gui
harry
##pan
e1
disney
##press
##ーション
wind
386
frigidaire
##tl
liu
hsu
332
basic
von
ev
いた
てきる
スホンサーサイト
learning
##ull
expedia
archives
change
##wei
santa
cut
ins
6gb
turbo
brand
cf1
508
004
return
747
##rip
h1
##nis
##をこ
128gb
##にお
3t
application
しており
emc
rx
##oon
384
quick
412
15058
wilson
wing
chapter
##bug
beyond
##cms
##dar
##oh
zoom
e2
trip
sb
##nba
rcep
342
aspx
ci
080
gc
gnu
める
##count
advanced
dance
dv
##url
##ging
367
8591
am09
shadow
battle
346
##ｉ
##cia
##という
emily
##のてす
##tation
host
ff
techorz
sars
##mini
##mporary
##ering
nc
4200
798
##next
cma
##mbps
##gas
##ift
##dot
##ィ
455
##～17
amana
##りの
426
##ros
ir
00㎡1
##eet
##ible
##↓
710
ˋ▽ˊ
##aka
dcs
iq
##ｖ
l1
##lor
maggie
##011
##iu
588
##～1
830
##gt
1tb
articles
create
##burg
##iki
database
fantasy
##rex
##cam
dlc
dean
##you
hard
path
gaming
victoria
maps
cb
##lee
##itor
overchicstoretvhome
systems
##xt
416
p3
sarah
760
##nan
407
486
x9
install
second
626
##ann
##ph
##rcle
##nic
860
##nar
ec
##とう
768
metro
chocolate
##rian
～4
##table
##しています
skin
##sn
395
mountain
##0mm
inparadise
6m
7x24
ib
4800
##jia
eeworld
creative
g5
g3
357
parker
ecfa
village
からの
18000
sylvia
サーヒス
hbl
##ques
##onsored
##x2
##きます
##v4
##tein
ie6
383
##stack
389
ver
##ads
##baby
sound
bbe
##110
##lone
##uid
ads
022
gundam
351
thinkpad
006
scrum
match
##ave
mems
##470
##oy
##なりました
##talk
glass
lamigo
span
##eme
job
##a5
jay
wade
kde
498
##lace
ocean
tvg
##covery
##r3
##ners
##rea
junior
think
##aine
cover
##ision
##sia
↓↓
##bow
msi
413
458
406
##love
711
801
soft
z2
##pl
456
1840
mobil
mind
##uy
427
nginx
##oi
めた
##rr
6221
##mple
##sson
##ーシてす
371
##nts
91tv
comhd
crv3000
##uard
1868
397
deep
lost
field
gallery
##bia
rate
spf
redis
traction
930
icloud
011
なら
fe
jose
372
##tory
into
sohu
fx
899
379
kicstart2
##hia
すく
##～3
##sit
ra
２４
##walk
##xure
500g
##pact
pacific
xa
natural
carlo
##250
##walker
1850
##can
cto
gigi
516
##サー
pen
##hoo
ob
matlab
##ｂ
##yy
13913459
##iti
mango
##bbs
sense
c5
oxford
##ニア
walker
jennifer
##ola
course
##bre
701
##pus
##rder
lucky
075
##ぁ
ivy
なお
##nia
sotheby
side
##ugh
joy
##orage
##ush
##bat
##dt
364
r9
##2d
##gio
511
country
wear
##lax
##～7
##moon
393
seven
study
411
348
lonzo
8k
##ェ
evolution
##イフ
##kk
gs
kd
##レス
arduino
344
b12
##lux
arpg
##rdon
cook
##x5
dark
five
##als
##ida
とても
sign
362
##ちの
something
20mm
##nda
387
##posted
fresh
tf
1870
422
cam
##mine
##skip
##form
##ssion
education
394
##tee
dyson
stage
##jie
want
##night
epson
pack
あります
##ppy
テリヘル
##█
wd
##eh
##rence
left
##lvin
golden
mhz
discovery
##trix
##n2
loft
##uch
##dra
##sse
speed
～1
1mdb
sorry
welcome
##urn
wave
gaga
##lmer
teddy
##160
トラックハック
せよ
611
##f2016
378
rp
##sha
rar
##あなたに
##きた
840
holiday
##ュー
373
074
##vg
##nos
##rail
gartner
gi
6p
##dium
kit
488
b3
eco
##ろう
20g
sean
##stone
autocad
nu
##np
f16
write
029
m5
##ias
images
atp
##dk
fsm
504
1350
ve
52kb
##xxx
##のに
##cake
414
unit
lim
ru
1v
##ification
published
angela
16g
analytics
ak
##ｑ
##nel
gmt
##icon
again
##₂
##bby
ios11
445
かこさいます
waze
いてす
##ハ
9985
##ust
##ティー
framework
##007
iptv
delete
52sykb
cl
wwdc
027
30cm
##fw
##ての
1389
##xon
brandt
##ses
##dragon
tc
vetements
anne
monte
modern
official
##へて
##ere
##nne
##oud
もちろん
５０
etnews
##a2
##graphy
421
863
##ちゃん
444
##rtex
##てお
l2
##gma
mount
ccd
たと
archive
morning
tan
ddos
e7
##ホ
day4
##ウ
gis
453
its
495
factory
bruce
pg
##ito
ってくたさい
guest
cdma
##lling
536
n3
しかし
3～4
mega
eyes
ro
１３
women
dac
church
##jun
singapore
##facebook
6991
starbucks
##tos
##stin
##shine
zen
##mu
tina
20℃
1893
##たけて
503
465
request
##gence
qt
##っ
1886
347
363
q7
##zzi
diary
##tore
409
##ead
468
cst
##osa
canada
agent
va
##jiang
##ちは
##ーク
##lam
sg
##nix
##sday
##よって
g6
##master
bing
##zl
charlie
１６
8mm
nb40
##ーン
thai
##ルフ
ln284ct
##itz
##2f
bonnie
##food
##lent
originals
##stro
##lts
418
∟∣
##bscribe
children
ntd
yesstyle
##かも
hmv
##tment
d5
2cm
arts
sms
##pn
##я
##いい
topios9
539
lifestyle
virtual
##ague
xz
##deo
muji
024
unt
##nnis
##ᅩ
faq1
1884
396
##ette
fly
64㎡
はしめまして
441
curry
##pop
のこ
release
##←
##◆◆
##cast
073
ありな
500ml
##ews
5c
##stle
ios7
##ima
787
dog
lenovo
##r4
roger
013
cbs
vornado
100m
417
##desk
##クok
##ald
1867
9595
2900
##van
oil
##ｘ
some
break
common
##jy
##lines
g7
twice
419
ella
nano
belle
にこ
##mes
##self
##note
jb
##ことかてきます
benz
##との
##ova
451
save
##wing
##ますのて
kai
りは
##hua
##rect
rainer
##unge
448
##0m
adsl
##かな
guestname
##uma
##kins
##zu
tokichoi
##price
county
##med
##mus
rmk
391
address
vm
えて
openload
##group
##hin
##iginal
amg
urban
##oz
jobs
emi
##public
beautiful
##sch
album
##dden
##bell
jerry
works
hostel
miller
##drive
##rmin
##１０
376
boot
828
##370
##fx
##cm～
1885
##nome
##ctionary
##oman
##lish
##cr
##hm
433
##how
432
francis
xi
c919
b5
evernote
##uc
vga
##3000
coupe
##urg
##cca
##uality
019
6g
れる
multi
##また
##ett
em
hey
##ani
##tax
##rma
inside
than
740
leonnhurt
##jin
ict
れた
bird
notes
200mm
くの
##dical
##lli
result
442
iu
ee
438
smap
gopro
##last
yin
pure
998
32g
けた
5kg
##dan
##rame
mama
##oot
bean
marketing
##hur
2l
bella
sync
xuite
##ground
515
discuz
##getrelax
##ince
##bay
##5s
cj
##イス
gmat
apt
##pass
jing
##rix
c4
rich
##とても
niusnews
##ello
bag
770
##eting
##mobile
１８
culture
015
##のてすか
377
1020
area
##ience
616
details
gp
universal
silver
dit
はお
private
ddd
u11
kanshu
##ified
fung
##nny
dx
##520
tai
475
023
##fr
##lean
3s
##pin
429
##rin
25000
ly
rick
##bility
usb3
banner
##baru
##gion
metal
dt
vdf
1871
karl
qualcomm
bear
1010
oldid
ian
jo
##tors
population
##ernel
1882
mmorpg
##mv
##bike
603
##©
ww
friend
##ager
exhibition
##del
##pods
fpx
structure
##free
##tings
kl
##rley
##copyright
##mma
california
3400
orange
yoga
4l
canmake
honey
##anda
##コメント
595
nikkie
##ルハイト
dhl
publishing
##mall
##gnet
20cm
513
##クセス
##┅
e88
970
##dog
fishbase
##!
##"
###
##$
##%
##&
##'
##(
##)
##*
##+
##,
##-
##.
##/
##:
##;
##<
##=
##>
##?
##@
##[
##\
##]
##^
##_
##{
##|
##}
##~
##£
##¤
##¥
##§
##«
##±
##³
##µ
##·
##¹
##º
##»
##¼
##ß
##æ
##÷
##ø
##đ
##ŋ
##ɔ
##ə
##ɡ
##ʰ
##ˇ
##ˈ
##ˊ
##ˋ
##ˍ
##ː
##˙
##˚
##ˢ
##α
##β
##γ
##δ
##ε
##η
##θ
##ι
##κ
##λ
##μ
##ν
##ο
##π
##ρ
##ς
##σ
##τ
##υ
##φ
##χ
##ψ
##б
##в
##г
##д
##е
##ж
##з
##к
##л
##м
##н
##о
##п
##р
##с
##т
##у
##ф
##х
##ц
##ч
##ш
##ы
##ь
##і
##ا
##ب
##ة
##ت
##د
##ر
##س
##ع
##ل
##م
##ن
##ه
##و
##ي
##۩
##ก
##ง
##น
##ม
##ย
##ร
##อ
##า
##เ
##๑
##་
##ღ
##ᄀ
##ᄁ
##ᄂ
##ᄃ
##ᄅ
##ᄆ
##ᄇ
##ᄈ
##ᄉ
##ᄋ
##ᄌ
##ᄎ
##ᄏ
##ᄐ
##ᄑ
##ᄒ
##ᅢ
##ᅣ
##ᅥ
##ᅦ
##ᅧ
##ᅨ
##ᅪ
##ᅬ
##ᅭ
##ᅮ
##ᅯ
##ᅲ
##ᅳ
##ᅴ
##ᆷ
##ᆸ
##ᆺ
##ᆻ
##ᗜ
##ᵃ
##ᵉ
##ᵍ
##ᵏ
##ᵐ
##ᵒ
##ᵘ
##‖
##„
##†
##•
##‥
##‧
## 
##‰
##′
##″
##‹
##›
##※
##‿
##⁄
##ⁱ
##⁺
##ⁿ
##₁
##₃
##₄
##€
##№
##ⅰ
##ⅱ
##ⅲ
##ⅳ
##ⅴ
##↔
##↗
##↘
##⇒
##∀
##−
##∕
##∙
##√
##∞
##∟
##∠
##∣
##∩
##∮
##∶
##∼
##∽
##≈
##≒
##≡
##≤
##≥
##≦
##≧
##≪
##≫
##⊙
##⋅
##⋈
##⋯
##⌒
##①
##②
##③
##④
##⑤
##⑥
##⑦
##⑧
##⑨
##⑩
##⑴
##⑵
##⑶
##⑷
##⑸
##⒈
##⒉
##⒊
##⒋
##ⓒ
##ⓔ
##ⓘ
##━
##┃
##┆
##┊
##┌
##└
##├
##┣
##═
##║
##╚
##╞
##╠
##╭
##╮
##╯
##╰
##╱
##╳
##▂
##▃
##▅
##▇
##▉
##▋
##▌
##▍
##▎
##□
##▪
##▫
##▬
##△
##▶
##►
##▽
##◇
##◕
##◠
##◢
##◤
##☀
##☕
##☞
##☺
##☼
##♀
##♂
##♠
##♡
##♣
##♦
##♫
##♬
##✈
##✔
##✕
##✖
##✦
##✨
##✪
##✰
##✿
##❀
##➜
##➤
##⦿
##、
##。
##〃
##々
##〇
##〈
##〉
##《
##》
##「
##」
##『
##』
##【
##】
##〓
##〔
##〕
##〖
##〗
##〜
##〝
##〞
##ぃ
##ぇ
##ぬ
##ふ
##ほ
##む
##ゃ
##ゅ
##ゆ
##ょ
##゜
##ゝ
##ァ
##ゥ
##エ
##ォ
##ケ
##サ
##セ
##ソ
##ッ
##ニ
##ヌ
##ネ
##ノ
##ヘ
##モ
##ャ
##ヤ
##ュ
##ユ
##ョ
##ヨ
##ワ
##ヲ
##・
##ヽ
##ㄅ
##ㄆ
##ㄇ
##ㄉ
##ㄋ
##ㄌ
##ㄍ
##ㄎ
##ㄏ
##ㄒ
##ㄚ
##ㄛ
##ㄞ
##ㄟ
##ㄢ
##ㄤ
##ㄥ
##ㄧ
##ㄨ
##ㆍ
##㈦
##㊣
##㗎
##一
##丁
##七
##万
##丈
##三
##上
##下
##不
##与
##丐
##丑
##专
##且
##丕
##世
##丘
##丙
##业
##丛
##东
##丝
##丞
##丟
##両
##丢
##两
##严
##並
##丧
##丨
##个
##丫
##中
##丰
##串
##临
##丶
##丸
##丹
##为
##主
##丼
##丽
##举
##丿
##乂
##乃
##久
##么
##义
##之
##乌
##乍
##乎
##乏
##乐
##乒
##乓
##乔
##乖
##乗
##乘
##乙
##乜
##九
##乞
##也
##习
##乡
##书
##乩
##买
##乱
##乳
##乾
##亀
##亂
##了
##予
##争
##事
##二
##于
##亏
##云
##互
##五
##井
##亘
##亙
##亚
##些
##亜
##亞
##亟
##亡
##亢
##交
##亥
##亦
##产
##亨
##亩
##享
##京
##亭
##亮
##亲
##亳
##亵
##人
##亿
##什
##仁
##仃
##仄
##仅
##仆
##仇
##今
##介
##仍
##从
##仏
##仑
##仓
##仔
##仕
##他
##仗
##付
##仙
##仝
##仞
##仟
##代
##令
##以
##仨
##仪
##们
##仮
##仰
##仲
##件
##价
##任
##份
##仿
##企
##伉
##伊
##伍
##伎
##伏
##伐
##休
##伕
##众
##优
##伙
##会
##伝
##伞
##伟
##传
##伢
##伤
##伦
##伪
##伫
##伯
##估
##伴
##伶
##伸
##伺
##似
##伽
##佃
##但
##佇
##佈
##位
##低
##住
##佐
##佑
##体
##佔
##何
##佗
##佘
##余
##佚
##佛
##作
##佝
##佞
##佟
##你
##佢
##佣
##佤
##佥
##佩
##佬
##佯
##佰
##佳
##併
##佶
##佻
##佼
##使
##侃
##侄
##來
##侈
##例
##侍
##侏
##侑
##侖
##侗
##供
##依
##侠
##価
##侣
##侥
##侦
##侧
##侨
##侬
##侮
##侯
##侵
##侶
##侷
##便
##係
##促
##俄
##俊
##俎
##俏
##俐
##俑
##俗
##俘
##俚
##保
##俞
##俟
##俠
##信
##俨
##俩
##俪
##俬
##俭
##修
##俯
##俱
##俳
##俸
##俺
##俾
##倆
##倉
##個
##倌
##倍
##倏
##們
##倒
##倔
##倖
##倘
##候
##倚
##倜
##借
##倡
##値
##倦
##倩
##倪
##倫
##倬
##倭
##倶
##债
##值
##倾
##偃
##假
##偈
##偉
##偌
##偎
##偏
##偕
##做
##停
##健
##側
##偵
##偶
##偷
##偻
##偽
##偿
##傀
##傅
##傍
##傑
##傘
##備
##傚
##傢
##傣
##傥
##储
##傩
##催
##傭
##傲
##傳
##債
##傷
##傻
##傾
##僅
##働
##像
##僑
##僕
##僖
##僚
##僥
##僧
##僭
##僮
##僱
##僵
##價
##僻
##儀
##儂
##億
##儆
##儉
##儋
##儒
##儕
##儘
##償
##儡
##優
##儲
##儷
##儼
##儿
##兀
##允
##元
##兄
##充
##兆
##兇
##先
##光
##克
##兌
##免
##児
##兑
##兒
##兔
##兖
##党
##兜
##兢
##入
##內
##全
##兩
##八
##公
##六
##兮
##兰
##共
##兲
##关
##兴
##兵
##其
##具
##典
##兹
##养
##兼
##兽
##冀
##内
##円
##冇
##冈
##冉
##冊
##册
##再
##冏
##冒
##冕
##冗
##写
##军
##农
##冠
##冢
##冤
##冥
##冨
##冪
##冬
##冯
##冰
##冲
##决
##况
##冶
##冷
##冻
##冼
##冽
##冾
##净
##凄
##准
##凇
##凈
##凉
##凋
##凌
##凍
##减
##凑
##凛
##凜
##凝
##几
##凡
##凤
##処
##凪
##凭
##凯
##凰
##凱
##凳
##凶
##凸
##凹
##出
##击
##函
##凿
##刀
##刁
##刃
##分
##切
##刈
##刊
##刍
##刎
##刑
##划
##列
##刘
##则
##刚
##创
##初
##删
##判
##別
##刨
##利
##刪
##别
##刮
##到
##制
##刷
##券
##刹
##刺
##刻
##刽
##剁
##剂
##剃
##則
##剉
##削
##剋
##剌
##前
##剎
##剐
##剑
##剔
##剖
##剛
##剜
##剝
##剣
##剤
##剥
##剧
##剩
##剪
##副
##割
##創
##剷
##剽
##剿
##劃
##劇
##劈
##劉
##劊
##劍
##劏
##劑
##力
##劝
##办
##功
##加
##务
##劣
##动
##助
##努
##劫
##劭
##励
##劲
##劳
##労
##劵
##効
##劾
##势
##勁
##勃
##勇
##勉
##勋
##勐
##勒
##動
##勖
##勘
##務
##勛
##勝
##勞
##募
##勢
##勤
##勧
##勳
##勵
##勸
##勺
##勻
##勾
##勿
##匀
##包
##匆
##匈
##匍
##匐
##匕
##化
##北
##匙
##匝
##匠
##匡
##匣
##匪
##匮
##匯
##匱
##匹
##区
##医
##匾
##匿
##區
##十
##千
##卅
##升
##午
##卉
##半
##卍
##华
##协
##卑
##卒
##卓
##協
##单
##卖
##南
##単
##博
##卜
##卞
##卟
##占
##卡
##卢
##卤
##卦
##卧
##卫
##卮
##卯
##印
##危
##即
##却
##卵
##卷
##卸
##卻
##卿
##厂
##厄
##厅
##历
##厉
##压
##厌
##厕
##厘
##厚
##厝
##原
##厢
##厥
##厦
##厨
##厩
##厭
##厮
##厲
##厳
##去
##县
##叁
##参
##參
##又
##叉
##及
##友
##双
##反
##収
##发
##叔
##取
##受
##变
##叙
##叛
##叟
##叠
##叡
##叢
##口
##古
##句
##另
##叨
##叩
##只
##叫
##召
##叭
##叮
##可
##台
##叱
##史
##右
##叵
##叶
##号
##司
##叹
##叻
##叼
##叽
##吁
##吃
##各
##吆
##合
##吉
##吊
##吋
##同
##名
##后
##吏
##吐
##向
##吒
##吓
##吕
##吖
##吗
##君
##吝
##吞
##吟
##吠
##吡
##否
##吧
##吨
##吩
##含
##听
##吭
##吮
##启
##吱
##吳
##吴
##吵
##吶
##吸
##吹
##吻
##吼
##吽
##吾
##呀
##呂
##呃
##呆
##呈
##告
##呋
##呎
##呐
##呓
##呕
##呗
##员
##呛
##呜
##呢
##呤
##呦
##周
##呱
##呲
##味
##呵
##呷
##呸
##呻
##呼
##命
##咀
##咁
##咂
##咄
##咆
##咋
##和
##咎
##咏
##咐
##咒
##咔
##咕
##咖
##咗
##咘
##咙
##咚
##咛
##咣
##咤
##咦
##咧
##咨
##咩
##咪
##咫
##咬
##咭
##咯
##咱
##咲
##咳
##咸
##咻
##咽
##咿
##哀
##品
##哂
##哄
##哆
##哇
##哈
##哉
##哋
##哌
##响
##哎
##哏
##哐
##哑
##哒
##哔
##哗
##哟
##員
##哥
##哦
##哧
##哨
##哩
##哪
##哭
##哮
##哲
##哺
##哼
##哽
##唁
##唄
##唆
##唇
##唉
##唏
##唐
##唑
##唔
##唠
##唤
##唧
##唬
##售
##唯
##唰
##唱
##唳
##唷
##唸
##唾
##啃
##啄
##商
##啉
##啊
##問
##啓
##啕
##啖
##啜
##啞
##啟
##啡
##啤
##啥
##啦
##啧
##啪
##啫
##啬
##啮
##啰
##啱
##啲
##啵
##啶
##啷
##啸
##啻
##啼
##啾
##喀
##喂
##喃
##善
##喆
##喇
##喉
##喊
##喋
##喎
##喏
##喔
##喘
##喙
##喚
##喜
##喝
##喟
##喧
##喪
##喫
##喬
##單
##喰
##喱
##喲
##喳
##喵
##営
##喷
##喹
##喺
##喻
##喽
##嗅
##嗆
##嗇
##嗎
##嗑
##嗒
##嗓
##嗔
##嗖
##嗚
##嗜
##嗝
##嗟
##嗡
##嗣
##嗤
##嗦
##嗨
##嗪
##嗬
##嗯
##嗰
##嗲
##嗳
##嗶
##嗷
##嗽
##嘀
##嘅
##嘆
##嘈
##嘉
##嘌
##嘍
##嘎
##嘔
##嘖
##嘗
##嘘
##嘚
##嘛
##嘜
##嘞
##嘟
##嘢
##嘣
##嘤
##嘧
##嘩
##嘭
##嘮
##嘯
##嘰
##嘱
##嘲
##嘴
##嘶
##嘸
##嘹
##嘻
##嘿
##噁
##噌
##噎
##噓
##噔
##噗
##噙
##噜
##噠
##噢
##噤
##器
##噩
##噪
##噬
##噱
##噴
##噶
##噸
##噹
##噻
##噼
##嚀
##嚇
##嚎
##嚏
##嚐
##嚓
##嚕
##嚟
##嚣
##嚥
##嚨
##嚮
##嚴
##嚷
##嚼
##囂
##囉
##囊
##囍
##囑
##囔
##囗
##囚
##四
##囝
##回
##囟
##因
##囡
##团
##団
##囤
##囧
##囪
##囫
##园
##困
##囱
##囲
##図
##围
##囹
##固
##国
##图
##囿
##圃
##圄
##圆
##圈
##國
##圍
##圏
##園
##圓
##圖
##團
##圜
##土
##圣
##圧
##在
##圩
##圭
##地
##圳
##场
##圻
##圾
##址
##坂
##均
##坊
##坍
##坎
##坏
##坐
##坑
##块
##坚
##坛
##坝
##坞
##坟
##坠
##坡
##坤
##坦
##坨
##坪
##坯
##坳
##坵
##坷
##垂
##垃
##垄
##型
##垒
##垚
##垛
##垠
##垢
##垣
##垦
##垩
##垫
##垭
##垮
##垵
##埂
##埃
##埋
##城
##埔
##埕
##埗
##域
##埠
##埤
##埵
##執
##埸
##培
##基
##埼
##堀
##堂
##堃
##堅
##堆
##堇
##堑
##堕
##堙
##堡
##堤
##堪
##堯
##堰
##報
##場
##堵
##堺
##堿
##塊
##塌
##塑
##塔
##塗
##塘
##塚
##塞
##塢
##塩
##填
##塬
##塭
##塵
##塾
##墀
##境
##墅
##墉
##墊
##墒
##墓
##増
##墘
##墙
##墜
##增
##墟
##墨
##墩
##墮
##墳
##墻
##墾
##壁
##壅
##壆
##壇
##壊
##壑
##壓
##壕
##壘
##壞
##壟
##壢
##壤
##壩
##士
##壬
##壮
##壯
##声
##売
##壳
##壶
##壹
##壺
##壽
##处
##备
##変
##复
##夏
##夔
##夕
##外
##夙
##多
##夜
##够
##夠
##夢
##夥
##大
##天
##太
##夫
##夭
##央
##夯
##失
##头
##夷
##夸
##夹
##夺
##夾
##奂
##奄
##奇
##奈
##奉
##奋
##奎
##奏
##奐
##契
##奔
##奕
##奖
##套
##奘
##奚
##奠
##奢
##奥
##奧
##奪
##奬
##奮
##女
##奴
##奶
##奸
##她
##好
##如
##妃
##妄
##妆
##妇
##妈
##妊
##妍
##妒
##妓
##妖
##妘
##妙
##妝
##妞
##妣
##妤
##妥
##妨
##妩
##妪
##妮
##妲
##妳
##妹
##妻
##妾
##姆
##姉
##姊
##始
##姍
##姐
##姑
##姒
##姓
##委
##姗
##姚
##姜
##姝
##姣
##姥
##姦
##姨
##姪
##姫
##姬
##姹
##姻
##姿
##威
##娃
##娄
##娅
##娆
##娇
##娉
##娑
##娓
##娘
##娛
##娜
##娟
##娠
##娣
##娥
##娩
##娱
##娲
##娴
##娶
##娼
##婀
##婁
##婆
##婉
##婊
##婕
##婚
##婢
##婦
##婧
##婪
##婭
##婴
##婵
##婶
##婷
##婺
##婿
##媒
##媚
##媛
##媞
##媧
##媲
##媳
##媽
##媾
##嫁
##嫂
##嫉
##嫌
##嫑
##嫔
##嫖
##嫘
##嫚
##嫡
##嫣
##嫦
##嫩
##嫲
##嫵
##嫻
##嬅
##嬉
##嬌
##嬗
##嬛
##嬢
##嬤
##嬪
##嬰
##嬴
##嬷
##嬸
##嬿
##孀
##孃
##子
##孑
##孔
##孕
##孖
##字
##存
##孙
##孚
##孛
##孜
##孝
##孟
##孢
##季
##孤
##学
##孩
##孪
##孫
##孬
##孰
##孱
##孳
##孵
##學
##孺
##孽
##孿
##宁
##它
##宅
##宇
##守
##安
##宋
##完
##宏
##宓
##宕
##宗
##官
##宙
##定
##宛
##宜
##宝
##实
##実
##宠
##审
##客
##宣
##室
##宥
##宦
##宪
##宫
##宮
##宰
##害
##宴
##宵
##家
##宸
##容
##宽
##宾
##宿
##寂
##寄
##寅
##密
##寇
##富
##寐
##寒
##寓
##寛
##寝
##寞
##察
##寡
##寢
##寥
##實
##寧
##寨
##審
##寫
##寬
##寮
##寰
##寵
##寶
##寸
##对
##寺
##寻
##导
##対
##寿
##封
##専
##射
##将
##將
##專
##尉
##尊
##尋
##對
##導
##小
##少
##尔
##尕
##尖
##尘
##尚
##尝
##尤
##尧
##尬
##就
##尴
##尷
##尸
##尹
##尺
##尻
##尼
##尽
##尾
##尿
##局
##屁
##层
##屄
##居
##屆
##屈
##屉
##届
##屋
##屌
##屍
##屎
##屏
##屐
##屑
##展
##屜
##属
##屠
##屡
##屢
##層
##履
##屬
##屯
##山
##屹
##屿
##岀
##岁
##岂
##岌
##岐
##岑
##岔
##岖
##岗
##岘
##岙
##岚
##岛
##岡
##岩
##岫
##岬
##岭
##岱
##岳
##岷
##岸
##峇
##峋
##峒
##峙
##峡
##峤
##峥
##峦
##峨
##峪
##峭
##峯
##峰
##峴
##島
##峻
##峽
##崁
##崂
##崆
##崇
##崎
##崑
##崔
##崖
##崗
##崙
##崛
##崧
##崩
##崭
##崴
##崽
##嵇
##嵊
##嵋
##嵌
##嵐
##嵘
##嵩
##嵬
##嵯
##嶂
##嶄
##嶇
##嶋
##嶙
##嶺
##嶼
##嶽
##巅
##巍
##巒
##巔
##巖
##川
##州
##巡
##巢
##工
##左
##巧
##巨
##巩
##巫
##差
##己
##已
##巳
##巴
##巷
##巻
##巽
##巾
##巿
##币
##市
##布
##帅
##帆
##师
##希
##帐
##帑
##帕
##帖
##帘
##帚
##帛
##帜
##帝
##帥
##带
##帧
##師
##席
##帮
##帯
##帰
##帳
##帶
##帷
##常
##帼
##帽
##幀
##幂
##幄
##幅
##幌
##幔
##幕
##幟
##幡
##幢
##幣
##幫
##干
##平
##年
##并
##幸
##幹
##幺
##幻
##幼
##幽
##幾
##广
##庁
##広
##庄
##庆
##庇
##床
##序
##庐
##库
##应
##底
##庖
##店
##庙
##庚
##府
##庞
##废
##庠
##度
##座
##庫
##庭
##庵
##庶
##康
##庸
##庹
##庾
##廁
##廂
##廃
##廈
##廉
##廊
##廓
##廖
##廚
##廝
##廟
##廠
##廢
##廣
##廬
##廳
##延
##廷
##建
##廿
##开
##弁
##异
##弃
##弄
##弈
##弊
##弋
##式
##弑
##弒
##弓
##弔
##引
##弗
##弘
##弛
##弟
##张
##弥
##弦
##弧
##弩
##弭
##弯
##弱
##張
##強
##弹
##强
##弼
##弾
##彅
##彆
##彈
##彌
##彎
##归
##当
##录
##彗
##彙
##彝
##形
##彤
##彥
##彦
##彧
##彩
##彪
##彫
##彬
##彭
##彰
##影
##彷
##役
##彻
##彼
##彿
##往
##征
##径
##待
##徇
##很
##徉
##徊
##律
##後
##徐
##徑
##徒
##従
##徕
##得
##徘
##徙
##徜
##從
##徠
##御
##徨
##復
##循
##徬
##微
##徳
##徴
##徵
##德
##徹
##徼
##徽
##心
##必
##忆
##忌
##忍
##忏
##忐
##忑
##忒
##忖
##志
##忘
##忙
##応
##忠
##忡
##忤
##忧
##忪
##快
##忱
##念
##忻
##忽
##忿
##怀
##态
##怂
##怅
##怆
##怎
##怏
##怒
##怔
##怕
##怖
##怙
##怜
##思
##怠
##怡
##急
##怦
##性
##怨
##怪
##怯
##怵
##总
##怼
##恁
##恃
##恆
##恋
##恍
##恐
##恒
##恕
##恙
##恚
##恢
##恣
##恤
##恥
##恨
##恩
##恪
##恫
##恬
##恭
##息
##恰
##恳
##恵
##恶
##恸
##恺
##恻
##恼
##恿
##悄
##悅
##悉
##悌
##悍
##悔
##悖
##悚
##悟
##悠
##患
##悦
##您
##悩
##悪
##悬
##悯
##悱
##悲
##悴
##悵
##悶
##悸
##悻
##悼
##悽
##情
##惆
##惇
##惊
##惋
##惑
##惕
##惘
##惚
##惜
##惟
##惠
##惡
##惦
##惧
##惨
##惩
##惫
##惬
##惭
##惮
##惯
##惰
##惱
##想
##惴
##惶
##惹
##惺
##愁
##愆
##愈
##愉
##愍
##意
##愕
##愚
##愛
##愜
##感
##愣
##愤
##愧
##愫
##愷
##愿
##慄
##慈
##態
##慌
##慎
##慑
##慕
##慘
##慚
##慟
##慢
##慣
##慧
##慨
##慫
##慮
##慰
##慳
##慵
##慶
##慷
##慾
##憂
##憊
##憋
##憎
##憐
##憑
##憔
##憚
##憤
##憧
##憨
##憩
##憫
##憬
##憲
##憶
##憾
##懂
##懇
##懈
##應
##懊
##懋
##懑
##懒
##懦
##懲
##懵
##懶
##懷
##懸
##懺
##懼
##懾
##懿
##戀
##戈
##戊
##戌
##戍
##戎
##戏
##成
##我
##戒
##戕
##或
##战
##戚
##戛
##戟
##戡
##戦
##截
##戬
##戮
##戰
##戲
##戳
##戴
##戶
##户
##戸
##戻
##戾
##房
##所
##扁
##扇
##扈
##扉
##手
##才
##扎
##扑
##扒
##打
##扔
##払
##托
##扛
##扣
##扦
##执
##扩
##扪
##扫
##扬
##扭
##扮
##扯
##扰
##扱
##扳
##扶
##批
##扼
##找
##承
##技
##抄
##抉
##把
##抑
##抒
##抓
##投
##抖
##抗
##折
##抚
##抛
##抜
##択
##抟
##抠
##抡
##抢
##护
##报
##抨
##披
##抬
##抱
##抵
##抹
##押
##抽
##抿
##拂
##拄
##担
##拆
##拇
##拈
##拉
##拋
##拌
##拍
##拎
##拐
##拒
##拓
##拔
##拖
##拗
##拘
##拙
##拚
##招
##拜
##拟
##拡
##拢
##拣
##拥
##拦
##拧
##拨
##择
##括
##拭
##拮
##拯
##拱
##拳
##拴
##拷
##拼
##拽
##拾
##拿
##持
##挂
##指
##挈
##按
##挎
##挑
##挖
##挙
##挚
##挛
##挝
##挞
##挟
##挠
##挡
##挣
##挤
##挥
##挨
##挪
##挫
##振
##挲
##挹
##挺
##挽
##挾
##捂
##捅
##捆
##捉
##捋
##捌
##捍
##捎
##捏
##捐
##捕
##捞
##损
##捡
##换
##捣
##捧
##捨
##捩
##据
##捱
##捲
##捶
##捷
##捺
##捻
##掀
##掂
##掃
##掇
##授
##掉
##掌
##掏
##掐
##排
##掖
##掘
##掙
##掛
##掠
##採
##探
##掣
##接
##控
##推
##掩
##措
##掬
##掰
##掲
##掳
##掴
##掷
##掸
##掺
##揀
##揃
##揄
##揆
##揉
##揍
##描
##提
##插
##揖
##揚
##換
##握
##揣
##揩
##揪
##揭
##揮
##援
##揶
##揸
##揹
##揽
##搀
##搁
##搂
##搅
##損
##搏
##搐
##搓
##搔
##搖
##搗
##搜
##搞
##搡
##搪
##搬
##搭
##搵
##搶
##携
##搽
##摀
##摁
##摄
##摆
##摇
##摈
##摊
##摒
##摔
##摘
##摞
##摟
##摧
##摩
##摯
##摳
##摸
##摹
##摺
##摻
##撂
##撃
##撅
##撇
##撈
##撐
##撑
##撒
##撓
##撕
##撚
##撞
##撤
##撥
##撩
##撫
##撬
##播
##撮
##撰
##撲
##撵
##撷
##撸
##撻
##撼
##撿
##擀
##擁
##擂
##擄
##擅
##擇
##擊
##擋
##操
##擎
##擒
##擔
##擘
##據
##擞
##擠
##擡
##擢
##擦
##擬
##擰
##擱
##擲
##擴
##擷
##擺
##擼
##擾
##攀
##攏
##攒
##攔
##攘
##攙
##攜
##攝
##攞
##攢
##攣
##攤
##攥
##攪
##攫
##攬
##支
##收
##攸
##改
##攻
##放
##政
##故
##效
##敌
##敍
##敎
##敏
##救
##敕
##敖
##敗
##敘
##教
##敛
##敝
##敞
##敢
##散
##敦
##敬
##数
##敲
##整
##敵
##敷
##數
##斂
##斃
##文
##斋
##斌
##斎
##斐
##斑
##斓
##斗
##料
##斛
##斜
##斟
##斡
##斤
##斥
##斧
##斩
##斫
##斬
##断
##斯
##新
##斷
##方
##於
##施
##旁
##旃
##旅
##旋
##旌
##旎
##族
##旖
##旗
##无
##既
##日
##旦
##旧
##旨
##早
##旬
##旭
##旮
##旱
##时
##旷
##旺
##旻
##昀
##昂
##昆
##昇
##昉
##昊
##昌
##明
##昏
##易
##昔
##昕
##昙
##星
##映
##春
##昧
##昨
##昭
##是
##昱
##昴
##昵
##昶
##昼
##显
##晁
##時
##晃
##晉
##晋
##晌
##晏
##晒
##晓
##晔
##晕
##晖
##晗
##晚
##晝
##晞
##晟
##晤
##晦
##晨
##晩
##普
##景
##晰
##晴
##晶
##晷
##智
##晾
##暂
##暄
##暇
##暈
##暉
##暌
##暐
##暑
##暖
##暗
##暝
##暢
##暧
##暨
##暫
##暮
##暱
##暴
##暸
##暹
##曄
##曆
##曇
##曉
##曖
##曙
##曜
##曝
##曠
##曦
##曬
##曰
##曲
##曳
##更
##書
##曹
##曼
##曾
##替
##最
##會
##月
##有
##朋
##服
##朐
##朔
##朕
##朗
##望
##朝
##期
##朦
##朧
##木
##未
##末
##本
##札
##朮
##术
##朱
##朴
##朵
##机
##朽
##杀
##杂
##权
##杆
##杈
##杉
##李
##杏
##材
##村
##杓
##杖
##杜
##杞
##束
##杠
##条
##来
##杨
##杭
##杯
##杰
##東
##杳
##杵
##杷
##杼
##松
##板
##极
##构
##枇
##枉
##枋
##析
##枕
##林
##枚
##果
##枝
##枢
##枣
##枪
##枫
##枭
##枯
##枰
##枱
##枳
##架
##枷
##枸
##柄
##柏
##某
##柑
##柒
##染
##柔
##柘
##柚
##柜
##柞
##柠
##柢
##查
##柩
##柬
##柯
##柱
##柳
##柴
##柵
##査
##柿
##栀
##栃
##栄
##栅
##标
##栈
##栉
##栋
##栎
##栏
##树
##栓
##栖
##栗
##校
##栩
##株
##样
##核
##根
##格
##栽
##栾
##桀
##桁
##桂
##桃
##桅
##框
##案
##桉
##桌
##桎
##桐
##桑
##桓
##桔
##桜
##桠
##桡
##桢
##档
##桥
##桦
##桧
##桨
##桩
##桶
##桿
##梁
##梅
##梆
##梏
##梓
##梗
##條
##梟
##梢
##梦
##梧
##梨
##梭
##梯
##械
##梳
##梵
##梶
##检
##棂
##棄
##棉
##棋
##棍
##棒
##棕
##棗
##棘
##棚
##棟
##棠
##棣
##棧
##森
##棱
##棲
##棵
##棹
##棺
##椁
##椅
##椋
##植
##椎
##椒
##検
##椪
##椭
##椰
##椹
##椽
##椿
##楂
##楊
##楓
##楔
##楚
##楝
##楞
##楠
##楣
##楨
##楫
##業
##楮
##極
##楷
##楸
##楹
##楼
##楽
##概
##榄
##榆
##榈
##榉
##榔
##榕
##榖
##榛
##榜
##榨
##榫
##榭
##榮
##榱
##榴
##榷
##榻
##槁
##槃
##構
##槌
##槍
##槎
##槐
##槓
##様
##槛
##槟
##槤
##槭
##槲
##槳
##槻
##槽
##槿
##樁
##樂
##樊
##樑
##樓
##標
##樞
##樟
##模
##樣
##権
##横
##樫
##樯
##樱
##樵
##樸
##樹
##樺
##樽
##樾
##橄
##橇
##橋
##橐
##橘
##橙
##機
##橡
##橢
##橫
##橱
##橹
##橼
##檀
##檄
##檎
##檐
##檔
##檗
##檜
##檢
##檬
##檯
##檳
##檸
##檻
##櫃
##櫚
##櫛
##櫥
##櫸
##櫻
##欄
##權
##欒
##欖
##欠
##次
##欢
##欣
##欧
##欲
##欸
##欺
##欽
##款
##歆
##歇
##歉
##歌
##歎
##歐
##歓
##歙
##歛
##歡
##止
##正
##此
##步
##武
##歧
##歩
##歪
##歯
##歲
##歳
##歴
##歷
##歸
##歹
##死
##歼
##殁
##殃
##殆
##殇
##殉
##殊
##残
##殒
##殓
##殖
##殘
##殞
##殡
##殤
##殭
##殯
##殲
##殴
##段
##殷
##殺
##殼
##殿
##毀
##毁
##毂
##毅
##毆
##毋
##母
##毎
##每
##毒
##毓
##比
##毕
##毗
##毘
##毙
##毛
##毡
##毫
##毯
##毽
##氈
##氏
##氐
##民
##氓
##气
##氖
##気
##氙
##氛
##氟
##氡
##氢
##氣
##氤
##氦
##氧
##氨
##氪
##氫
##氮
##氯
##氰
##氲
##水
##氷
##永
##氹
##氾
##汀
##汁
##求
##汆
##汇
##汉
##汎
##汐
##汕
##汗
##汙
##汛
##汝
##汞
##江
##池
##污
##汤
##汨
##汩
##汪
##汰
##汲
##汴
##汶
##汹
##決
##汽
##汾
##沁
##沂
##沃
##沅
##沈
##沉
##沌
##沏
##沐
##沒
##沓
##沖
##沙
##沛
##沟
##没
##沢
##沣
##沥
##沦
##沧
##沪
##沫
##沭
##沮
##沱
##河
##沸
##油
##治
##沼
##沽
##沾
##沿
##況
##泄
##泉
##泊
##泌
##泓
##法
##泗
##泛
##泞
##泠
##泡
##波
##泣
##泥
##注
##泪
##泫
##泮
##泯
##泰
##泱
##泳
##泵
##泷
##泸
##泻
##泼
##泽
##泾
##洁
##洄
##洋
##洒
##洗
##洙
##洛
##洞
##津
##洩
##洪
##洮
##洱
##洲
##洵
##洶
##洸
##洹
##活
##洼
##洽
##派
##流
##浃
##浄
##浅
##浆
##浇
##浊
##测
##济
##浏
##浑
##浒
##浓
##浔
##浙
##浚
##浜
##浣
##浦
##浩
##浪
##浬
##浮
##浯
##浴
##海
##浸
##涂
##涅
##涇
##消
##涉
##涌
##涎
##涓
##涔
##涕
##涙
##涛
##涝
##涞
##涟
##涠
##涡
##涣
##涤
##润
##涧
##涨
##涩
##涪
##涮
##涯
##液
##涵
##涸
##涼
##涿
##淀
##淄
##淅
##淆
##淇
##淋
##淌
##淑
##淒
##淖
##淘
##淙
##淚
##淞
##淡
##淤
##淦
##淨
##淩
##淪
##淫
##淬
##淮
##深
##淳
##淵
##混
##淹
##淺
##添
##淼
##清
##済
##渉
##渊
##渋
##渍
##渎
##渐
##渔
##渗
##渙
##渚
##減
##渝
##渠
##渡
##渣
##渤
##渥
##渦
##温
##測
##渭
##港
##渲
##渴
##游
##渺
##渾
##湃
##湄
##湊
##湍
##湖
##湘
##湛
##湟
##湧
##湫
##湮
##湯
##湳
##湾
##湿
##満
##溃
##溅
##溉
##溏
##源
##準
##溜
##溝
##溟
##溢
##溥
##溧
##溪
##溫
##溯
##溱
##溴
##溶
##溺
##溼
##滁
##滂
##滄
##滅
##滇
##滋
##滌
##滑
##滓
##滔
##滕
##滙
##滚
##滝
##滞
##滟
##满
##滢
##滤
##滥
##滦
##滨
##滩
##滬
##滯
##滲
##滴
##滷
##滸
##滾
##滿
##漁
##漂
##漆
##漉
##漏
##漓
##演
##漕
##漠
##漢
##漣
##漩
##漪
##漫
##漬
##漯
##漱
##漲
##漳
##漸
##漾
##漿
##潆
##潇
##潋
##潍
##潑
##潔
##潘
##潛
##潜
##潞
##潟
##潢
##潤
##潦
##潧
##潭
##潮
##潰
##潴
##潸
##潺
##潼
##澀
##澄
##澆
##澈
##澍
##澎
##澗
##澜
##澡
##澤
##澧
##澱
##澳
##澹
##激
##濁
##濂
##濃
##濑
##濒
##濕
##濘
##濛
##濟
##濠
##濡
##濤
##濫
##濬
##濮
##濯
##濱
##濺
##濾
##瀅
##瀆
##瀉
##瀋
##瀏
##瀑
##瀕
##瀘
##瀚
##瀛
##瀝
##瀞
##瀟
##瀧
##瀨
##瀬
##瀰
##瀾
##灌
##灏
##灑
##灘
##灝
##灞
##灣
##火
##灬
##灭
##灯
##灰
##灵
##灶
##灸
##灼
##災
##灾
##灿
##炀
##炁
##炅
##炉
##炊
##炎
##炒
##炔
##炕
##炖
##炙
##炜
##炫
##炬
##炭
##炮
##炯
##炳
##炷
##炸
##点
##為
##炼
##炽
##烁
##烂
##烃
##烈
##烊
##烏
##烘
##烙
##烛
##烟
##烤
##烦
##烧
##烨
##烩
##烫
##烬
##热
##烯
##烷
##烹
##烽
##焉
##焊
##焕
##焖
##焗
##焘
##焙
##焚
##焜
##無
##焦
##焯
##焰
##焱
##然
##焼
##煅
##煉
##煊
##煌
##煎
##煒
##煖
##煙
##煜
##煞
##煤
##煥
##煦
##照
##煨
##煩
##煮
##煲
##煸
##煽
##熄
##熊
##熏
##熒
##熔
##熙
##熟
##熠
##熨
##熬
##熱
##熵
##熹
##熾
##燁
##燃
##燄
##燈
##燉
##燊
##燎
##燒
##燔
##燕
##燙
##燜
##營
##燥
##燦
##燧
##燭
##燮
##燴
##燻
##燼
##燿
##爆
##爍
##爐
##爛
##爪
##爬
##爭
##爰
##爱
##爲
##爵
##父
##爷
##爸
##爹
##爺
##爻
##爽
##爾
##牆
##片
##版
##牌
##牍
##牒
##牙
##牛
##牝
##牟
##牠
##牡
##牢
##牦
##牧
##物
##牯
##牲
##牴
##牵
##特
##牺
##牽
##犀
##犁
##犄
##犊
##犍
##犒
##犢
##犧
##犬
##犯
##状
##犷
##犸
##犹
##狀
##狂
##狄
##狈
##狎
##狐
##狒
##狗
##狙
##狞
##狠
##狡
##狩
##独
##狭
##狮
##狰
##狱
##狸
##狹
##狼
##狽
##猎
##猕
##猖
##猗
##猙
##猛
##猜
##猝
##猥
##猩
##猪
##猫
##猬
##献
##猴
##猶
##猷
##猾
##猿
##獄
##獅
##獎
##獐
##獒
##獗
##獠
##獣
##獨
##獭
##獰
##獲
##獵
##獷
##獸
##獺
##獻
##獼
##獾
##玄
##率
##玉
##王
##玑
##玖
##玛
##玟
##玠
##玥
##玩
##玫
##玮
##环
##现
##玲
##玳
##玷
##玺
##玻
##珀
##珂
##珅
##珈
##珉
##珊
##珍
##珏
##珐
##珑
##珙
##珞
##珠
##珣
##珥
##珩
##珪
##班
##珮
##珲
##珺
##現
##球
##琅
##理
##琇
##琉
##琊
##琍
##琏
##琐
##琛
##琢
##琥
##琦
##琨
##琪
##琬
##琮
##琰
##琲
##琳
##琴
##琵
##琶
##琺
##琼
##瑀
##瑁
##瑄
##瑋
##瑕
##瑗
##瑙
##瑚
##瑛
##瑜
##瑞
##瑟
##瑠
##瑣
##瑤
##瑩
##瑪
##瑯
##瑰
##瑶
##瑾
##璀
##璁
##璃
##璇
##璉
##璋
##璎
##璐
##璜
##璞
##璟
##璧
##璨
##環
##璽
##璿
##瓊
##瓏
##瓒
##瓜
##瓢
##瓣
##瓤
##瓦
##瓮
##瓯
##瓴
##瓶
##瓷
##甄
##甌
##甕
##甘
##甙
##甚
##甜
##生
##產
##産
##甥
##甦
##用
##甩
##甫
##甬
##甭
##甯
##田
##由
##甲
##申
##电
##男
##甸
##町
##画
##甾
##畀
##畅
##界
##畏
##畑
##畔
##留
##畜
##畝
##畢
##略
##畦
##番
##畫
##異
##畲
##畳
##畴
##當
##畸
##畹
##畿
##疆
##疇
##疊
##疏
##疑
##疔
##疖
##疗
##疙
##疚
##疝
##疟
##疡
##疣
##疤
##疥
##疫
##疮
##疯
##疱
##疲
##疳
##疵
##疸
##疹
##疼
##疽
##疾
##痂
##病
##症
##痈
##痉
##痊
##痍
##痒
##痔
##痕
##痘
##痙
##痛
##痞
##痠
##痢
##痣
##痤
##痧
##痨
##痪
##痫
##痰
##痱
##痴
##痹
##痺
##痼
##痿
##瘀
##瘁
##瘋
##瘍
##瘓
##瘘
##瘙
##瘟
##瘠
##瘡
##瘢
##瘤
##瘦
##瘧
##瘩
##瘪
##瘫
##瘴
##瘸
##瘾
##療
##癇
##癌
##癒
##癖
##癜
##癞
##癡
##癢
##癣
##癥
##癫
##癬
##癮
##癱
##癲
##癸
##発
##登
##發
##白
##百
##皂
##的
##皆
##皇
##皈
##皋
##皎
##皑
##皓
##皖
##皙
##皚
##皮
##皰
##皱
##皴
##皺
##皿
##盂
##盃
##盅
##盆
##盈
##益
##盎
##盏
##盐
##监
##盒
##盔
##盖
##盗
##盘
##盛
##盜
##盞
##盟
##盡
##監
##盤
##盥
##盧
##盪
##目
##盯
##盱
##盲
##直
##相
##盹
##盼
##盾
##省
##眈
##眉
##看
##県
##眙
##眞
##真
##眠
##眦
##眨
##眩
##眯
##眶
##眷
##眸
##眺
##眼
##眾
##着
##睁
##睇
##睏
##睐
##睑
##睛
##睜
##睞
##睡
##睢
##督
##睥
##睦
##睨
##睪
##睫
##睬
##睹
##睽
##睾
##睿
##瞄
##瞅
##瞇
##瞋
##瞌
##瞎
##瞑
##瞒
##瞓
##瞞
##瞟
##瞠
##瞥
##瞧
##瞩
##瞪
##瞬
##瞭
##瞰
##瞳
##瞻
##瞼
##瞿
##矇
##矍
##矗
##矚
##矛
##矜
##矢
##矣
##知
##矩
##矫
##短
##矮
##矯
##石
##矶
##矽
##矾
##矿
##码
##砂
##砌
##砍
##砒
##研
##砖
##砗
##砚
##砝
##砣
##砥
##砧
##砭
##砰
##砲
##破
##砷
##砸
##砺
##砼
##砾
##础
##硅
##硐
##硒
##硕
##硝
##硫
##硬
##确
##硯
##硼
##碁
##碇
##碉
##碌
##碍
##碎
##碑
##碓
##碗
##碘
##碚
##碛
##碟
##碣
##碧
##碩
##碰
##碱
##碳
##碴
##確
##碼
##碾
##磁
##磅
##磊
##磋
##磐
##磕
##磚
##磡
##磨
##磬
##磯
##磲
##磷
##磺
##礁
##礎
##礙
##礡
##礦
##礪
##礫
##礴
##示
##礼
##社
##祀
##祁
##祂
##祇
##祈
##祉
##祎
##祐
##祕
##祖
##祗
##祚
##祛
##祜
##祝
##神
##祟
##祠
##祢
##祥
##票
##祭
##祯
##祷
##祸
##祺
##祿
##禀
##禁
##禄
##禅
##禍
##禎
##福
##禛
##禦
##禧
##禪
##禮
##禱
##禹
##禺
##离
##禽
##禾
##禿
##秀
##私
##秃
##秆
##秉
##秋
##种
##科
##秒
##秘
##租
##秣
##秤
##秦
##秧
##秩
##秭
##积
##称
##秸
##移
##秽
##稀
##稅
##程
##稍
##税
##稔
##稗
##稚
##稜
##稞
##稟
##稠
##稣
##種
##稱
##稲
##稳
##稷
##稹
##稻
##稼
##稽
##稿
##穀
##穂
##穆
##穌
##積
##穎
##穗
##穢
##穩
##穫
##穴
##究
##穷
##穹
##空
##穿
##突
##窃
##窄
##窈
##窍
##窑
##窒
##窓
##窕
##窖
##窗
##窘
##窜
##窝
##窟
##窠
##窥
##窦
##窨
##窩
##窪
##窮
##窯
##窺
##窿
##竄
##竅
##竇
##竊
##立
##竖
##站
##竜
##竞
##竟
##章
##竣
##童
##竭
##端
##競
##竹
##竺
##竽
##竿
##笃
##笆
##笈
##笋
##笏
##笑
##笔
##笙
##笛
##笞
##笠
##符
##笨
##第
##笹
##笺
##笼
##筆
##等
##筊
##筋
##筍
##筏
##筐
##筑
##筒
##答
##策
##筛
##筝
##筠
##筱
##筲
##筵
##筷
##筹
##签
##简
##箇
##箋
##箍
##箏
##箐
##箔
##箕
##算
##箝
##管
##箩
##箫
##箭
##箱
##箴
##箸
##節
##篁
##範
##篆
##篇
##築
##篑
##篓
##篙
##篝
##篠
##篡
##篤
##篩
##篪
##篮
##篱
##篷
##簇
##簌
##簍
##簡
##簦
##簧
##簪
##簫
##簷
##簸
##簽
##簾
##簿
##籁
##籃
##籌
##籍
##籐
##籟
##籠
##籤
##籬
##籮
##籲
##米
##类
##籼
##籽
##粄
##粉
##粑
##粒
##粕
##粗
##粘
##粟
##粤
##粥
##粧
##粪
##粮
##粱
##粲
##粳
##粵
##粹
##粼
##粽
##精
##粿
##糅
##糊
##糍
##糕
##糖
##糗
##糙
##糜
##糞
##糟
##糠
##糧
##糬
##糯
##糰
##糸
##系
##糾
##紀
##紂
##約
##紅
##紉
##紊
##紋
##納
##紐
##紓
##純
##紗
##紘
##紙
##級
##紛
##紜
##素
##紡
##索
##紧
##紫
##紮
##累
##細
##紳
##紹
##紺
##終
##絃
##組
##絆
##経
##結
##絕
##絞
##絡
##絢
##給
##絨
##絮
##統
##絲
##絳
##絵
##絶
##絹
##綁
##綏
##綑
##經
##継
##続
##綜
##綠
##綢
##綦
##綫
##綬
##維
##綱
##網
##綴
##綵
##綸
##綺
##綻
##綽
##綾
##綿
##緊
##緋
##総
##緑
##緒
##緘
##線
##緝
##緞
##締
##緣
##編
##緩
##緬
##緯
##練
##緹
##緻
##縁
##縄
##縈
##縛
##縝
##縣
##縫
##縮
##縱
##縴
##縷
##總
##績
##繁
##繃
##繆
##繇
##繋
##織
##繕
##繚
##繞
##繡
##繩
##繪
##繫
##繭
##繳
##繹
##繼
##繽
##纂
##續
##纍
##纏
##纓
##纔
##纖
##纜
##纠
##红
##纣
##纤
##约
##级
##纨
##纪
##纫
##纬
##纭
##纯
##纰
##纱
##纲
##纳
##纵
##纶
##纷
##纸
##纹
##纺
##纽
##纾
##线
##绀
##练
##组
##绅
##细
##织
##终
##绊
##绍
##绎
##经
##绑
##绒
##结
##绔
##绕
##绘
##给
##绚
##绛
##络
##绝
##绞
##统
##绡
##绢
##绣
##绥
##绦
##继
##绩
##绪
##绫
##续
##绮
##绯
##绰
##绳
##维
##绵
##绶
##绷
##绸
##绻
##综
##绽
##绾
##绿
##缀
##缄
##缅
##缆
##缇
##缈
##缉
##缎
##缓
##缔
##缕
##编
##缘
##缙
##缚
##缜
##缝
##缠
##缢
##缤
##缥
##缨
##缩
##缪
##缭
##缮
##缰
##缱
##缴
##缸
##缺
##缽
##罂
##罄
##罌
##罐
##网
##罔
##罕
##罗
##罚
##罡
##罢
##罩
##罪
##置
##罰
##署
##罵
##罷
##罹
##羁
##羅
##羈
##羊
##羌
##美
##羔
##羚
##羞
##羟
##羡
##羣
##群
##羥
##羧
##羨
##義
##羯
##羲
##羸
##羹
##羽
##羿
##翁
##翅
##翊
##翌
##翎
##習
##翔
##翘
##翟
##翠
##翡
##翦
##翩
##翰
##翱
##翳
##翹
##翻
##翼
##耀
##老
##考
##耄
##者
##耆
##耋
##而
##耍
##耐
##耒
##耕
##耗
##耘
##耙
##耦
##耨
##耳
##耶
##耷
##耸
##耻
##耽
##耿
##聂
##聆
##聊
##聋
##职
##聒
##联
##聖
##聘
##聚
##聞
##聪
##聯
##聰
##聲
##聳
##聴
##聶
##職
##聽
##聾
##聿
##肃
##肄
##肅
##肆
##肇
##肉
##肋
##肌
##肏
##肓
##肖
##肘
##肚
##肛
##肝
##肠
##股
##肢
##肤
##肥
##肩
##肪
##肮
##肯
##肱
##育
##肴
##肺
##肽
##肾
##肿
##胀
##胁
##胃
##胄
##胆
##背
##胍
##胎
##胖
##胚
##胛
##胜
##胝
##胞
##胡
##胤
##胥
##胧
##胫
##胭
##胯
##胰
##胱
##胳
##胴
##胶
##胸
##胺
##能
##脂
##脅
##脆
##脇
##脈
##脉
##脊
##脍
##脏
##脐
##脑
##脓
##脖
##脘
##脚
##脛
##脣
##脩
##脫
##脯
##脱
##脲
##脳
##脸
##脹
##脾
##腆
##腈
##腊
##腋
##腌
##腎
##腐
##腑
##腓
##腔
##腕
##腥
##腦
##腩
##腫
##腭
##腮
##腰
##腱
##腳
##腴
##腸
##腹
##腺
##腻
##腼
##腾
##腿
##膀
##膈
##膊
##膏
##膑
##膘
##膚
##膛
##膜
##膝
##膠
##膦
##膨
##膩
##膳
##膺
##膻
##膽
##膾
##膿
##臀
##臂
##臃
##臆
##臉
##臊
##臍
##臓
##臘
##臟
##臣
##臥
##臧
##臨
##自
##臬
##臭
##至
##致
##臺
##臻
##臼
##臾
##舀
##舂
##舅
##舆
##與
##興
##舉
##舊
##舌
##舍
##舎
##舐
##舒
##舔
##舖
##舗
##舛
##舜
##舞
##舟
##航
##舫
##般
##舰
##舱
##舵
##舶
##舷
##舸
##船
##舺
##舾
##艇
##艋
##艘
##艙
##艦
##艮
##良
##艰
##艱
##色
##艳
##艷
##艹
##艺
##艾
##节
##芃
##芈
##芊
##芋
##芍
##芎
##芒
##芙
##芜
##芝
##芡
##芥
##芦
##芩
##芪
##芫
##芬
##芭
##芮
##芯
##花
##芳
##芷
##芸
##芹
##芻
##芽
##芾
##苁
##苄
##苇
##苋
##苍
##苏
##苑
##苒
##苓
##苔
##苕
##苗
##苛
##苜
##苞
##苟
##苡
##苣
##若
##苦
##苫
##苯
##英
##苷
##苹
##苻
##茁
##茂
##范
##茄
##茅
##茉
##茎
##茏
##茗
##茜
##茧
##茨
##茫
##茬
##茭
##茯
##茱
##茲
##茴
##茵
##茶
##茸
##茹
##茼
##荀
##荃
##荆
##草
##荊
##荏
##荐
##荒
##荔
##荖
##荘
##荚
##荞
##荟
##荠
##荡
##荣
##荤
##荥
##荧
##荨
##荪
##荫
##药
##荳
##荷
##荸
##荻
##荼
##荽
##莅
##莆
##莉
##莊
##莎
##莒
##莓
##莖
##莘
##莞
##莠
##莢
##莧
##莪
##莫
##莱
##莲
##莴
##获
##莹
##莺
##莽
##莿
##菀
##菁
##菅
##菇
##菈
##菊
##菌
##菏
##菓
##菖
##菘
##菜
##菟
##菠
##菡
##菩
##華
##菱
##菲
##菸
##菽
##萁
##萃
##萄
##萊
##萋
##萌
##萍
##萎
##萘
##萝
##萤
##营
##萦
##萧
##萨
##萩
##萬
##萱
##萵
##萸
##萼
##落
##葆
##葉
##著
##葚
##葛
##葡
##董
##葦
##葩
##葫
##葬
##葭
##葯
##葱
##葳
##葵
##葷
##葺
##蒂
##蒋
##蒐
##蒔
##蒙
##蒜
##蒞
##蒟
##蒡
##蒨
##蒲
##蒸
##蒹
##蒻
##蒼
##蒿
##蓁
##蓄
##蓆
##蓉
##蓋
##蓑
##蓓
##蓖
##蓝
##蓟
##蓦
##蓬
##蓮
##蓼
##蓿
##蔑
##蔓
##蔔
##蔗
##蔘
##蔚
##蔡
##蔣
##蔥
##蔫
##蔬
##蔭
##蔵
##蔷
##蔺
##蔻
##蔼
##蔽
##蕁
##蕃
##蕈
##蕉
##蕊
##蕎
##蕙
##蕤
##蕨
##蕩
##蕪
##蕭
##蕲
##蕴
##蕻
##蕾
##薄
##薅
##薇
##薈
##薊
##薏
##薑
##薔
##薙
##薛
##薦
##薨
##薩
##薪
##薬
##薯
##薰
##薹
##藉
##藍
##藏
##藐
##藓
##藕
##藜
##藝
##藤
##藥
##藩
##藹
##藻
##藿
##蘆
##蘇
##蘊
##蘋
##蘑
##蘚
##蘭
##蘸
##蘼
##蘿
##虎
##虏
##虐
##虑
##虔
##處
##虚
##虛
##虜
##虞
##號
##虢
##虧
##虫
##虬
##虱
##虹
##虻
##虽
##虾
##蚀
##蚁
##蚂
##蚊
##蚌
##蚓
##蚕
##蚜
##蚝
##蚣
##蚤
##蚩
##蚪
##蚯
##蚱
##蚵
##蛀
##蛆
##蛇
##蛊
##蛋
##蛎
##蛐
##蛔
##蛙
##蛛
##蛟
##蛤
##蛭
##蛮
##蛰
##蛳
##蛹
##蛻
##蛾
##蜀
##蜂
##蜃
##蜆
##蜇
##蜈
##蜊
##蜍
##蜒
##蜓
##蜕
##蜗
##蜘
##蜚
##蜜
##蜡
##蜢
##蜥
##蜱
##蜴
##蜷
##蜻
##蜿
##蝇
##蝈
##蝉
##蝌
##蝎
##蝕
##蝗
##蝙
##蝟
##蝠
##蝦
##蝨
##蝴
##蝶
##蝸
##蝼
##螂
##螃
##融
##螞
##螢
##螨
##螯
##螳
##螺
##蟀
##蟄
##蟆
##蟋
##蟎
##蟑
##蟒
##蟠
##蟬
##蟲
##蟹
##蟻
##蟾
##蠅
##蠍
##蠔
##蠕
##蠛
##蠟
##蠡
##蠢
##蠣
##蠱
##蠶
##蠹
##蠻
##血
##衄
##衅
##衆
##行
##衍
##術
##衔
##街
##衙
##衛
##衝
##衞
##衡
##衢
##衣
##补
##表
##衩
##衫
##衬
##衮
##衰
##衲
##衷
##衹
##衾
##衿
##袁
##袂
##袄
##袅
##袈
##袋
##袍
##袒
##袖
##袜
##袞
##袤
##袪
##被
##袭
##袱
##裁
##裂
##装
##裆
##裊
##裏
##裔
##裕
##裘
##裙
##補
##裝
##裟
##裡
##裤
##裨
##裱
##裳
##裴
##裸
##裹
##製
##裾
##褂
##複
##褐
##褒
##褓
##褔
##褚
##褥
##褪
##褫
##褲
##褶
##褻
##襁
##襄
##襟
##襠
##襪
##襬
##襯
##襲
##西
##要
##覃
##覆
##覇
##見
##規
##覓
##視
##覚
##覦
##覧
##親
##覬
##観
##覷
##覺
##覽
##觀
##见
##观
##规
##觅
##视
##览
##觉
##觊
##觎
##觐
##觑
##角
##觞
##解
##觥
##触
##觸
##言
##訂
##計
##訊
##討
##訓
##訕
##訖
##託
##記
##訛
##訝
##訟
##訣
##訥
##訪
##設
##許
##訳
##訴
##訶
##診
##註
##証
##詆
##詐
##詔
##評
##詛
##詞
##詠
##詡
##詢
##詣
##試
##詩
##詫
##詬
##詭
##詮
##詰
##話
##該
##詳
##詹
##詼
##誅
##誇
##誉
##誌
##認
##誓
##誕
##誘
##語
##誠
##誡
##誣
##誤
##誥
##誦
##誨
##說
##説
##読
##誰
##課
##誹
##誼
##調
##諄
##談
##請
##諏
##諒
##論
##諗
##諜
##諡
##諦
##諧
##諫
##諭
##諮
##諱
##諳
##諷
##諸
##諺
##諾
##謀
##謁
##謂
##謄
##謊
##謎
##謐
##謔
##謗
##謙
##講
##謝
##謠
##謨
##謬
##謹
##謾
##譁
##證
##譎
##譏
##識
##譙
##譚
##譜
##警
##譬
##譯
##議
##譲
##譴
##護
##譽
##讀
##變
##讓
##讚
##讞
##计
##订
##认
##讥
##讧
##讨
##让
##讪
##讫
##训
##议
##讯
##记
##讲
##讳
##讴
##讶
##讷
##许
##讹
##论
##讼
##讽
##设
##访
##诀
##证
##诃
##评
##诅
##识
##诈
##诉
##诊
##诋
##词
##诏
##译
##试
##诗
##诘
##诙
##诚
##诛
##话
##诞
##诟
##诠
##诡
##询
##诣
##诤
##该
##详
##诧
##诩
##诫
##诬
##语
##误
##诰
##诱
##诲
##说
##诵
##诶
##请
##诸
##诺
##读
##诽
##课
##诿
##谀
##谁
##调
##谄
##谅
##谆
##谈
##谊
##谋
##谌
##谍
##谎
##谏
##谐
##谑
##谒
##谓
##谔
##谕
##谗
##谘
##谙
##谚
##谛
##谜
##谟
##谢
##谣
##谤
##谥
##谦
##谧
##谨
##谩
##谪
##谬
##谭
##谯
##谱
##谲
##谴
##谶
##谷
##豁
##豆
##豇
##豈
##豉
##豊
##豌
##豎
##豐
##豔
##豚
##象
##豢
##豪
##豫
##豬
##豹
##豺
##貂
##貅
##貌
##貓
##貔
##貘
##貝
##貞
##負
##財
##貢
##貧
##貨
##販
##貪
##貫
##責
##貯
##貰
##貳
##貴
##貶
##買
##貸
##費
##貼
##貽
##貿
##賀
##賁
##賂
##賃
##賄
##資
##賈
##賊
##賑
##賓
##賜
##賞
##賠
##賡
##賢
##賣
##賤
##賦
##質
##賬
##賭
##賴
##賺
##購
##賽
##贅
##贈
##贊
##贍
##贏
##贓
##贖
##贛
##贝
##贞
##负
##贡
##财
##责
##贤
##败
##账
##货
##质
##贩
##贪
##贫
##贬
##购
##贮
##贯
##贰
##贱
##贲
##贴
##贵
##贷
##贸
##费
##贺
##贻
##贼
##贾
##贿
##赁
##赂
##赃
##资
##赅
##赈
##赊
##赋
##赌
##赎
##赏
##赐
##赓
##赔
##赖
##赘
##赚
##赛
##赝
##赞
##赠
##赡
##赢
##赣
##赤
##赦
##赧
##赫
##赭
##走
##赳
##赴
##赵
##赶
##起
##趁
##超
##越
##趋
##趕
##趙
##趟
##趣
##趨
##足
##趴
##趵
##趸
##趺
##趾
##跃
##跄
##跆
##跋
##跌
##跎
##跑
##跖
##跚
##跛
##距
##跟
##跡
##跤
##跨
##跩
##跪
##路
##跳
##践
##跷
##跹
##跺
##跻
##踉
##踊
##踌
##踏
##踐
##踝
##踞
##踟
##踢
##踩
##踪
##踮
##踱
##踴
##踵
##踹
##蹂
##蹄
##蹇
##蹈
##蹉
##蹊
##蹋
##蹑
##蹒
##蹙
##蹟
##蹣
##蹤
##蹦
##蹩
##蹬
##蹭
##蹲
##蹴
##蹶
##蹺
##蹼
##蹿
##躁
##躇
##躉
##躊
##躋
##躍
##躏
##躪
##身
##躬
##躯
##躲
##躺
##軀
##車
##軋
##軌
##軍
##軒
##軟
##転
##軸
##軼
##軽
##軾
##較
##載
##輒
##輓
##輔
##輕
##輛
##輝
##輟
##輩
##輪
##輯
##輸
##輻
##輾
##輿
##轄
##轅
##轆
##轉
##轍
##轎
##轟
##车
##轧
##轨
##轩
##转
##轭
##轮
##软
##轰
##轲
##轴
##轶
##轻
##轼
##载
##轿
##较
##辄
##辅
##辆
##辇
##辈
##辉
##辊
##辍
##辐
##辑
##输
##辕
##辖
##辗
##辘
##辙
##辛
##辜
##辞
##辟
##辣
##辦
##辨
##辩
##辫
##辭
##辮
##辯
##辰
##辱
##農
##边
##辺
##辻
##込
##辽
##达
##迁
##迂
##迄
##迅
##过
##迈
##迎
##运
##近
##返
##还
##这
##进
##远
##违
##连
##迟
##迢
##迤
##迥
##迦
##迩
##迪
##迫
##迭
##述
##迴
##迷
##迸
##迹
##迺
##追
##退
##送
##适
##逃
##逅
##逆
##选
##逊
##逍
##透
##逐
##递
##途
##逕
##逗
##這
##通
##逛
##逝
##逞
##速
##造
##逢
##連
##逮
##週
##進
##逵
##逶
##逸
##逻
##逼
##逾
##遁
##遂
##遅
##遇
##遊
##運
##遍
##過
##遏
##遐
##遑
##遒
##道
##達
##違
##遗
##遙
##遛
##遜
##遞
##遠
##遢
##遣
##遥
##遨
##適
##遭
##遮
##遲
##遴
##遵
##遶
##遷
##選
##遺
##遼
##遽
##避
##邀
##邁
##邂
##邃
##還
##邇
##邈
##邊
##邋
##邏
##邑
##邓
##邕
##邛
##邝
##邢
##那
##邦
##邨
##邪
##邬
##邮
##邯
##邰
##邱
##邳
##邵
##邸
##邹
##邺
##邻
##郁
##郅
##郊
##郎
##郑
##郜
##郝
##郡
##郢
##郤
##郦
##郧
##部
##郫
##郭
##郴
##郵
##郷
##郸
##都
##鄂
##鄉
##鄒
##鄔
##鄙
##鄞
##鄢
##鄧
##鄭
##鄰
##鄱
##鄲
##鄺
##酉
##酊
##酋
##酌
##配
##酐
##酒
##酗
##酚
##酝
##酢
##酣
##酥
##酩
##酪
##酬
##酮
##酯
##酰
##酱
##酵
##酶
##酷
##酸
##酿
##醃
##醇
##醉
##醋
##醍
##醐
##醒
##醚
##醛
##醜
##醞
##醣
##醪
##醫
##醬
##醮
##醯
##醴
##醺
##釀
##釁
##采
##釉
##释
##釋
##里
##重
##野
##量
##釐
##金
##釗
##釘
##釜
##針
##釣
##釦
##釧
##釵
##鈀
##鈉
##鈍
##鈎
##鈔
##鈕
##鈞
##鈣
##鈦
##鈪
##鈴
##鈺
##鈾
##鉀
##鉄
##鉅
##鉉
##鉑
##鉗
##鉚
##鉛
##鉤
##鉴
##鉻
##銀
##銃
##銅
##銑
##銓
##銖
##銘
##銜
##銬
##銭
##銮
##銳
##銷
##銹
##鋁
##鋅
##鋒
##鋤
##鋪
##鋰
##鋸
##鋼
##錄
##錐
##錘
##錚
##錠
##錢
##錦
##錨
##錫
##錮
##錯
##録
##錳
##錶
##鍊
##鍋
##鍍
##鍛
##鍥
##鍰
##鍵
##鍺
##鍾
##鎂
##鎊
##鎌
##鎏
##鎔
##鎖
##鎗
##鎚
##鎧
##鎬
##鎮
##鎳
##鏈
##鏖
##鏗
##鏘
##鏞
##鏟
##鏡
##鏢
##鏤
##鏽
##鐘
##鐮
##鐲
##鐳
##鐵
##鐸
##鐺
##鑄
##鑊
##鑑
##鑒
##鑣
##鑫
##鑰
##鑲
##鑼
##鑽
##鑾
##鑿
##针
##钉
##钊
##钎
##钏
##钒
##钓
##钗
##钙
##钛
##钜
##钝
##钞
##钟
##钠
##钡
##钢
##钣
##钤
##钥
##钦
##钧
##钨
##钩
##钮
##钯
##钰
##钱
##钳
##钴
##钵
##钺
##钻
##钼
##钾
##钿
##铀
##铁
##铂
##铃
##铄
##铅
##铆
##铉
##铎
##铐
##铛
##铜
##铝
##铠
##铡
##铢
##铣
##铤
##铨
##铩
##铬
##铭
##铮
##铰
##铲
##铵
##银
##铸
##铺
##链
##铿
##销
##锁
##锂
##锄
##锅
##锆
##锈
##锉
##锋
##锌
##锏
##锐
##锑
##错
##锚
##锟
##锡
##锢
##锣
##锤
##锥
##锦
##锭
##键
##锯
##锰
##锲
##锵
##锹
##锺
##锻
##镀
##镁
##镂
##镇
##镉
##镌
##镍
##镐
##镑
##镕
##镖
##镗
##镛
##镜
##镣
##镭
##镯
##镰
##镳
##镶
##長
##长
##門
##閃
##閉
##開
##閎
##閏
##閑
##閒
##間
##閔
##閘
##閡
##関
##閣
##閥
##閨
##閩
##閱
##閲
##閹
##閻
##閾
##闆
##闇
##闊
##闌
##闍
##闔
##闕
##闖
##闘
##關
##闡
##闢
##门
##闪
##闫
##闭
##问
##闯
##闰
##闲
##间
##闵
##闷
##闸
##闹
##闺
##闻
##闽
##闾
##阀
##阁
##阂
##阅
##阆
##阇
##阈
##阉
##阎
##阐
##阑
##阔
##阕
##阖
##阙
##阚
##阜
##队
##阡
##阪
##阮
##阱
##防
##阳
##阴
##阵
##阶
##阻
##阿
##陀
##陂
##附
##际
##陆
##陇
##陈
##陋
##陌
##降
##限
##陕
##陛
##陝
##陞
##陟
##陡
##院
##陣
##除
##陨
##险
##陪
##陰
##陲
##陳
##陵
##陶
##陷
##陸
##険
##陽
##隅
##隆
##隈
##隊
##隋
##隍
##階
##随
##隐
##隔
##隕
##隘
##隙
##際
##障
##隠
##隣
##隧
##隨
##險
##隱
##隴
##隶
##隸
##隻
##隼
##隽
##难
##雀
##雁
##雄
##雅
##集
##雇
##雉
##雋
##雌
##雍
##雎
##雏
##雑
##雒
##雕
##雖
##雙
##雛
##雜
##雞
##離
##難
##雨
##雪
##雯
##雰
##雲
##雳
##零
##雷
##雹
##電
##雾
##需
##霁
##霄
##霆
##震
##霈
##霉
##霊
##霍
##霎
##霏
##霑
##霓
##霖
##霜
##霞
##霧
##霭
##霰
##露
##霸
##霹
##霽
##霾
##靂
##靄
##靈
##青
##靓
##靖
##静
##靚
##靛
##靜
##非
##靠
##靡
##面
##靥
##靦
##革
##靳
##靴
##靶
##靼
##鞅
##鞋
##鞍
##鞏
##鞑
##鞘
##鞠
##鞣
##鞦
##鞭
##韆
##韋
##韌
##韓
##韜
##韦
##韧
##韩
##韬
##韭
##音
##韵
##韶
##韻
##響
##頁
##頂
##頃
##項
##順
##須
##頌
##預
##頑
##頒
##頓
##頗
##領
##頜
##頡
##頤
##頫
##頭
##頰
##頷
##頸
##頹
##頻
##頼
##顆
##題
##額
##顎
##顏
##顔
##願
##顛
##類
##顧
##顫
##顯
##顱
##顴
##页
##顶
##顷
##项
##顺
##须
##顼
##顽
##顾
##顿
##颁
##颂
##预
##颅
##领
##颇
##颈
##颉
##颊
##颌
##颍
##颐
##频
##颓
##颔
##颖
##颗
##题
##颚
##颛
##颜
##额
##颞
##颠
##颡
##颢
##颤
##颦
##颧
##風
##颯
##颱
##颳
##颶
##颼
##飄
##飆
##风
##飒
##飓
##飕
##飘
##飙
##飚
##飛
##飞
##食
##飢
##飨
##飩
##飪
##飯
##飲
##飼
##飽
##飾
##餃
##餅
##餉
##養
##餌
##餐
##餒
##餓
##餘
##餚
##餛
##餞
##餡
##館
##餮
##餵
##餾
##饅
##饈
##饋
##饌
##饍
##饑
##饒
##饕
##饗
##饞
##饥
##饨
##饪
##饬
##饭
##饮
##饯
##饰
##饱
##饲
##饴
##饵
##饶
##饷
##饺
##饼
##饽
##饿
##馀
##馁
##馄
##馅
##馆
##馈
##馋
##馍
##馏
##馒
##馔
##首
##馗
##香
##馥
##馨
##馬
##馭
##馮
##馳
##馴
##駁
##駄
##駅
##駆
##駐
##駒
##駕
##駛
##駝
##駭
##駱
##駿
##騁
##騎
##騏
##験
##騙
##騨
##騰
##騷
##驀
##驅
##驊
##驍
##驒
##驕
##驗
##驚
##驛
##驟
##驢
##驥
##马
##驭
##驮
##驯
##驰
##驱
##驳
##驴
##驶
##驷
##驸
##驹
##驻
##驼
##驾
##驿
##骁
##骂
##骄
##骅
##骆
##骇
##骈
##骊
##骋
##验
##骏
##骐
##骑
##骗
##骚
##骛
##骜
##骞
##骠
##骡
##骤
##骥
##骧
##骨
##骯
##骰
##骶
##骷
##骸
##骼
##髂
##髅
##髋
##髏
##髒
##髓
##體
##髖
##高
##髦
##髪
##髮
##髯
##髻
##鬃
##鬆
##鬍
##鬓
##鬚
##鬟
##鬢
##鬣
##鬥
##鬧
##鬱
##鬼
##魁
##魂
##魄
##魅
##魇
##魍
##魏
##魔
##魘
##魚
##魯
##魷
##鮑
##鮨
##鮪
##鮭
##鮮
##鯉
##鯊
##鯖
##鯛
##鯨
##鯰
##鯽
##鰍
##鰓
##鰭
##鰲
##鰻
##鰾
##鱈
##鱉
##鱔
##鱗
##鱷
##鱸
##鱼
##鱿
##鲁
##鲈
##鲍
##鲑
##鲛
##鲜
##鲟
##鲢
##鲤
##鲨
##鲫
##鲱
##鲲
##鲶
##鲷
##鲸
##鳃
##鳄
##鳅
##鳌
##鳍
##鳕
##鳖
##鳗
##鳝
##鳞
##鳥
##鳩
##鳳
##鳴
##鳶
##鴉
##鴕
##鴛
##鴦
##鴨
##鴻
##鴿
##鵑
##鵜
##鵝
##鵡
##鵬
##鵰
##鵲
##鶘
##鶩
##鶯
##鶴
##鷗
##鷲
##鷹
##鷺
##鸚
##鸞
##鸟
##鸠
##鸡
##鸢
##鸣
##鸥
##鸦
##鸨
##鸪
##鸭
##鸯
##鸳
##鸵
##鸽
##鸾
##鸿
##鹂
##鹃
##鹄
##鹅
##鹈
##鹉
##鹊
##鹌
##鹏
##鹑
##鹕
##鹘
##鹜
##鹞
##鹤
##鹦
##鹧
##鹫
##鹭
##鹰
##鹳
##鹵
##鹹
##鹼
##鹽
##鹿
##麂
##麋
##麒
##麓
##麗
##麝
##麟
##麥
##麦
##麩
##麴
##麵
##麸
##麺
##麻
##麼
##麽
##麾
##黃
##黄
##黍
##黎
##黏
##黑
##黒
##黔
##默
##黛
##黜
##黝
##點
##黠
##黨
##黯
##黴
##鼋
##鼎
##鼐
##鼓
##鼠
##鼬
##鼹
##鼻
##鼾
##齁
##齊
##齋
##齐
##齒
##齡
##齢
##齣
##齦
##齿
##龄
##龅
##龈
##龊
##龋
##龌
##龍
##龐
##龔
##龕
##龙
##龚
##龛
##龜
##龟
##︰
##︱
##︶
##︿
##﹁
##﹂
##﹍
##﹏
##﹐
##﹑
##﹒
##﹔
##﹕
##﹖
##﹗
##﹙
##﹚
##﹝
##﹞
##﹡
##﹣
##！
##＂
##＃
##＄
##％
##＆
##＇
##（
##）
##＊
##，
##－
##．
##／
##：
##；
##＜
##？
##＠
##［
##＼
##］
##＾
##＿
##｀
##ｆ
##ｈ
##ｊ
##ｕ
##ｗ
##ｚ
##｛
##｝
##｡
##｢
##｣
##､
##･
##ｯ
##ｰ
##ｲ
##ｸ
##ｼ
##ｽ
##ﾄ
##ﾉ
##ﾌ
##ﾗ
##ﾙ
##ﾝ
##ﾞ
##ﾟ
##￣
##￥
##👍
##🔥
##😂
##😎
和逢堯
突厥
默啜
堅昆
唐
胡
楊我支
逢堯
京師
夷氛聞記
萇楚齋隨筆
左傳
傳
五筆
日知録
劉文莊公佚稿
雜感
李文忠公年譜
四種
新世説寵禮
曾集
日記
清史稿
春明夢録
劬堂日記
異辭録
援韓野記
所見異辭録
所傳聞異辭録
所聞異辭録
十七史説
通鑑箚記
續歷代年表
中國叢書綜録
説文諧聲
説文切韻
説文類聚
尚書傳箋
禮記注疏
元史會注
善齋吉金録
小校經閣金文拓本
清史
實録
乾隆英使覲見記
桃花聖解盦日記
求闕齋日記
詩
湘軍志
拜經文集爲妾服緦議
易象
三國演義
漢書韓信傳
十三經
廿四史
九通
佩文韻府
淵鑑類函
全唐詩
文
詩經
四書
朋僚函稿
毛詩
庸菴筆記
説文
使之主祭而百神享之
反復之而不聽則易位
知新報
越縵堂日記
禹貢錐
尚書古文疏證
詩毛傳疏
左通補釋
左傳賈服注輯述
駢雅
説文佚字
紀載類篇
野獲編
明季北略
明季南略
小腆紀年
金石史
石墨鐫華
道古堂全集
味經堂遺書
焦氏叢書
蛾術堂全集
景紫堂叢書
搢紳録
會典
唐宋詩醇
斯文精粹
御選唐詩
校邠廬抗議
中東戰紀本末
瓦德西日記
史記
漢書
爻山詩話
博古圖
書契原指
恩遇紀畧
讀史札記
鮚埼亭集
南略
注疏
經籍纂詁
皇清經解
方輿紀要
史學叢書
瀛寰志略
續編
四洲志
海國圖志
夢蕉亭雜記
全史
三通
集
拜經文集
妾服議
禮
春秋
左傳補注自序
抗議
時務報
變法通議
周禮注疏
吴梅村集
戴東原集
春秋經傳集解
補注
地名考略
地理考實
南江札記
經義述聞
規過持平
請歸政之後外省密摺廷臣封奏仍書皇太后聖鑒懇恩披覽然後施行
獄中雜記
鄧鐵香集
使西紀程
申報
天瘦閣詩
清宫二年記
四庫全書
四庫
浙東籌防紀畧
明通鑑
眼鏡詩
蕉窗隨筆
五經
必也正名乎
古之人修其天爵而人爵從之
齊民四術
論語吾日三省
庸庵筆記
忠誠奏議
五代史
宦者傳
五代史高行周傳
翟氏宗譜
困學紀聞
嘉穀堂集
清文獻通考
舊典備徵
弇州别集
歸田瑣記
壽鑫齋叢記
自序
丹鉛璅録
經籍屬辭纂例
詩學駢枝
常談討原
廣四八目
叢記
皇清人物考略
紀年五表
安樂康平室隨筆
清儒學案
隨筆
光緒朝東華録
皇朝謚法表
皇朝通志
八旗通志
壽鑫齋叢記總目
泉志
泉志補考
莊子繕性篇
後漢書班固傳
復友人論文書
商頌
文獻通考
宋史
明史
皇朝文獻通考封建考
東華録
述而不作，信而好古
主忠信
歷代賦彙
佩文齋詠物詩選
歷代題畫詩類
歷代詩餘
佩文齋書畫譜
御批通鑑綱目
佩文齋廣羣芳譜
全金詩
歷代紀事年表
康熙字典
太平御覽
册府元龜
太平廣記
文苑英華
天禄琳琅
石渠寶笈
西清古鑑
周易折中
書經傳説彙纂
詩經傳説彙纂
春秋傳説彙纂
周官義疏
儀禮義疏
禮記義疏
律吕正義
西域同文志
清文鑑
音韻闡微
御批通鑑輯覽
續通典
續通志
續文獻通考
大清一統志
西域圖志
日下舊聞考
皇朝通典
皇朝文獻通考
大清會典圖説事例
大清通禮
皇朝禮器圖式
四庫全書總目提要
廣羣芳譜
性理精義
授時通考
醫宗金鑑
數理精藴
歷象考成
儀象考成
協紀辨方書
分類字錦
子史精華
駢字類編
皇清文穎
全唐文
題畫詩類
古文淵鑒
唐詩
宋詩
金詩
元詩
明詩
唐宋文醇
陽關
經義考
傳經表
通經表
國朝漢學師承記
經師經義目録
玉函山房叢書
五禮通考
經傳釋詞
小學考
説文通檢
歷代帝王年表
年表
續資治通鑑
碑傳集
先正事略
耆獻類徵
史姓韻編
帝王廟諡年諱譜
避諱録
歷代統紀表
紀元通考
紀元編
長術輯要
疑年録
續疑年録
補疑年録
三續疑年録
歷代史表
晉兵志
宋書刑法志
食貨志
三國疆域志
東晉疆域志
十六國疆域志
梁疆域志
元史氏族志
後漢藝文志
三國藝文志
遼金元三史藝文志
元史藝文志
廿一史四譜
封爵譜
諡法譜
歷代地理沿革表
歷代地理志韻編今釋
皇朝輿地韻編
皇朝藩部要略
大清中外壹統輿圖
古今僞書考
金石萃編
金石續編
金石粹編續
寰宇訪碑録
補寰宇訪碑録
金石學録
金石學録補
宋元學案
明儒學案
國朝宋學淵源記
國朝學案小識
疇人傳
續疇人傳
疇人傳三編
全上古秦漢三國六朝先唐文
唐文拾遺
唐文續拾
全五代詩
宋詩鈔
宋詩紀事
宋百家詩存
宋詩紀事補遺
金文最
元詩選
癸集
明文海
明詩綜
湖海文傳
國朝文録
國朝詩别裁集
湖海詩傳
詩人徵略
七發
文選
七激
七興
七依
七款
七説
七蠲
七辯
七舉
七厲
七設
七釋
七喻
七啓
七訓
七華
七誨
七徵
七羡
七命
七謨
七林
七歡
七繹
賓僚七要
七勵
七契
七召
七誘
虚受堂文集
文恪神道碑
司馬文正集
浮沚集
隋書
韻編
明史何孟春傳
松喬詩鈔
存素堂詩集
嘉慶辛未歲題朱松喬同年飲酒圖詩
絶妙好詞
詞旨
洪範
居易録
進士題名碑録
中樞政考
詩醇
文醇
四庫總目文醇提要
合璧事類
自訂頤壽老人年譜
雲溪雜詠詩
龍龕手鑑
四庫書目
正誼齋叢書
淮南子
吕氏春秋
選
論語
西都賦
後漢書
孟子
吕氏春秋似順論分職篇
淮南子道應訓
吕氏春秋恃君覽知分篇
俶真訓
本經訓
諡略
封建考
皇朝通志諡略
漢軍名臣傳
四庫全書總目
學庸切己録
程山文集
西崑發微
圍爐詩話
閩遊集
全城志
重遊草
小隱吟草
禮經蠡測
禮記小見
歷代塘志
元之詩稿
讀書堂集
中心醉詞
鹿巖老人集
花事董狐
游屐詩草
三國志注
世説新語注
水經注
文選注
御覽
廣記
史辨
藕塘詩存
夜雨對牀集
歷試草
北遊草
詩餘
景山樓詩集
草木鳥獸典要
昆蟲鱗介典要
雜物摘要
附草
可與詩選
小滄州詩集
金臺集
鴛湖集
章安集
四書補講
集秀軒文稿
朱氏宗譜
江峯詩文集
灑亭詩選
季子小品
翰沙詩鈔
懷白詩草
小山詩鈔
春山詩存
外編
春山古文鈔
倚雲軒詩草
河汾旅話
詩緒輯雅
易水村集
驢背集
嵕南集
鼓缶集
眉州詩鈔
怡谷詩鈔
健初詩鈔
文鈔
真珠船
復惠堂稿
小窗閒筆
韻玉軒詩稿
莪亭小草
忘憂草
玉溪文集
詩集
經訓
秦溪山人詩稿
玉軒吟稿
漱香集
畫蘭室遺稿
蘭韞樓詩稿
寒香室存稿
胥溪朱氏閫範録
倚雲樓遺草
小蓮花室詩詞
韻紅軒詩鈔
文會堂詩鈔
正氣集
梅癡集
檗亭集
長白閒吟草
曲臺約旨
筆讀齋初問
重綸閣集
子于詩文集
傳心録
禮經詮解
蓬壺軒稿
紀瑞略編
守拙詩草
筆讀齋詩草
石笋山房集
鱗庵詩文集
汪千詩集
學案
武原竹枝詞
答閒吟稿
集唐詩
春樹詩存
蛩吟小草
應制元音
揀金録
叶韻考正
淡巴菰百詠
玉堂詩鈔
玉堂存草
標榭詩選
海上竹枝詞
達客人隨感録
醫腋
秋岳詩鈔
臺江詩鈔
東寧竹枝詞
桂巖詩卷
梅簃詩稿
朱氏藝文鈔
朱氏科名録
紀朱詩存
樂山詩集
沁園詩草
水月軒吟稿
過眼録
吟香館詩鈔
春華秋實之齋集
瀛海探驪集
鄂怡山館詩文集
從政觀法録
求聞過齋文集
求聞過齋詩集
識大録
識小録
妙吉祥室詩鈔
雜文
壽閒齋吟草
信疑隨筆
治經堂集
日次詩
稽古日鈔
春士小草
鏡湖珠宿山房駢體文稿
小隱軒詩存
稻香軒吟稿
留雲閣詩存
納涼草
仕甘紀略
鶴天鯨海焚餘稿
胥溪文會堂詩鈔
朱氏書畫録
文字辨正彙鈔
雪泥鴻爪録
念珊詩鈔
念珊詞鈔
屏山詩鈔
長樂長生居稿
存心齋稿
文會堂詩鈔補遺
文會堂詩續鈔
聽秋館呤稿
虞初續新志
佩韋齋外集
山居雜志
小幽蘭室詩話
佩韋齋吟稿
懷璞齋詞稿
國朝人物考略
國朝宰輔小傳
國朝百將圖傳
皇清紀年五表
通檢
三國人生卒年月表
三國志氏族表
三國志校勘記
歷代朔閏甲子考
古今人生日考
古今人書室諸名考
古今錢範
壽鑫齋錢話
錢目
壽鑫齋紀事稿
述盦詩草
觀古堂叢書
麗樓叢書
麗樓藏書圖卷
觀古堂藏書目録
石林集
碧琅玕館詩鈔
晚翠樓詩鈔
養疴隨筆
德馨堂古文
指馬樓詩鈔
有琴樓詩鈔
蘇臺雜詠
指馬樓綺語删賸
詠物詩
指馬樓詞鈔
襲芳樓詞
小于舟詩存
竹南精舍駢儷文稿
竹南精舍詩鈔
桂之樹軒雜録
夢鹿庵文稿
榆蔭山房吟草
傳心録續編
西園刻竹吟
閒吟集
性理管見
小學便蒙
勉存詩草
朱亞魁文稿
明人詩鈔
金華詩録
外集
别集
學詩津逮
唐詩律箋
古文清英
全唐詩鈔
陶説
笠亭詩鈔
毛詩説
説文翼
韻譜敘録
笠亭文集
四書心解
尚書微
修身要言
存心録
自怡悦詩草
怒翼草
禮記意評
公穀合編
拄笏齋經疑
愛君勤政曆
雄文彙辨
濟世選要良方
巡滇紀行集
遠人樓集
伭對軒集
皆山閣集
輿謳録
賡歌録
鹽邑藝文編
檇李詩繫
玉蝶庵稿
草聖彙辯
草訣百韻
及闕編
客星龕集
長思草
秋蛩音集
和陶集
竹隱集
疏放亭集
澤畔吟
蓬廬集
淚聲殘集
江淮紀遊集
江山幻夢集
清尊集
韓詩外傳
管子
陰符經
法言
尚書
莊子
陶淵明集
荀子
北齊書邢邵傳
周易注
周禮
周易
陸士衡集
笠澤叢書
隋書經籍志
小桐溪山館圖
西南夷莋都夷傳
樂德歌
兩般秋雨庵隨筆
别下齋叢書
涉聞梓舊
皇朝諡法考
皇朝諡法表
聊齋志異
陳雲棲
宜昌府志
醉翁亭記
陳書陸瑜傳
紅豆山齋藏書圖
松風管弦圖
少室山房筆叢
歸雲别集
皇清人物攷略
唐史記
續獻徵録
雜記
劉處士墓表
劉繼莊傳
一統志
記劉繼莊
劉繼莊先生年譜初稿
方志月刊
劉繼莊年譜初稿
家族考
遺詩
越縵堂讀書記
廣陽雜記
聽雨叢談
忠烈傳
滿洲氏族譜
滿洲姓氏通譜
池北偶談
易
明輿服志
禮經
通譜
八旗滿洲姓氏譜
禮經王制
輟耕録
孔子三朝記少間篇
史記儒林列傳
鄭語
漢書藝文志
周語
吕覽
史記趙世家
孔叢子執節篇
國語
晉語
藝文類聚
南史崔慧景傳
北史
祭祀志
恩倖
天禄識餘
題管仲井詩
詩緯
後山談叢
法苑珠林
魏書釋老志
理惑論
開元禮
唐六典官尚服
通典
道山新聞
晉書
南史
古樂府
吴志諸葛恪傳
别傳
老學菴筆記
墨莊漫録
減字木蘭花贈君猷家姬
夢溪筆談
揮麈餘話
宋史五行志
嶺外代答
楓牕小牘
湛淵静語
晉書五行志
宋書五行志
搜神記
開元占經
玉臺新詠
戲贈麗人
和湘東王名士悦傾城
和簡文帝率爾成詠
見只編
唐文德皇后遺履圖
釋名
洛神賦
史記貨殖傳
漢書地理志
魏都賦
楊妃襪銘
聞見近録
隋書禮儀志
北夢瑣言
北齊書王湝傳
元后傳
明史輿服志
南唐書
三事記略
喪大記
周官挈壺氏
肆師
王陽明年譜
南史王秀之傳
士喪禮
資暇集
宋書

叢
癸巳稿
麈史
宋人野類要
建炎朝野雜記
通志
紀恩詩
酌中志
毘陵集
梁溪漫志
鴻稱册
謚法
玉海
文王世子
禮記明堂位
内則
春官
蓉塘詩話
香祖筆記
周禮小司徒
春秋舊説
金圖經
八旗名臣傳
明世宗實録
正統實録
明工部志
舊京遺事
工部志
綏寇紀略
海蝤舡賦序
戰國策
朱子語類
舊唐書
范蔚宗傳
春秋傳
三國志吕虔傳
晉書王渾傳
大清會典
百官志
禮記郊特牲
祭義
禮經祭義
書
禮記
儀禮
公羊
穀梁
明季工部志
明史兵志
客燕雜記
客牕偶話
暇老齋筆記
羯鼓録
十駕齋養新録
觚不觚
六清圖
三國志韋曜傳
金史
長慶集
子虚賦
鄉黨
詩經魏風
汾沮洳
魯論鄉黨
漢書召信臣傳
别歷下二詩
觚不觚録
江鄰幾雜志
宋書謝晦傳
種松
絶域紀略
李後主蚌帖
檜風
玉藻
宋史輿服志
春深家
春秋左氏傳
琉球記事
易知録
霍光傳
黄霸傳
董賢傳
三國志張遼傳
詩衞風
正義内則
翠華巡幸
八旗孝義傳
檀弓
周禮天官小宰
史記平準書
漢書文帝紀
吴都賦
記
夢餘録
清異録
儒林傳
洪武自敍世德碑
石林燕語
演繁露
唐書
頻羅庵遺集
通禮
八旗姓氏譜
通志名臣傳
八旗姓氏族譜
明季水部備考
制科雜録
函山旅話
選舉志
邇語
喪服
五子之歌
湯誓
盤庚
西伯戡黎
微子
金縢
顧命
康王之誥
文王之命
六典
張昌齡傳
談叢
史
漢
東京夢華録
己未博學鴻詞録
紹興十八年題名碑
吏垣略牘
學餘堂集
在園雜
館選録
隨園隨筆
清秘述聞
槐廳載筆
存素堂集
續筆
三筆
題金樓子後詩序
四筆
容齋五筆
四庫全書提要
野客叢書
雲麓漫鈔
老學葊筆記
癸辛雜識
愛日齋叢鈔
引用書目
目録
欽賞匾額
方貞觀病中詩
同治癸酉推恩大員老親條
甲子各省教會勢力
林天齡憂勤帝室
林天齡夏同善均卒於學院
太湖趙氏四世翰林
武官殁於琉球考證
李太白酒樓聯語
論有庳
左宗棠催迫楊昌濬協濟餉
梅曾亮作詩宗旨
馬叙倫論文語
陳衍論曾國藩古文
提要
論唐宋八家文
古文關鍵
文章規範
學史不始於黄宗羲
伊雒淵源録
元儒考略
諸儒學案
評點書目
明歸有光評點史記
論讀左傳法
評點史記
經解入門
古書疑例
古書疑義舉例
書目答問
江藩古書疑例
華山碑考
西岳華山碑
唐程知節墓碑
尚書表注
左氏博議
觀古堂彙刻書目
絳雲樓書目補遺
樊南甲乙稿
樊南甲乙集
北户録
崔龜圖注北户録
結一廬書目
康刻古文辭類纂
論書賈四人
周馥論中日條約
大院君捉放原委
論光緒甲午開釁緣起
論中日戰事記載各書
劉坤一遺集
各省州縣交代册籍
左宗棠等逸事
犯人越獄案委過典史
桐城文學淵源考
桐城文學撰述考
續補彙刻書目
再續補
三續補
續補寰宇訪碑録
補録
再續録
校勘記
直介堂叢書
今列女傳
西域簡明名稱
新疆識略
存研樓文集
阮大鋮詠懷堂集
明龔詡不仕永樂
野古集
峭帆樓叢書
對樹書屋叢書
賀濤教人學文法
洛神賦十三行
馬慧裕集字詩
私論孟子
射鷹樓詩話
隨園詩話
直介堂叢刊初編
十筆
廿筆
唐宋八大家文鈔
元史
大明日歷
皇明寶訓
趙壎傳
唐宋六先生集
六先生文集
四庫提要
文章軌範
六經
白雲稿
庚子消夏記
江村消夏録
辛丑消夏記
消夏録
消夏集
樗園消夏録
吴門消夏記
袁文箋正
補註
隨園駢體文註
增訂袁文箋正
補校袁文箋正
重校袁文箋補
袁文箋註
有正味齋駢體文箋
卷首
有正味齋駢文註
江蘇詩徵
詞苑叢談
海山仙館叢書
春秋别典
釵頭鳳
過沈氏園
生查子
耆舊續聞
存研樓文集新疆識略
詩經韓奕
惜抱軒尺牘
明七子律詩選
覆校穆天子傳
補遺
校正古今人表
焦氏易林校略
五經歲徧齋校書三種
隨園詩話選腴
蠡莊詩話
家書自序
蘧廬草
史記自序
漢書叙傳
梁溪遺稿
帶經堂書目
書目
梁溪集
詩法萃編
雲南叢書
正聲集
玉篇
舅氏周君外傳
小三吾亭文甲集
百柱堂全集
樂餘静廉齋詩稿
囘頭想
囘頭再想
囘頭再想想
毛詩證讀
讀詩或問
四書偶談内編
續談内篇
溪山講授
漢學諧聲
説文補考
又考
三考
三台述異記
台州外書
字易
鶴泉文鈔初集
續集
景文堂詩
三春日課
鶴泉集杜
集李
集唐初編
集句叢鈔
溪西集
仙源詩餘
三台詩話
風雅遺聞
三台詩餘
續録
近録
太平縣志
閲微草堂筆記五種
國朝先正事略
日本乞師記
海外慟哭記
古學叢刊
三禮通釋
破夷志
平夷十六策
平賊論
軍務備採
西甌文集
小石渠閣詩集
海天琴思録
母德録
硯𦓯緒録
温經日記
小石渠閣經説
四維堂經問
羣經測篙記
周易邃讀
周易寡過
今文尚書考
六朝經説萃編
書傳逸禮考
詩經概
衞氏禮記集記補義
辨萬充宗周官辨非
説文二徐本亙證辨譌
陳氏禮書刊譌
春秋三傳大義
公羊禮説
爾雅邵郝説折衷
禮記章句辨正
儀禮意
天文闢妄
算學存真
算學中西法抉微
毛西河全集刊謬
十四史刊譌
西甌金石考
南詔德化碑註釋
達德録
聖學傳心録
三畏録
七閩藝文録
防淫種德録
參同契淺註
近代十二家文選
近代駢體文選
海内藏知詩録
春在堂全書録要
大潛山房詩鈔
曾文正公文集
咸豐以來功臣别傳
廬江道中
蒲褐山房詩話
唐詩神韻集
持雅堂集
羣雅集
小倉山房尺牘
元包
亢倉子
絳守居園池
四庫簡明目録標註
錦江書院紀略
菰中隨筆
小學
欽定周易折中
希有録
御纂八經
獨學廬全集
固哉草亭文集
味和堂詩集
精華録
午亭文編
堯峯文鈔
音學五書
板橋集
讀漢書隨筆
讀晉書隨筆
讀書敏求記
留真譜
宋元書影
寒雲書影
銕琴銅劍樓書影
嘉業堂書影
盋山書影
歲暮懷人詩
鍾秀葊算學十三種
測圓海鏡法筆
四元玉鑑省筆
海島算經緯筆
量倉通法校筆
算學奇題削筆
東洲草堂詩鈔
下第後上高侍御
小倉山房詩集
朱子年譜
參同契
周易參同契考異
崇百藥齋集
林太孺人年譜
鮑太夫人年譜
薛恭人年譜
黛韻駢文集
詞集
陳孝女遺集
小黛韻軒論詩詩
黛韻樓遺集
皕宋樓藏書源流考
媿生叢録
復齋漫録
呻吟語
觀光紀游
航滬日記
李習之文集
皇祖實録
翰村詩稿
文集
補集
餘集
評點史記例意
論文章體則
正集
了心宗傳
愧葊遺集
鴛鴦湖櫂歌
南村集
滄浪櫂歌
和鴛鴦湖櫂歌
續鴛鴦湖櫂歌
檇李叢書
芙蓉湖櫂歌
西湖櫂歌
鑑湖櫂歌
荻塘櫂歌
鞠隱案牘彙存
姑妄聽之
輶軒語
海上繁華夢初集
後集
續繁華夢初集
二集
三集
官場現形記
無逸
海蠡編
觸政
瓶花齋雜録
袁中郎集
明文雋
詩經圖史合考
毛詩解
五經纂註
史懷
合刊五家言
嶽歸堂集
譚友夏合集
譚子詩歸
詩歸
明詩歸
名媛詩歸
周文歸
宋文歸
評點左傳
四庫存目
畫墁賸稿
巴陵人物志
銕山文稿
記天南遯叟逸事
庸閒齋筆記
孝友傳
玉輝篇
崑山詩存
雲海樓文集
瀹雪山房詩鈔
延秋館詞
集腋草
玉輝編
崑山詩選
秋江詩集
櫻桃軒集
漁洋詩話
文木山房集
詩説
儒林外史
勉行堂文集
文木先生傳
中州文徵
記過齋文稿
閲微草堂筆記
通鑑答問
答問
讀史管見
讀通鑑論
永樂大典
文獻大成
藝風堂文集
簡明目録
紀文達公遺集
鏡烟堂十種
遜志齋集
附録
拾遺
燕子箋
詠懷堂詩集
外集甲部
乙部
甲
乙
賭棋山莊文集
抑快軒遺文稿跋
乘
檮杌
虞氏春秋
吴越春秋
魏晉春秋
十六國春秋
五代春秋
蜀國春秋
文苑春秋
後梁春秋
魯春秋
適園叢書
蜀檮杌
香乘
里乘
嘯亭雜録
翁氏家事略記
聲調譜
小石帆亭著録
癸巳類稿
癸巳存稿
復初齋詩集
董皇后行狀
琴志樓叢書
答林育萬書
經史通考
通鑑
五子
管
晏
韓非
淮南
漢魏六朝百三家
高青邱集
青邱集
談龍録
王文簡公七古平仄論
七古平仄論
遲鴻軒詩續棄
遲鴻軒文棄
文續棄
詩棄
詩續棄
柏堂集次編
遡園語商
遡園全集
河南驛記
吴全節碑
竹初詩鈔
詩話
竹初文鈔
石洲詩話
杜詩附記
青苔館詩鈔
蔗塘詩集
蓮坡詩話
絶妙好詞箋
銅鼓書堂遺稿
詞話
濼源問答
暨陽答問
臨川答問
好雲樓全集
無邪堂答問
起鳳書院答問
經史答問
然後知齋答問
潛研堂答問
枕葄齋易經問答
書經問答
詩經問答
禮記問答
春秋問答
南園答問
數馬堂答問
鍾山札記
龍城札記
合肥學舍札記
靈壽縣志
江村山人未定稿
續稿
閏餘稿
學詩闕疑
尚書辨疑
周禮質疑
史記紀疑
史漢異同是非
古氾城志
擬明代人物志
古今孝友傳補遺
續錦機
江村隨筆
傳家集
苔岑集初刻七種
味清堂詩鈔
補鈔
過婦家有悼
思兄樓文稿
别兄子春駷語
曾文正公家訓
天方典禮擇要解
時事新報
後書目序
懷麓堂詩話
李徵伯存稿
東行稿
十三經讀本
十三經提綱
十三經劄記
本義
易故訓訂賸
乾坤屯卦註疏
尚書約註
洪範大義
讀詩日録
大學中庸章句
禮記經註校證
大學大義
中庸大義
春秋左傳
春秋公羊傳
解詁
春秋穀梁傳
集解
集註
論語大義
孝經
集傳
孝經大義
爾雅
讀孟隨筆
孟子大義
公羊傳
穀梁傳
公
穀
鈎玄録
榕村全書
尚書典謨説
周官纂訓
經書源流歌訣
三禮儀制歌訣
歷代帝王歌訣
歷代姓系歌訣
四書節記
菜園遺書
壁經梅書辨贋
經史雜記
莊子彼是天倪
李信侯文集
閩中理學淵源考
閩學志略
榕村譜録合考
清溪李氏世學考
道南講授
温陵學略
清源述志
儀禮纂輯録
文貞公年譜
李穆亭詩集
周禮述註
儀禮述註
禮記述註
離騷註
皋亭文編
李世瞻詩集
蓼野詩集
春秋大義考
春秋正月辨論
伏窗詩集
樂由
考工發明
黄庭二景互註
瀋餘詩集
臺灣私議
彰德人物志
趨庭録
批訂王尊巖集
崇雅堂文集
二李經説
諸經雜解
周官劄記
憶訓録
丙申録
性理説心篇
艮湖詩集
李宣三詩集
易説
詩經測義
周禮天官説
論語講蒙
經義畸説
天人賸談
待行詩集
四書述言
榕齋詩草
積齋文集
周易經義
朱子語類或問合纂
蠶書
訊閘約言
治河事宜
律詩四辨
使秦隨筆
使粤隨筆
郁齋詩集
易經參説
四書要
四書典彙
南賓録
筆輶初編
福建通志
孟子要略
佩文廣韻匯編
仿唐寫本説文解字木部箋異
題江南曾文正公祠百詠
藝舟雙楫
松軒隨筆
廣藝舟雙楫
書鏡
滄湄詩鈔
劄記
風懷二百韻
弢甫集
鎮海樓
曇雲閣詩集
蕭閒堂詩
無事爲福齋隨筆
隨園詩草
禪家公案頌
雲南圖書博物館一覽
蜀輶日記
皇華草
顔氏家訓註
抱經堂叢書
江陰藝文志
粟香室叢書
讀書一得
桑梓見聞録
中隱堂四六文
瞰江賦鈔
覺生詩鈔序
亭林遺書
蘇州府志藝文志
志
二十一史年表
十九陵圖志
萬歲山考
岱嶽記
北平古今記
建康古今記
營平二州史事
茀録
詩律蒙告
下學指南
當務書
經世編
官田始末考
日知餘録
南匯縣志
儒林
文苑
共和解
續共和解
與李廉衣書
道餘録
逃虚子集
姑蘇志
宋論
普法戰記
静志居詩話
永州新堂記
湘綺樓詩文集
鄒夫人挽詞
鄒夫人墓志
四書集註
綱目
湖北叢書
讀史大略
勸學篇
幼迂詩鈔
續詩鈔
鈍葊瑣録
日下記游
廣高士傳
詩經君子偕老
碩人
石雲山人全集
續
試帖
筠清館詩餘
詞選
詩選
奏議
筠清館金文
辛丑銷夏記
歷代名人年譜
吾學録初編
帖鏡
帖鑑
帖鏡自序
宋拓絳帖目録後序
故舊文存
湘山野録
通鑑長編
銕圍山叢話
聞見録
茶餘客話
潛邱劄記
古文辭類纂
答張文潛書
王魏公集
曲阜集
黄樓賦
海峯文集
送姚姬傳南歸序
四部叢刊
紀氏嘉言
綉餘集
滋蘭集
花樵倡和集
硯隱集
瑶草集
華林集
鴻遠樓所藏台州書目
藝文志
曹全
房玄齡
崔敬邕
崇古文訣
韓文論述
韓子文鈔
韓文故
李習之先生文讀
韓文一得
史記别鈔
歸文評點
十家宫詞
續十家宫詞
廣十家宫詞
天啓宫詞
遼宫詞
金宫詞
元宫詞
開元天寶宫詞
冬青館古宫詞
東周宫詞
棠湖詩稿
北宋宫詞
十國宫詞
五代宫詞
十六國宫詞
長安宫詞
清宫詞
崇禎宫詞
啓禎宫詞
歷代宫詞
全史宫詞
明宫詞
故宫詞
洪武宫詞
正德宫詞
嘉靖宫詞
周藩王宫詞
萬曆宫詞
光緒宫詞
種竹軒餘話
寄蝸殘贅
鈔報隨聞録
咄咄吟
三字經
廣三字經
增廣三字經
九九消寒圖
十國雜事詩
叙目
明宫雜詠
南唐雜事詩
前後蜀雜事詩
南宋雜事詩
嶺南雜事詩
瓊州雜事詩
金源雜事詩
西疆雜述詩
吉林雜事詩
首末
日本雜事詩
武林雜事詩
二臣傳
忠義録
緑畦晤言
上蔡語録
唐宋十大家文集
女教經傳通纂
朱子小學
立教
笄禮
喪禮
雲薖淡墨
新舊唐書合鈔
九經瀆蒙
唐詩金粉
增默齋詩
井魚聽編
歷代紀元歌
沈氏族譜
蠶桑樂府
水經註集釋訂譌
權齋老人筆記
吴興叢書
歷朝詩選
國朝文匯
藝風堂全集
甕牖餘談
讀書雜記
蟂磯夫人廟
兼濟堂集
國朝閨秀正始集
蘭閨寶録
列女傳
宫怨
灤京雜詠
春秋后妃本事詩
南宋宫闈雜詠
勝國宫闈詩
洪憲紀事詩
草窗韻語
史鑑節要便讀
十三經章句口訣
聖門諸賢述略
直省府名歌訣
廿三史評口訣
歷代國號總括歌
釀齋詩稿
章豈績陳其年駢體文補註
公孫龍子
寄思齋藏稿
公車見聞録
桃花泉棋譜
弈理指歸
子仙百局
畿輔通志
甯國府志
疆域表
輿地志
沿革表
武備志
選舉表
營造志
人物志
職官表
雜志
南野草堂筆記
洗冤録異證
經驗方歌訣
洗冤録
餘師録
前集
國朝詩别裁
寒瘦集
西游記
淮安府志
烏魯木齊雜詩
新疆紀勝詩
然脂集
序例
\U000f2cf4\U000f2cf4\U000f2cf4叢書
采鹿堂姜氏家集
龔安節公傳
懷舊雜記
静齋詩文稿
續梁溪詩鈔
梅崖居士續集
定葊詩集
軥録齋稿
諭兒書
畏廬三集
答大學堂校長蔡鶴卿太史書
因寄軒文集書梅伯言馬韋伯詩後
秋樹根齋詩集
困學紀聞翁註編目
詩註類纂
徐霞客游記
説文逸字
備考
小羅浮草堂文集
太史公年譜
墨緣彙觀
粤雅堂叢書
内自訟齋文鈔書安儀周事
樊榭山房詩集
厲樊榭詩註
石遺室詩話
樊榭詩註
小山倉房詩集註
年譜
曾文正公手札
胡文忠公手札
都邑師道興合邑人造釋迦象
常醜奴磚塔銘
前豫州司功參軍王有\U000f2cf4爲考妣造象龕銘
虢國公造象記
不空和尚碑
龍門二十品
國朝詩人徵略
二編
聽松廬詩話
松心日録
題潤州金山寺
聖哲畫象記
洪範政鑒
小學韻語
百家姓
千字文
高等國文讀本
古人論文大義
洪範論
癸辛雜識前集
鷓鴣天
渚山堂詩話
附
明史雜詠
渚山堂詞話
四存月刊
習齋語要
恕谷語要
顔李師承記
四存編
篋衍集
篋衍續集
在園雜志
援鶉堂詩集
八瓊室金石補正
三百甎硯譜
篆墨述詁
楚詞疑異釋證
吴氏筠清館金石記目
古今字表
姜鳳阿文集
檀
左
鶴林玉露
雙硯齋筆記
中説
進修録
江陰縣志
雲自在龕叢書
藕香零拾
順天府志
湖北通志
江蘇通志
常州詞録
遼文存
續碑傳集
文續集
辛壬稿
藏書記
續記
金石目
讀書記
南園記
閲古泉記
三國志
藏一話腴外編
惜抱軒文集廬江縣考
九九銷寒歌
銷寒歌
銷暑歌
蛩吟集
薑園集
復榮集
岳威信公詩集
武侯祠懷古
竹素園叢談
四時讀書樂
仙居縣志
一瓢集
女孝經
自進表
圖書館目録
求己録
不遠復齋見聞雜志
十七史商榷
修本堂全集
古諺箋
黄公度詩箋註
女範
口北三廳志
廣平府志
徵信録
南昌府志
崑新兩縣合志
柏堂集續編
承德府志
桂樹冬榮
黄庭
滄海遺珠
弟子記
南天痕
明季遺聞
南疆逸史
三史備言
明季綫
幸存録
甲乙事案
甲乙彙略
南渡紀事
三垣筆記
南渡紀略
南江藏史
聖安本紀
弘光實録
南渡録
南渡續集
南渡紀
行朝録
所知録
天南逸史
行在陽秋
存信編
思文大紀
隆武略
嶺表紀年
象郡紀事
劫灰録
南粤新書
粤事紀略
滇緬紀聞
滇緬日記
滇緬事略
粤事徵信編
青燐屑
史德威維揚殉節始末
潯江紀事
北使記
虔事始末
贛州乙丙紀略
真珠載
江變紀略
潯江藏本
乙丙事蹟
楚事紀略
木嘆記
蜀難叙略
吾徵録
徐徐集
蜀難始末
朱容藩亂蜀始末
武岡播遷始末
孫可望脅王始末
犯闕始末
安隆紀事
遺忠録
求埜録
也是録
可考録
莫言録
鏡信録
安隆事略
魯紀年
四明山寨記
舟山興廢記
海疆紀略
存疑集
浮海記
甲子紀略
海邦彙略
且存録
四明紀事
江東泣血録
閩海見聞紀略
明季野史目録
考功集
杜工部秋興八首偶論
秋興
登兗州城樓
秋興八首
獨學廬初稿
二稿
三稿
文存
書張尚書平定海寇事
王巡檢傳
小説日報
茶花女
黑奴籲天録
迦茵小傳
拿破崙本紀
利俾瑟戰血餘腥記
滑銕廬戰血餘腥記
漠外風光
虎牙餘息録
亞細亞日報
技擊餘談
金陵秋
巾幗陽秋
官場新現形記
冤海紀聞
冤海靈光
劫外緣
曇花劍膽録
伊索寓言
京華碧血録
畏廬瑣記
畏廬漫録
蠡叟叢談
興登堡成敗鑑
閩中新樂府
天妃廟傳奇
合浦珠傳奇
蜀鵑啼傳奇
畏廬文集
文三集
詩存
春覺齋論文
韓柳文研究法
歸震川史記評點發明大要
史記讀法
文章流别
南華淺説
左傳擷華
選評名家文集十五種
古文辭類纂評選上編
下編
左孟莊騷精華録
評選船山史論
國文讀本
小兒語述義
中學修身講義
遺民傳
公餘拾唾
宋史新編
四元玉鑑細草
樂府補題後集
拙廬詩稿
詞稿
青蕤葊文集
蟄葊類稿
蘿月軒詩稿
寄廬詩稿
繡春館詞鈔
大觀亭志
藏山閣集
亦若是齋隨筆
與姚孝廉姬傳書
東原年譜
答陳藹公論文書
答謝民師書
程幼博集序
巷伯
巧言
何人斯
鶴徵後録
緝雅堂詩話
關雎
葛覃
卷耳
白華
小弁
月滄文集
自訂年譜
初月樓古文緒論
永福縣志
三國志補註
八賢手札
許書轉註説例
説文經字考辨正
説文答問疏證補誼
説文經字正誼
合校方言
莊子集釋
泊然葊文集
十二梅花書屋詩集
瀞園賸稿
尺牘
曲禮
銕圍山叢談
西清詩話
北征紀實
千家姓文
姓氏急就篇
捫蝨新話
後海堂雜録
夢游清都記
荷亭辨論
松隱文集
青霞集
平淮西碑
唐文粹
上清儲祥觀碑
内自訟齋文鈔
鴛鴦牒
檀己叢書
丹麓雜著十種
看花述異記
黄府君墓表
柏梘山房文集黄焕華墓表
穆參軍集
江湖小集
童子鳴集
所見古書録
儀顧堂題跋考證
蕘圃藏書題識
刊書題識
敏求記
會昌一品集序
和靖集
渼陂集
歗雲文鈔初編
忠義傳
循吏
還山遺稿
居業録
井觀瑣言
静學文集
止谿文鈔
貢尚書玩齋先師祠堂碑記
玩齋集
變雅堂詩集
半緣葊絶句
寙櫎詩質
明史方技傳
老瓦盆齋雜鈔
弈律
妒律
昭代檀几叢書
李空雲女冠小傳
霜猨集駢文序
海虞詩苑
南堂詩鈔
輟鍛録
鄂州小集
香石詩話
嶽粤草堂詩話
杜詩偶評
李詩偶評
國風詩法隅舉
評點唐賢三昧集
嶺海樓詩集
婺源縣志
朱子世家
雪橋詩話初集
求恕齋叢書
武英殿聚珍版程式
咄咄録
陔南石經考
陔南山館詩話
花月痕
二論
䳨山樵隱詩鈔
蟄廬文略
重修宗譜序
復胡伯宜書
復友人書一
三上集
虞山叢刊
后山集
臨川集
震川集
依歸草
二刻
依歸集
香草齋詩集
香草齋詩鈔
香草居詩集
香草堂集
香草堂詩鈔
毗陵六逸詩鈔
四子詩録序
白頭吟
香屑集
碧玉壺纂杜詩鈔
湘鄉縣志
詞科掌録
鈍吟集
游仙詩
馮氏小集
懷舊集
雜録
獨學廬文存
歸文考異
震川年譜
震川詩註
魯頌
樂
周易集註
養年别墅圖
桂堂詩鈔
古宫詞
第一樓叢書
春在堂全書
助字辨略
古書疑義舉例補遺
國粹學報
國文學會叢刊
天馬山房叢書
古書疑義舉例三補
校録
古書疑義舉例札迻
札迻
古書疑義舉例補
東方雜志
唐鄂生太守貽厚樸花歌以報之
松江詩話
四庫全書薈要
宫史續編
松鄰叢書甲集
喬柯毓秀圖
六一詩話
浩然齋雅談
雅談
答王載言書
聞外孫大魁寄二女
虚槎集
謝王佺期寄藥
盟鷗溆筆談
十八家詩鈔
湖題䘳集
致袁爽秋觀察書
文選李註義疏
續玉臺新詠
冷廬雜識
露筋祠碑
漁洋山人精華録
過露筋祠
隨園筆記
露筋詞數考
飴山堂詩集
棄婦詞
新
捫腹齋詩鈔
中山詩話
錦瑟
彦周詩話
顧亭林遺書
與人論亭林遺書牋
熹宗諒陰記
昭夏遺聲
亭林詩譜
快雪堂集
朱子語録
三希堂法帖
三希堂記
快雪帖
中秋帖
伯遠帖
養吉齋叢録
二希堂文集
鉅文
古逸書
古文四象
古今體詩
張氏藏書十種
簞瓢樂
粥經
學易堂四筆
戲示小婢
松陵詩徵
沈氏詩録
恩福堂詩鈔
鈔詩
履園叢話
律數淵源
鍾律陳數
習苦齋畫絮
星象圖釋
籌算易知
重訂策算證訛
西洋籌算
增删女蒙拾誦
沈疴囈語
象數窺餘
術算簡存
文選詩賦參評
德風亭初集
繡紩餘箋
敬孚類稿
女士王德卿傳
菽園雜記
玉山名勝集
草堂雅集
漢上題襟集
玉山紀游
孽海花
春日行
芻言報
羣經平議
諸子平議
感舊集
吹萬閣詩文集
論詩絶句
遼史紀事本末
金史紀事本末
凌波閣藏書目録序
過虞姬墓次前人韵
尚書後案
蛾術編
西莊始存稿
聖武遠揚平定西陲頌
萬壽聖德頌
聖駕南巡頌
集五經語聖駕東巡謁陵賦
平定準噶爾賦
聖駕南巡賦
西域效順大閲禮成賦
古
今詩
謝橋集
賴古堂文集
印人傳
讀畫録
閩小記
字觸
書影
遺山集
論詩
張亨甫傳
金臺殘淚記
張亨甫全集
皇極元元集
奇奇集
廣廣事類賦
語録録萃
夢夢録
黄氏日鈔
鈔鈔録
休休吟
嘐嘐言
平平言
平平録
拳拳録
小柴桑喃喃録
勞勞語
南宋文録録
庸庸録
遥集集
幼幼集成
幼幼集
醫經萃録
醫醫偶録
神農本草經讀
醫經本本書
難經經釋
徐氏醫書六種
鏡鏡鈴癡
連筠簃叢書
屑屑集
存存草
文莫書屋詹詹言
昔昔吟
寶山縣志
喁喁詞
國朝詞綜續編
勞勞編
續彙刻書目
説文古籀補補
醫醫醫
草草草
新唐書藝文志
獸鬭亭亭
非非國語
反反離騷
重訂汪子遺書
汪子遺書
盾鼻餘瀋
元配周夫人墓志銘
國學萃編
江鄉漁話
春在堂雜文
瀛奎律髓
花草粹編
花間集
草堂詩餘
彙刊書目
蘇齋叢書
七言律詩鈔
蘇詩補註
元遺山年譜
詠物七律詩偶記
復初齋文集
集外詩
集外文
韻字辨同
論語附記
孟子附記
詩附記
禮記附記
畿輔叢書
焦山鼎銘考
三元詩集
廟堂碑考
金陵訪碑記
石鼓考
祕閣唱和集
小石帆亭詩續鈔
易附記
書附記
春秋附記
大戴禮附記
儀禮附記
周官禮附記
孝經附記
爾雅附記
韋柳詩話
古紅樓集
甌北詩話
贈答郝經伯常伯常之大父余少日從之學科舉
病中感寓贈徐威卿兼簡曹益甫高聖舉先生
采菊圖
高山雜詩
水雲集
詠宋宫人分嫁北匠
西崑酬唱集
邵武徐氏叢書
誦芬閣叢書
韞山堂文集
歲貢生鄉飲正賓黎君墓表
孫可之集
日譜
建德縣志
圖書集成
知不足齋叢書
麟角集
論學繩尺
畫絮
二百蘭亭齋古銅印存
張遷
兩罍軒彝器圖釋
曲園雜文續
羅景山軍門思痛録序
咸豐以來將帥别傳
鶡冠子
鷃林子
祕笈彙編
閩中閨秀詩話
二思堂叢書
君代歌
香蘇山館詩鈔
思益堂日札
\U000f2cf4\U000f2cf4報
御選古文淵鑒
御選唐宋文醇
名臣碑傳琬琰集
燕吴載筆
三餘贅筆
桑園寄子
小方壺齋輿地叢鈔
悦葊詩賸
國山碑考
拜經樓叢書
拜經樓藏書題跋記
愚谷藏書
愚谷文存
拜經樓詩集
萬花漁唱
尖陽叢筆
愚谷叢書
蔣説
肇論
魏子
南漘楛語
遺令
酈篇
三十二蘭亭詩存
木蘭
亳州志
南
論文臆説
元元棋經
吾吾類稿
退廬叢書
久久書
書畫跋跋
史記瑣瑣
前漢瑣瑣
後漢瑣瑣
三國瑣瑣
晉書瑣瑣
南史瑣瑣
北史瑣瑣
舊唐書瑣瑣
山草堂集外編
字學元元
廣廣文選
存存稿
存存續稿
留留青
正正楊
涌幢小品
古今醫案案
浙江藏書樓書目
將將紀
老老恆言
段氏説文訂訂
冤冤詞
説文疑疑
匏廬詩話
規規過
詩陸氏疏疏
南菁叢書
疑疑孟
痴學
九九淺説
桐城藝文志
讀書録録
昔昔春秋
石谿舫詩話
香蘇山館全集
齊州長清縣真相院釋迦舍利塔銘
説文本經答問
説文淺説
益雅堂叢書
補姚氏説文考異
内閣善本書目
説文商義
説文譌字
説文述許經義
慎思編
愈愚録
隸釋訂文
楚詞通釋解詁
屈廬詩集
深衣圖説補
錢氏經典文字考異
三十一家論語註輯
鄭徵君遺著
續古文辭類纂
新五代史
經史百家雜鈔
續補古文辭類纂
文章正宗
大晚報
金石存
李宗昉神道碑
王夫人墓志銘
鵝湖書院志
十三經集句史論
書經
春日
夕陽
國朝詩别裁續集
鄘風牆有茨
重思齋叢書
定峯文選
賜書堂詩稿
宛委山房詩詞賸稿
青箱室詩鈔
賜書堂詩集
霜紅龕筆記
㐆齋文集
學
庸
學庸章句
大學
章句
中庸
詞辨
介存齋論詞雜著
詩禮堂古文
教忠祠祭田記
蟠桃圖
北流縣志
地球韻言
度隴記
梅村詩集
吴梅村先生編年詩集
詩餘附箋
詩詞補鈔
太崑先哲遺書
續婦人集
清列朝后妃傳稿
遯堪外集
楚語
鹿皮子集
題建炎遺詔
寒食
丹棱文鈔
書鹿皮子集後
劉孟涂集
柏堂集
耆舊傳
京口耆舊傳
錦里耆舊傳
左傳快讀
竹素園叢話
劉文清公應制詩
習苦齋古文劉文清公詩集題跋
涉園墨萃
鑑古齋墨藪
恕谷後集
近思録
二二五五疏
財政四綱
中外交涉類要表
光緒通商綜覈表
中俄界約斠註
通商表
光緒通列表
通商綜覈續表
白雲草堂文鈔
詩鈔
樵隱詩話
唐宋八家詩鈔
昌黎詩鈔
河東詩鈔
廬陵詩鈔
老泉詩鈔
東坡詩鈔
欒城詩鈔
南豐詩鈔
半山詩鈔
元豐類稿
渠亭山人半部稿
或語
半部稿
潛川集
娱老集
閻愉世譜
三體唐詩
高文恪公四部稿
評點三體唐詩
義門讀書記
書儀
追昔游集
新唐書
揅經室集
論語解
父在觀其志
論語意原
寄思齋藏稿李教授允升論語證疑序
兩般秋雨葊隨筆
詆平居士集
讀韓記疑
讀歐記疑
舊德堂叢書
賀先生文集
退廬全集
審國病書
大盗竊國記
國聞備乘
戊戌履霜録
瑶天閣叢書
曉牕春語
蛾述集
蒙求
龍文鞭影
績學堂詩鈔
筆記
山陽縣志
天馬山房文存
甲寅復夏滌葊先生書
昭忠祠記
籜石齋詩集
嶠雅
海雪集箋
松垣集
雁門集
通鑑紀事本末箋註
通鑑紀事本末
隨園詩話補遺
香草箋
無題
頻羅菴遺集
宜興茗壺系
陽羡名陶録
茗壺圖録
宣和博古圖録
茗壺系
名陶録
文選理學權輿
文選註引用書目
榕園叢書
二金蜨堂尺牘
補訪碑録
報好音齋文稿
文稿
陰符經臆説
四白齋唱和集
崑山三家年譜
大學衍義
大學衍義補
大學衍義續
大學衍義輯要
衍義補輯要
文惠全書八種
蝯叟詩存
小匏菴詩話
郎潛紀聞三筆
虚一堂集
蠙廬詩鈔
春在堂詩集
政治官報
三家詩補遺
崇惠堂叢書
觀古堂彙刊書
三易集
嘉定四先生集
茶董補
相山集
天一閣碑目記
師友詩傳録
漁洋定論
古夫于亭詩問
詩問
師友
師友録
左氏傳
春秋左氏傳事類始末
左傳屬事
左傳紀事本末
凝齋先生遺集
史通
資治通鑑
廣西存書總目
手鏡
崇文書局書目
清談録
無錫金匱縣志
毛朱詩説
四書釋地
又續
三續
孟子生卒年月考
校正困學紀聞
眷西堂文集
日知録補正
閻氏碎金
藝文門
續朱子古文疑
喪服翼註
孔廟從祀末議
宋劉攽李燾馬端臨王應麟四家遺事
博湖掌故
桯史
盤亭小録
虢季子盤銘考
小姑山摩崖
散原精舍詩集
江上小姑山雜詩
四庫書
柳絮集
又續編
野航詩稿
恆言録
通俗編
陔餘叢考
直語補證
牙牌靈數
梅妃傳
粧樓記
欽定全唐詩
謝珍珠
題梅妃畫真
宋史質
亦川詩鈔
經郛
左海文集
上儀徵阮夫子請定經郛義例書
三傳
廣雅
小戴記
白虎通
漢書五行志
五經異義
毛傳
鄭箋
魯
韓
鄭志
箴膏肓
發墨守
起廢疾
尚書傳
左傳註
爾雅註
經典釋文
六藝
河岳英靈集
篋中集
國秀集
極元集
漁洋山人精華録訓纂
炊間巵語
司勳五種
讀史蒙拾
然燈紀聞
律詩定體
然脂集例
昭代叢書
耳學録
宋舊宫人集
容齋四筆
泰西著述考
西學書目表
東西學書録
竹崦葊書目
西士書目
東南晚報
廿四史通俗衍義
紅豆村人詩稿
悼韓姬
航海瑣記
銕畫譜
唐石經考異補證
泉志補正
吴郡金石志
武梁祠畫象考
古泉山館彝器圖録
古玉圖録考
集古官印考證
古泉山館金石目録
書跋
古泉山館詩集
金閶稿
練祁稿
楚游吟
歸田園居詩鈔
古泉山館金石文編
平津館金石萃編
歷朝東華録
曾文正公日記
世善堂書目
毛詩古音考
屈宋古音義
寄心集
五岳游草
兩粤游草
幽求子
陶廬雜著
紫泥日記
明范文忠公畫像宦蹟圖題詞
明五忠手蹟考存
黄忠端公明誠堂十四札疏證
題詞
陶樓文集
明舊文存
女誡
新聞報
墨譜
曾文正公奏議
吴先生尺牘
竹書紀年
逸周書
晏子春秋
越絶書
孔子家語
孔叢子
新語
新書
鹽銕論
新序
説苑
潛夫論
握奇經
六韜
孫子
吴子
司馬法
尉繚子
鄧析子
商子
韓子
黄帝素問
靈樞經
難經
太玄經
鬻子
墨子
子華子
尹文子
慎子
鬼谷子
白虎通義
獨斷
論衡
風俗通義
西京雜記
山海經
穆天子傳
老子
關尹子
列子
文子
楚詞
存目
學林
高郵王氏四種
丁亥詩鈔
漢志
廣雅碎金
古意
和孟郊古别離
校碑隨筆
高肅碑
和劉石庵冢宰董文敏所題蒲圻萬年寺歇心處扁
論書隨筆
船山遺書
龍源夜話
憶得
薑齋詩分體稿
薑齋詩編年稿
薑齋文集補遺
四書訓義
重刊船山遺書凡例
相宗絡索
夕堂永日八代詩選評
夕堂永日四唐詩選評
夕堂永日明詩選評
凡例
詩慰
國雅
廬山志
漸西村舍叢書
濟南雜詩
魯靈光
秋柳
九成宫醴泉銘
水流雲在館奏議
維摩詰所説經
不可思議解脱佛國品
論畫絶句
方息翁先生傳
李義山詩集箋註
莊
漢書辨證
世説考義
家塾恆言
韓昌黎詩集編年箋註
江關集
春及草堂詩鈔一集
四集
蘭叢詩話
北宋二體石經記
頤志齋叢書
石經考
石經
藥禪室隨筆
太乙舟文集
有不爲齋隨筆
送楊傑
過太湖石塘
高僧傳
硯北雜志
小時報
中興間氣集
李思訓碑
李秀殘碑
劉感墓志
劉元尚墓志
張安\U000f2cf4墓志
張詵夫人樊氏墓志
開國侯南陽張\U000f2cf4墓志銘
張源墓志
雲麾
雲麾碑
李思訓
大雲麾
李秀
小雲麾
張源
齊魯古印攈
續齊魯古印攈
散原精舍詩
蘇門六君子文粹
增註唐策
十先生奥論
歷代名賢確論
天馬山房文集
文微
昭忠祠碑
二林居集
二林
孟亭居士文稿
賦
經進詩
詩稿
玉谿生詩箋註
樊南文集詳註
箋註
蘇詩編年合註
貯雲居文稿
元豐九域志考證
樊川文集註
詩集註
玉堂嘉話
刻楮集
墨苑
圜中集
志益集
涉園墨萃十二種
再續補彙刊書目
西田穫早稻
閒居賦
西河合集
唐人試帖
唐七律選
花王閣賸稿
孫氏唐韻考
玉臺新詠考異
閲微草堂筆
快哉行
含經堂集
讀禮通考
憺園集
代言集
傳是樓書目
培林堂集
寧化縣志
思伯子堂詩集
十六長樂堂古器款識考
浣花拜石軒鏡銘集録
古器款識考
書目答目
鏡銘集録
宣和博古書
古鏡録
崇百藥齋\U000f2cf4集
銅僊傳
蜕學翁遺集
唐本書目
致翼堂文集
涵通樓文集
涵通樓師友文鈔
附詞
金史詳校
金源劄記
元遺山詩集註
恭和御製詩
修書略例
西嶽華山碑
文選樓叢書
鷄窗叢話
敬孚尺牘
明史稿
實事求是齋文集
萬斯同羣書辨疑序
石匱藏書
明史紀事本末
今水學略例
格致鏡原
竟山樂録
悔菴學文
五代史記纂誤補
後漢書訓纂
後漢書補註
郎潛紀聞
藩部要略
銅政考
日知録集釋
李申耆年譜
筠清館金文款識
積古齋鐘鼎款識
十三經校勘記
皇朝輿地略
恆星圖
皇朝輿地圖
三
寶稧軒詩存
安吴四種
説儲全書
國策
孫
吴
孟
荀
吕
古文苑
山堂考索
曹娥碑
題天津邵烈婦
易經通註
易經大全
本草衍義
十萬卷樓叢書
本草衍義補遺
古謡諺
千金方衍義
中庸衍義
内則衍義
孝經衍義
周易衍義
振綺堂書目
聖學入門書衍義
律吕新書衍義
算學書目
握奇衍義
明文在
尚書衍義
詩經衍義合參
小學衍義
人極衍義
羅山全集
孟子衍義
論語衍義
飛白録
時兆月報
通問報
綺窗餘事
香草箋偶箋
香草齋詩註
趨庭瑣語
退思軒試帖
味根山房全集
谷郎
爨寶子
中嶽廟
昇仙太子碑
小倦游閣法帖
春秋三傳
春秋經筌
夢樓詩集
伐檀集
春雨堂叢書
棗花書屋詩集
吉金樂石山房詩集
讀書解義
吉金樂山房文集
四溟山人集
艮齋詩集
病中自述
水經
水經廣註
獨學廬文稿
香蘇山館詩集
天岳山館文鈔
欽定皇輿表
柏堂集外編
復胡伯良書
正楊
丹鉛四録
管城碩記
受宜堂宦游筆記
二十二史文鈔
溆浦三賢詩文鈔
緑猗軒詩文鈔
受葊詩文鈔
涵古樓詩文鈔
五丁峽
鷄頭關
小琉球漫志
泛海紀程
海東紀勝
瀛涯漁唱
海東賸語
海東月令
下淡水社寄語
伯牙琴
麗則遺音
洹詞
山海漫談
學古緒言
習齋記餘
道貴堂類稿
耄餘殘瀋
寄廬雜記
棣懷堂隨筆
贅言録
詩半
隆平集
木鐘集
頑潭詩話
斆園詩談
南野堂筆記
學史
皇華紀聞
隴蜀餘聞
分甘餘話
彙編
諧聲别部
分類詩話
漢書律曆志
王莽傳
念堂詩鈔
致吴南屏書
致馬通伯學部書
名氏目録
撰述考
漢學商兑
河南集
羣芳譜
訓子
駢雅訓纂
識語
習苦齋古文
房師魏笛生先生七十壽序
易貫
别雅輯證
覃雅
禮因
文法一揆
廣腋
天部類腋
國朝四十七科同館詩賦題解
天部二十九聞
帳中編略
類海探源
學海堂志
修本堂叢書
生香花藴合集
尹文端公詩集
咏懷
晚學齋文集
毛生甫墓志銘
元書后妃公主列傳後跋
休復居文集
元書
與李申耆書
考辨
后妃
公主
羣學肄言
羣學奇侅
丁卯集
續補
集外遺詩
丁卯
癸辛
古文詞略
古文
詩歌
古詩選
國朝中州文徵
容齋集
容齋千首詩
野香亭集
春秋地名考略
字林考逸
輯補世本
史目表
玉函山房輯佚書
行水金鑑
春在堂詩編
沈贅翁百歲
讀史方輿紀要
形勢紀要
此木軒全集
高僧傳叙
敕謚禪師述
七夕
時報
圖畫週刊
建康實録
復李郁齋書
與楊默堂書
致楊墨堂書
説文繫傳
校刊記
祁氏説文
大觀樓帖
昭昧詹言
歸評史記
大意尊聞
考槃集
秋錦山房集
隨園全集
紅豆村人詩集
諸子詹詹録
諸子彙函
勸刻書説
傳硯齋叢書
聚學軒叢書
玉海堂叢書
貴池先哲遺書
對雨樓叢書
烟畫東堂叢書
常州先哲遺書
槐廬叢書
積學軒叢書
鄦齋叢書
隨葊叢書
懷豳雜俎
閨閣詞
集虚草堂叢書
土官底簿
阿那曲
抑快軒文集乙編
丙編
丁編
抑快軒文集
洪範五論四曰攸好德論
李習之文讀序
論語私記序
金厦二島志序
光澤縣志序
録何氏祀事學田二志序
醫方集解校刊序
答某友書
何君質軒象贊
何母黄太恭人象贊
魁星贊
甚德堂文集序
退葊文集序
榕園文鈔序
碧雲山房詩草序
憶雲詞序
鼇峯文藪序
龔節婦傳
何淑蘋傳
募修玉龍宫引
鄭伯伐許
季平子立臧會
惜抱軒尺牘序
昭明文選
獨見曉齋叢書
辛白論文
文性
文情
文才
文學
文識
文德
文時
修詞九論
布置
貫串
簡潔
明顯
鍛鍊
氣勢
美麗
變化
音節
古文約選
論文偶記
援鶉堂筆記
古文緒論
文翼
論文集要
濂亭文集
文學研究法
家訓
編年昌黎詩註
續岡州遺稿
題黄道娘墓
亭林詩集
悼亡
國朝悼亡詩輯
亦有生齋集
五代史註
蘇州府志
方齋補莊
連理山人詩鈔
世儀堂集
善卷堂四六註釋
赤嵌集
易象數鈎深圖
公餘筆記
泰山道里記
皇朝通考經籍志
歲暮懷人絶句
無錫金匱縣志文苑傳
惠山下鄒綺過訪
列女傳補註
列仙傳校正
詩經小記
夢書
閨中文字
和鳴集
祭財神詩
郝氏遺書
曬書堂集
曬書堂詩鈔
詠書帶草
雁來紅
見樊山續集
詩韻
己亥雜詩
鴻烈
吉金款識
左氏
筆
宿焦山大半在烟雨中
醫學世界
藥物學綱要序
西醫論略
内科新説
瀛濡雜志
西醫略論
婦嬰新説
撰桐城文學淵源考
孔傳
孔疏
史記夏本紀
賓萌集
丹朱商均論
萬卷堂書目
觀古堂書目\U000f2cf4種
内府經廠書目
福建書目
河東書目
江西書目
京書目
通鑑魏紀
長洲彭氏家集
曾文正公雜著
共墨齋藏古鈢印譜
盤阿草堂詞
覺生詩鈔
感舊集序
本朝詩神韻
宋文鑑
惟幾惟康其弼直
自靖人自獻于先王
曝書亭集
素修堂詩集
王文簡公論次書目考
演山詞
蝶戀花
廣陵詩事
補編
虚受堂書札
香奩集
復古詩集
教坊記
青泥蓮花記
板橋雜記
宋元舊本書經眼録
番人六大洲地球圖説
汲葊詩文存
養知書屋文集
自倫敦致李文忠公書
持静齋書目
番人地球圖説
浣月山房詩集
悔生詩稿
四部稿
濟南集
海峯詩集
劉中丞奏議
求闕齋日記類鈔
鳴原堂論文
文選序
周易文言
文言説
北堂書鈔
敬孚雜鈔
三國吴志
十國春秋
漢書疏證
宋潛虚先生文集
庚辰會試墨卷序
南山集
宋潛虚先生年譜
宋潛虚先生集
恩福堂筆記
劉文清公詩集
應制詩
十二石山齋詩話
晶報
憐渠録序
憐渠録
漱石主人遺稿
明懿安皇后外傳
韌叟自撰年譜跋語
海外文編
漢魏百三家集
蔡中郎集
薦董卓表
竹枝詞
老學庵筆記
聰訓齋語
臨晉縣志
游俠傳
花王閣剩稿
哭董天士
閲微草堂筆記灤陽消夏録
十國世年
建文遜國之際月表
考異
黄文貞公忠節紀略
霞外攟屑
香雪崦叢書丙集
樵隱昔寱
香雪崦叢書丁集
晞髮集
晞髮遺集
遺集補
天地間集
西臺慟哭記註
冬青引註
宋學士文集
唐補傳
南史補帝紀贊
楚辭芳草圖譜
宋鐃歌
鼓吹曲
騎吹曲
睦州山水人物古蹟記
浦陽先民傳
東坡夜雨句圖
浙東西游録
秦楚之際月表
獨行傳
左氏傳續辨
歷代詩譜
六研齋筆記
許劍録
白雨齋詞話
家書
詞鈔
人海記
尚書表註
通志堂經解
金華叢書
吴先生文集
桐城程忠烈公學啓神道碑銘
國史館列傳
驛舍探幽録
張侍郎遣戍叢談
烏程縣志
近峯聞略
勝朝彤史拾遺記
宋史王益柔傳
韌叟自訂年譜
孟子集註考證
曾文正公全集
要略
性善
東齋文鈔
論語要略
學之大綱
道德仁義
孝弟忠信
詩書禮樂
言行出處
爲政之道
聖學指歸
石渠餘記
餘録
伊江筆録上編
廣雅書局叢書
春明雜録
崶溪雜録
搢紳
文獻徵存録
白田草堂存稿
朱子文集註
朱子語録註
讀經記疑
讀史記疑
偶閲雜鈔
讀書記疑
語録
朱子聖學考略
止泉文集
朱子誨人編
三學辨
先儒闢佛考
陽明晚年定論辨
吏治集覽
師表集覽
選讀朱子文集目録
朱子語類選目
朱子分類文選
隨山書屋詩存
紉蘭室詩鈔
端毅公集
南溪筆録
羣賢詩話前集
玩易意見
石渠意見
補闕
補缺
昭代名人尺牘手蹟
莊子齊物論
釋文
養自然齋詩話
重修滕王閣
吴融集
小徑
海天琴思續録
南墅漫鈔
大傳洪範
史記宋世家
大傳
漢于定國傳
因寄軒文集補遺
復陸祁孫書
皇朝經世文編
經世文編
樊榭山房手稿
妝域聯句
碧溪草堂詩稿
三事忠告
牧民忠告
風憲忠告
廟堂忠告
爲政忠告
詞話叢書
升葊詞品
西河詞話
詞統源流
國朝名人著述叢編
欽定歷代詞話
欽定歷代詩餘
雨村詞話
蕙風詞話
香海棠館詞話
惜陰堂叢書
銅鼓書堂詞話
賭棋山莊詞話
問花樓詞話
陸氏傳家集
卧廬詞話
周晉琦遺著三種
本事詞
初白葊詞綜偶評
初白葊詩評
國朝詞綜偶評
蓮子居詞話
復堂詞話
心齋叢刊第一集
芬陀利室詞話
香研居詞麈
嘯園叢書
聽秋聲館詞話
左葊詞話
靈芬館詞話
靈芬館詩話
詞林紀事
恤簃詞話
野鶴零墨
古今詞論
詞學全書
樂志簃詞話
樂志簃全集
寄漁詞話
詞餘叢話
坦園叢稿
奏稿
譯署函稿
蠶池\U000f2cf4教堂函稿
海軍函稿
電稿
李肅毅奏議
聖學宗傳
理學宗傳
二程學案
聖教序
春在堂全集
四書評本
印雪軒文鈔
讀三國志隨筆
漁洋全集
漁洋定論續録
帶經堂詩話
劉太史集
劉給事集
東坡大全集
五峯集
東萊集
鶴山全集
銕葊集
經藝模範
二劉全集
永嘉叢書
三蘇全集
小石山房叢書
汲古閣校刊書目
刻板存亡考
香國
隱湖題跋
明四秀集
明詩紀事
明方輿勝覽録
明詞苑英華
海虞古文苑
海虞今文苑
虞鄉雜記
昔友詩存
救荒四説
隱湖小識
隱湖唱和詩
永思録
宗譜
先賢隱湖遺稿
浩然齋視聽鈔
皇朝謚法考
瓊臺會稿
水東日記
菉竹堂書目
未刻稿
強恕齋文集
方輿輯要
政典
禮典
讀書筆録
漢書古字考
喻言
澹園小品
古文鈔
古詩鈔
今體詩鈔
唐人絶句
強恕齋日記
批牘
外部函稿
三省電稿彙存
錦鱗集
澹園尺牘
劉文莊公遺書
殉節記
歎息行
河北民
荆溪集
詩經彼都人士
西康建省記
茶餘話異
合肥李氏三世遺集
追悼侍姬冬梅
感事述懷呈滌生師用何廉舫除夕韻同次青仙屏之作
震川文集
自述
曲園雜纂
俞樓雜纂
春秋繁露註
繁露
餐菊齋皖游弈萃
兼山堂棊譜
陳方七局
子仙百局序
𢴲翠草堂弈譜
白嶽葊詩話
君子不以言舉人
日省月試
山徑之蹊間
石門文字禪
大藏
畫禪
古今禪藻集
禪藻
文字禪
燕居瑣語
題息夫人廟
詩觀
田間文集
與黎博葊先生書
與張敦復學士書
孫静紫游詩題詞
重刊茗柯文編序
松崖筆記
夢餘贅筆
養晦堂文集
復吴南屏學博書
遵義唐公事狀
離騷
天問
悔生文集
北里志
苕溪漁隱叢話
建炎以來繫年要録
上綦内翰崇禮啓
訂訛類編
石經考異
榕城詩話
諸史然疑
餘話
文選課虚
漢書蒙拾
後漢書蒙拾
續方言
道古堂詩集
鴻詞所業
補晉書傳贊
經史質疑
史記考異
禮例
續禮記集説
兩浙經籍志
續經籍考
義訛
事訛
字訛
句訛
書訛
人訛
天文訛
地理訛
歲訛
世代訛
鬼神訛
禮制訛
稱名訛
服食訛
動物訛
植物訛
雜物訛
柿葉軒筆記
唐宋六家文集
唐前傳
公言集
東莞縣志
孝經説
東莞五忠傳
勝朝東莞遺民録
于忠肅公奏議
八千卷樓書目
于忠肅公祠墓録
祠墓録
浦城縣志
筆精
容齋隨筆
夷堅
容齋伍筆，共柒拾肆卷，收入noun_bookname提要
伍筆
蘿藦亭札記
樂餘静廉齋文集
詩後集
詩三集
清風室文鈔
西行豔異記
康輶紀行
劉蕺山集
泰西采風記
三唐詩品
問琴閣文録
詩録
皇朝三通
戲鴻堂叢帖
鄉會試硃卷
鞠洲叢刊
攀古樓鐘鼎
滂喜齋藏書記
東陵日記
西陵日記
秦輶日記
滂喜齋叢書
功順堂叢書
龍城録
范村菊譜
晚香堂
龍眠叢書
龍眠
叢書
心學宗
昌谷集註
空明閣詞
田間集
歸雅堂詩集
杏園賸簡
南澗詞選
摩蒼集
大易旁通
片舫齋詩集
補義
刊誤
畚塘芻論
漢學商兑贅言
孔子集語
書舶庸談
送東陽馬生序
淳化帖
停雲館
閣帖
李傅相七秩壽言
熙朝宰輔録
北江詩話
揅經室\U000f2cf4集
揚州隋文選樓銘
輿地紀勝
鄂州集
皇朝掌政
聖武記
中西紀事
正蒙必讀
元和唯亭志
天香樓隨筆
首陽辨
草茅一得
左氏春秋
戴存莊權厝志
禮記檀弓
愚園詩話
東觀漢記
捌家後漢書補逸
藏書紀事詩補遺
湘綺樓文集
孝聖憲皇后傳
囘妃戎裝行樂圖
存誠齋文集
書明都督總兵秦良玉佚事
石砫志
韓門綴學
孔氏談苑
遯齋閒覽
師友言行記
與吴竹如先生書
通鑑前編
舉要
周書記異
西山文集
上大宗伯韓慕廬先生書
天禄琳瑯書目
古鑑
續目
存悔齋集
續宫史凡例
天禄琳瑯書目三編
四編
三編目録
文選李註
欽定天禄琳瑯書目初編
三編
奏疏
電奏
書牘
電信
公牘
補過齋文集
聯語
再續補彙刻書目
觀我生室彙稿
璞齋全集
疇人傳四編
留有餘齋叢書
劉氏之書
文子纘義
漢武洞冥記
詩經隰有萇楚
適園詩集
杏花春雨樓
聽香樓集
春秋樂府
姑蘇竹枝詞
再續
再廣
三廣
山中白雲詞
春秋正義序
疏
䜱䜪亭詩初集
詩續集
壽陽縣志
\U000f2cf4\U000f2cf4\U000f2cf4筆記
世説碎金
世説新語
馬首農言
水滸
通鑑註商
安徽金石略
金石文鈔
續鈔
古墨齋全集
校補竹書紀年
原委
建元紀
金石續鈔
讀書偶記
古墨齋筆記
琴士文鈔
新舊唐書互證
木蘭從軍
秋燕已如客
新秋納涼
清芬録
寰宇訪碑録校勘記
補寰宇訪碑録校勘記
再續寰宇訪碑録校勘記
望溪文集再續補遺
清芬續録
萇楚齋三筆
萇楚齋書目
桐城文學淵源考補遺
桐城文學撰述考補遺
國朝金石學録
王文肅公遺文
廣雅疏證
讀書雜志
羣經字類
方言疏證補
釋大
毛詩羣經楚詞古韻譜
遺文
高郵王氏六葉傳狀碑志集
六葉傳志
高郵王氏遺書初編九種
西堂全集
哀弦集
龍壁山房文集
張文毅公奏稿
冰谿吟草
廣哀詩
屑玉叢談
萇楚齋叢書目
説文解字註
直隸河渠書
復翁所見書録
羣書綴拾
直介堂叢刻初編
御批通鑑輯覽五季紀事本末
撰述考補遺
寶鑑樓架上書目
直介堂徵訪書目
家訓述聞
學書瑣語
萇楚齋四筆
曾文正公集外文
花前老人詩鈔
庸葊筆記
吴先生全集
百孝圖説
蘭浦百孝詩存
孝弟圖説
孝弟録
二百四十孝圖
孝行録
孝弟忠信圖説
古孝彙傳
述窠雜纂
詩經巷伯章
涉園集
昭代名人尺牘續集
進奉文鈔
評點春秋左傳綱目句解彙雋
快讀
史記魯周公世家
叢書舉要
四書正事括略
大學證文
正名
正文
正禮制
正故實
正事
括略
\U000f2cf4筆
又讀盛伯熙集
哀怨集
荆溪林下偶談
水心集
琉球國志略
續琉球國志略
續志略
還硯齋全集
唐詩快
驚天集
泣鬼集
泣鬼集二
移人集
詩貫
近思齋書牘
四書題説
正念齋語
近思齋答問
雜著
月山遺書
琅五藏珍
婁東詩派
粤東詩海
總目
海
文海
萇楚齋筆
雅雪園詩鈔
春在堂隨筆
習學記言序目
習學記言
敬鄉樓叢書
樂善堂文初集
詩初集
樂善堂全集
宋諸儒論
邃雅堂集
草堂之靈
業書目録彙編
穀梁申義
墨子註
鶡冠註
詩别集
箋啟
八代詩選
唐詩選
絶妙好詞三編
湘綺樓年譜
蘭亭序
禊帖
蘭亭
聖教
洛神十三行
首
末
遼
金
卷末
明名臣言行録
紐約先鋒報
全唐文紀事
唐詩紀事
全唐文年表
全唐文補遺
全唐文拾遺
潛園全集
鼇峯書院志
孟氏八種
亦園亭全集
焚香録
求復録
晚聞録
家誡録
廣愛録
瓜棚避暑録
城是録
喪禮輯略
孟氏八録
瓶葊居士詩鈔
使粤日記
使蜀日記
冠悔堂全集
駢體文鈔
賦鈔
易義針度補
小演雅
别録
島居隨録
三録
湄川志略
金筴颺言
閩南唐賦
閏竹居
讀左傳法
索隱
左氏春秋考證
鼻烟譜
勇盧閒詰
仰視千七百二十九鶴齋叢書
勇盧閒詰評語
桐蔭山房叢刊三種
勇盧閒話摘録
鄂不齋叢刻
士那補釋
鼻烟叢刊
益部耆舊傳
苕溪漁隱
後漢逸民傳
後漢郭玉傳
芥隱筆記
唐書陸龜蒙傳
鍼經診脈法
庚子札記
時報文藝週刊
舊藏書目録序
集古録
毓清臣拜菊山館詩鈔序
眉叟年譜
與阮芸臺宫保論文書
繫辭
國風
變雅
大載記
考工記
洪範傳
素問
靈樞
桐城劉氏支譜序略
支譜敍略
柈湖文集
方稼軒傳
毛詩墨守
毛詩提要
四書通義
性理輯要
竹林問答
稼軒文集
巴陵縣志
金臺紀聞
勸學芻言
漸西村人詩集
陸放翁詩集註
橋西雜記
船山詩註
吴徵士遺集
贈汪菊舲二尹
隨園女弟子詩
碧城仙館女弟子詩
夜泊淮安西湖嘴有感
山樵暇語
揚州畫舫録
蘐蔭堂文集序
偶閒録序
市隱書屋文鈔
市隱卮言
抱冰堂弟子記
遂翁自撰年譜
懷佩軒詩序
復堂文續
有學集
讀吴梅村豔體詩有感書後
毘陵詩録
龍眠風雅
樅陽詩選
桐舊集
桐城馬氏詩鈔
舊言集
游戲三昧
楹聯集錦
浮湘
山中
憑几
歸田
息園
緩慟
由拳集
白榆集
栖真館集
陳氏叢書
吴中唱和集
答孫子發書
三國魏志
五總志
行素齋雜記
建甯修志與姚經三司李書
節義傳
欽定勝朝殉節諸臣録
貳臣傳
茹荼軒文集
宣統六年正月壬子朔口占
三禮
大戴禮集註
清列女傳
女小學
大戴禮註
九圖十二石山齋詩話
粤謳
粤風續
後知堂文集
憂庵雜記
信摭
南唐李後主墓碑
江表志
鹿樵紀聞
佚史
甲申日記
歷朝詩集
題畫詩
錦錢集
清雋集
心史
尹和靖先生語録
雜説
石初集
伊江筆録下編
附天地間集
湖山類稿
東山
書柳州羅池廟碑
績語堂碑録
真部
廟堂碑
風懷
鴛水仙緣
洞仙歌
風懷貳百韻
黍離
昌谷集
擊壤集
文求堂書目
風鳶
夷齊廟
新正千叟宴畢仍榮宴廷臣於重華宫得詩二首
麻部
聲調譜拾遺
藝海珠塵
聲調譜説
通韻譜説
蠡説
聲調四譜圖説
求是齋集三種
聲調譜圖説
韓川文集
文外集
答李翊書
甚德堂文集
𦬊汀古今文
孝慈則忠
韓非子録要
讀孟集説
怡雲堂内集
戊子集
怡雲堂全集
萬首唐人絶句
唐風四始考
桂學答問
齊書
梁書
陳書
魏書
北齊書
北周書
舊五代史
宋
元
詩古微
古文尚書疏證
禹貢錐指
易圖明辨
易漢學
禮書綱目
大戴禮
小戴禮記
尚書大傳
説文釋例
説文外篇
説文新附考
説文引經考
説文答問
文字蒙求
説文檢字
説文聲讀表
鹽鐵論
太玄
百子全書
漢魏叢書
水經註
續通鑑
元紀事本末
紀事本末
明史秦良玉傳
勝朝殉節諸臣録
忠州直隸州志
忠州志
\U000f2cf4\U000f2cf4雜纂
王氏四種經義述聞
古書疑義例
經義述聞通説
遠碧樓書目
鳧亭詩話
讀書舉要
學風
丙子消夏録
南漢宫詞
宫詞
澄江集
香豔叢書
通書
正蒙
原道
學記
大學序
與洪甥駒父書
與洪甥龜父書
宋史文苑列傳
神宗實録
山谷老人傳
楚州叢書
冒氏叢書
永嘉詩人祠堂叢刊
毛詩多識
曹風
顔氏學記
論語戴氏註
管子校正
謫麐堂集
復堂文續亡友傳
黄學廬雜述
漁洋詩則
前譜
後譜
續譜
秦越人洞中詠
息舟荆溪入陽羡南山游善權寺呈李功曹
西山詩和者三十餘人再次前韻爲謝
和蔣夔寄茶
正月
三月
五月
七月
九月
十月
夏日送盧霈秀才歸王屋山將欲赴舉
落花
與高適薛據同登慈恩寺塔
崔濮陽兄季重前山興
青溪
秋登萬山寄張五
夏日南亭懷辛大
扶風豪士歌
族弟金城尉叔卿燭照山水壁畫歌
夢游天姥吟留别
樂游園歌
渼陂行
丹青引
寄韓諫議注
陸渾山火和皇甫湜用其韻
雪後寄崔二十六丞公
韓碑
和杜麟臺元志春情
宿東亭曉興
小閣閑坐
邊曲
晴雲
月夜
春宿左省
送遠
登裴秀才小臺作
與諸子登硯山
廣陵别薛八
望嶽
和裴迪登蜀州東亭送客逢早梅相憶見寄
所思
小寒食舟中作
送别
横江詞
山中問答
山中與幽人對酌
夜會問答
怨歌行
雜言寄杜拾遺
蜀道難
箜篌引
古今樂府論
漁洋論詩
精華録訓纂
谷水舊聞補
擬御製太白山碑文
瞿文慎公行狀
貞女辨
曾子問
雕菰樓集
貞女論
趙超甫先生墓表
抱潤軒文集
前後懷人詩鈔三種
洞庭舟中雪夜懷人詩
小停雲館後懷人詩
二餘堂癸亥除夕紀懷詩
經籍舉要
石鼓文
城隍廟碑
謙卦
史晨
禮器
樂毅論
夫子廟堂碑
靈飛經
多寶佛塔碑
麻姑仙壇記
玄秘塔碑
茘支譜
閑邪公家傳
蘭亭詩序
争坐位稿
淳化閣
申報自由談
海外人物志
甘地易服紀
韓安人遺詩序
韓安人遺詩
尺岡草堂遺集
清風室詩鈔序
清風室詩集
敦艮齋遺書
國朝列女傳
女小學韻語
冀縣志
深州風土記
抱冰室弟子記
送同年翁仲淵殿撰從尊甫藥房先生出塞
梅花
香草箋詩註
送春詞
小學葊遺書
清風室叢書
道州風俗記
道州圖經
答史仲仁書
答吕月滄書
古風
初月樓遺編
遺編
詩續鈔
桐城文學叢刊
朝邑縣志
韓五泉詩集
還硯齋全集九種
周易述
易漢學擬旨
學庸題解參略
古近體詩
賦稿
漸西村人詩
古文辭類纂註釋
遺逸清音集
熙朝雅頌集
岳陽風土記
湘州記
韓非子
牆有茨
鶉之奔奔
桑中
北
不遠復齋見聞雜志序
拙庵類稿
山谷刀筆
船山師友録
辛亥殉難録
殉難録
船山師友記
船山年譜
左文襄公年譜
辛亥殉難記
殉難表
紫藤花庵詩鈔
家山雜憶
注韓居詩話
紫藤花葊詩鈔
少少集
梅崖集
刺桐城紀游
玉琴書屋詩鈔
雪村詩集
客游草
侯官許氏家集
篤敍堂詩集
英軺日記
劉太史遺集
錦官堂詩草
光緒甲辰四月初六日早詣頤和園仁壽殿引見蒙恩補授翰林院侍讀恭紀五言排律二百韻
\U000f2cf4\U000f2cf4札記
張惕葊先生傳
正學堂經解
十七史
南村草堂文鈔
花前老人文鈔
吴徵君傳
廬舒二義士傳
廬江吴公祠碑記
吴徵君墓表
花雨樓叢鈔
初月樓全集
桐城文學論文彙編
松柏山房駢體文鈔序
與楊僕射書
哀江南賦
松柏山房駢體文鈔
明代千遺民詩詠初編
洪範微
老子約
邵村學易
左傳禮説
春秋持平
春秋教旨
讀老隨筆
莊子旨歸
郭子翼莊偶釋
讀列隨筆
夢痕仙館詩鈔
五代詠史詩鈔
邵村詠史詩鈔
寓園文鈔
明代千遺民詩詠
唐賢三昧集
帶經堂三十六種
唐賢三昧集十種唐詩選
唐人萬首絶句選
廣唐賢三昧集
詩管
谷水舊聞
天下名家詩觀初集
閨秀别集
西江詩話
緑窗遺稿
字原徵古
音義辨同
樂府津逮
禊帖緒餘
古諺閒譚
薌嶼裘書七種
香墅漫鈔
孫明復小集
聖宋文選
晉書藝文志
補晉書藝文志
晉書校文
丁氏叢書
補晉書經籍志
晉書註
晉書斠註
三國志註
含嘉室年譜
中山傳信録
吴會英才集
教經堂集
白雲草堂詩文鈔
墨林今話
粟香五筆
甫田集
耕石齋石田集
六如居士集六種
懷星堂集
容臺文集
憫日歌
涵芬樓祕笈
段氏説文註訂
説文段註訂補
説文集註
許鄭學廬存稿
穆堂類稿
别稿
穆堂詩文鈔
霞蔭堂詩集
霞蔭堂文集
康氏家集
茂園自撰年譜
國朝耆獻類徵初編
述意
國朝賢媛類徵初編
詒煒集
侍香集
嗣徽集
與李右周進士\U000f2cf4\U000f2cf4論左傳書
左傳文法讀本
書詒煒集後
范伯子文集
吴竹如先生年譜書後
方柏堂輔仁録序
説學齋稿
雲林集
時事報
擬考試人員上唐寶鍔書
唐明皇以詩書賜吐蕃論
天演論
原富
社會通詮
羣己權界論
孟德斯鳩法意
穆勒名學
名學淺説
適可齋紀言
紀行
馬氏文通
説文二徐本箋異
圖經考
東原録
龍慧堂詩
鴻雪因緣\U000f2cf4集
庚子雜記
易經
一微塵集
鞮芬室詩話
一微塵
懷曾文正公
劉忠誠公遺書
補過齋詩集
鐵笛亭瑣記
樂道堂全集八種
賡獻集
岵屺懷音
廣四時讀書樂詩試帖
豳風咏
正誼書屋試帖詩存
碎錦吟
荷廊筆記
蠡勺編
廣州人物傳
蘿摩亭札記
七殺碑
聞見前録
蜀程小記
易五贊
朱子説書綱領
書序説
書序註
詩綱領
詩序辨説
春秋綱領
春秋左氏經傳集解後序
禮記集説凡例
五經提綱
區言
菰中隨筆序
區志
交友鑑
留都見聞録跋
東林紀事本末
三大征本末
國瑋
秋浦雙忠録
交友論
得五樓詩稿
十三唐人詩
晚唐伍喬詩序
湖海樓集
陳檢討四六文註
陳檢討四六補註
揅經室集山東糧道淵如孫君傳
孫忠愍祠書目内編
空山堂全集九種
詩志
周易解
尚書引義
春秋家説
論語隨筆
三魚堂賸言
松陽鈔存
孟子論文
論文
史記評註
讀史糾謬
前
南齊書
後周書
空山堂十七史論
金石經眼録
種柑
楝亭詩鈔
歲暮遠爲客
荔軒集
荔軒
楝亭
虞姬墓碣
靈璧縣志略
定遠志
棻堂節録
春秋管見
世系
讀秋水齋詩
郡縣地名韻編
松心詩集
本草綱目
本草
本草綱目拾遺
雨村詩話
囈語偶存
太崑先哲遺書十種
松窗雜録
通鑑考異
潛研堂文集答問篇
國朝詩話
蘭室叢談
在淵草
夢魔草
碧梧草
醉月草
儆嬉草
澹甯集
詩義會通
序
邱母林淑人五十壽序
春秋左傳屬事
古字奇字音釋
春秋左傳註解辨誤
古器圖
嘉定縣志
曾文正公家書
文正家書
曾文正公家書節録
家訓節録
曾文正公家訓摘鈔
吾廬筆談
鴻雪樓詩
驛柳
弔韓蘄王
客船
鴻雪樓詩選初集
名媛詩話
鴻雪樓詩初集
澹仙詩話
續瀛寰志略初編
英法義比四國志譯略
巴爾幹諸國志
鵑湖百詠
鴛湖櫂歌
古鹽官曲
海昌勝覽
蠡塘漁乃
新坂土風
花溪紀事
修川雜詠
鵑湖漁唱
西湖竹枝詞
懷亭詩録
詩續録
詞録
癸卯東游日記
澄懷園語
漁洋文略
蓮洋集
名山記
蓮洋詩鈔
詩箋疏
停雲閣詩話
學詩堂經解序
詩箋
學詩堂經解
大清律例
唐律疏義
唐律
疏義
明律
名律
游上蔡縣阨廟記
涉江先生文鈔
涉江遺稿
答寶瑞臣書
孔門學案
兩漢學案
三國學案
天咫偶聞
國朝書人輯略
香奩集發微
韓承旨年譜
陳石遺先生談藝録
金陵昭忠祠記
集外文續
復堂文續沈府君墓志銘
國策行文開合法程
捭闔篇
行文開合法程
書札雜著
雨村詩話補遺
排山小集
遺詩鈔
青岑遺稿
和漢年契
東西年表
新撰年表
和漢帝王年表
勝朝越郡忠節名賢尺牘
秋水詩集
秋水集
續補彙刊書目
秋水堂集
富陽縣志
抑快軒文鈔
讀秋水齋詩集
秋水堂遺集
統紀表
段氏三表
使琉球記
養餘室雜著
最捷車輪船式
先光禄公論毛詩集韻書後
解字
己卯薦卷
壬午薦卷
乙卯薦卷
花甲閒談
凝香室鴻雪因緣圖説
述德
禱神顯應記
黄葉村莊詩集
遂翁自訂年譜
題雲林秋山圖
過真定賦詩
謝公墩
孫楚酒樓
雨花臺
漁洋話
勞勞亭
本事詩
味外軒集
淮海英靈集
廣仁堂叢書
敬義堂家訓述録
曹真
匋齋藏石記
古今圖書集成
洪武正韻
悔齋詩
山聞集
京華集
周逸僧納白門董姬戲贈
春郊
寒支集
歲紀
寒支初集
甯化縣志
二十一史
肇域志
天下郡國利病書
再與友論文書
左文襄公家書
靈璧縣河防録
河渠原委
靈璧縣志
管子學
半舫齋古文
讀禮圖贊
四溟瑣記
孫文鳳殉節記
瀟湘風雨録
題江南曾文正公祠百韻
題甘祺仁學博宋卅六磚歸裝圖
養晦堂詩集
浯溪考
唐人萬首絶句
浯溪
同景莊游浯溪讀中興碑長句
古夫于亭雜録
望溪文集三續補遺
曾文正公集外文續
檜門詩存
鄉賢崇祀録
臨川四夢
男四十八孝圖説
女二十四孝圖説
車鑒録
二十四孝圖説
書魯絜非先生文後
書梅伯言文集後
槃薖文甲
柏梘山房集
山木居士集
魯賓之文鈔
魯習之文鈔
花笑廎雜筆
宗室貢舉備考
昌瑞山萬年統志
古紅梅閣筆記
人文
味餘書屋隨筆
味餘書屋詩初集
詩二集
全韻詩
全史詩
巡幸盛京詩
文初集
文二集
四庫簡明目録
孟芳圖書館書目
四庫全書簡明目録
梅村集
病中有感調寄賀新郎
編年詩集箋註
梅村詩話
吴詩集覽
談藪
集覽
亡妻黄孺人權厝志銘
食古齋文録
分湖柳氏重修家譜
望溪文集
亡妻蔡氏哀詞
顯考温毅府君年譜
養真堂文鈔
同治上海縣志札記
上海竹枝詞
古詩十九首西北有高樓篇
骨肉緣枝葉篇
留别妻篇
羽林郎篇
春江花月夜篇
木蘭詞
鷇音集
鷇音初集
鷇音草
答門人
丹鉛録
論語駁
爾雅釋訓
廣雅釋詁
淮南繆稱訓
水經注漢水篇
漢書高帝紀
爾雅釋詁
大戴禮五帝德篇
文選封禪文
書立政篇
漢書谷永傳
儒行
易繫詞
韓詩
禮禮器
大戴禮曾子立事篇
詩楚茨篇
方言
陶廬箋牘
文莫室詩箋
潛研堂全集
孱守齋所編年譜五種
沈園
與友論詩書
御纂孝經
御註孝經
御纂孝經集註
周易本義
春秋大事表
孔氏説經稿
通鑑綱目
三遷志
名臣言行録
越人三不朽籌濟編
耕田圖考
荒政輯要
蠶桑粹編
農政全書
明刑管見録
制服成誦編
洗冤録詳議
文廟從祀位次考
山東考古録
讀書分年日程
小學集註
人譜
教育語
經驗良方
痘疾芻言
痘疹定論
蒿葊集
楊園集
汪龍莊遺書
胡文忠公集
止止堂集
古文辨體
尹河南集後序
校經草廬文集
小峴山人續文集
童山詩集
函海
繫詞
孟子見梁襄王
孟子曰君之視臣如手足
萬章曰父母使舜完廩
稱謂
鄭伯克段於鄢
唐詩品
太乙舟文集詹事鮑覺生先生墓志銘
廿四詩品
詩品
直介堂叢刊
管異之文集書後
柏梘山房文集
勸學瑣言
盾鼻隨聞録
與韓紹真書
與韋中立書
伯夷論
答姚小坡尚書書
道古堂文集
道古堂集
與翁東如書
焠掌録
文心雕龍
顔氏家訓文章篇
三易
莧園雜説
十三日備嘗事略附記
陶廬叢刊
品芳録
月季花譜
月季花栽法
小説世界
栽培月季花之心得
月季花會記
中華新報
我之栽培月季花
半氈齋題跋
同書
古事比
孿史
疑雨集
明詩别裁集
别裁
疑雨集選
金壇縣志
泥蓮
疑雨
疑雲集
敍永事略
武功志
隆昌縣志
武功縣志
光緒會計録
光緒朝海關大宗進出貨價表
荷香館瑣言
脊令原傳奇序
鴛鴦鏡傳奇序
倚晴樓全集
與魏子安書
移博士文
復讎議
表忠觀碑
趙清獻奏議
月賦
雪賦
南陔
代秀潛祭外姑文
致嘉義學書
致王霞舉書
答黎生書
答朱載言書
李文公集
歎百年
廣州府志
山谷集
文正家訓
錦鱗前集
傳書堂記
傳書堂善本書目
習之先生文讀
唐藝文志
欽定四庫全書
李文讀
詩考異
詩音易述
古本大學解
漢律曆志註
河略
春秋釋經
論語私記
抑快軒全稿
上歐陽内翰書
嘉祐集
致王文泉書
秀水縣志
歸來
燕臺四集
史鈔
五代史鈔
駱吏目傳後
漢堂文鈔
老彭
是社稷之臣也
顧左
曾是
有李
國人皆曰可殺
不貳過
不待三
吾以汝爲死矣
涇川詩話
涇川叢書
環石詩鈔
周家口懷舊
佚詩
東游叢録四種
文部講論
東游叢録
欽定勦平粤匪方略
欽定勦平捻匪方略
詩全集
文全集
舒伯魯集序
書梅伯言馬韋伯詩後
因寄軒文集
柏梘山房詩集
甌北詩鈔
悔餘葊詩編
葵青居詩録
悲鸞草
隻鶼録
百哀篇
漁洋詩續集
道榮堂詩集
花隱葊遺稿
求是齋詩集
石笏齋詩鈔
實事求是齋遺稿
介軒集
王文直公遺集
澹静齋詩鈔
小謨觴館詩集
扁善齋詩存
秋士先生遺集
澹餘詩略
寡學篇
恆産瑣言
讀包孝肅、海忠介二公傳
周官
艮園文集
贈沈師閔序
騷
果堂集
記沈師閔韓文論述
曝書雜記
妙香齋叢鈔
閲微草堂筆記擇要
紀文達公筆記類編
異苑
北行日記
静觀堂賸稿雜詩
揚州十日記
江陰城守記
古今詞雅三編
魏志鄧哀王冲傳
邴原傳
漢堂類稿跋
諸史平議
漢堂類稿十種
三國志平議
晉書平議
北魏書平議
北齊書平議
北周書平議
吕氏春秋高註補正
漢堂詩鈔
濯纓室詩鈔
問月詞
諸子文粹
遺逸傳
曲陽縣志
歷代帝王紀年考
雙忽雷紀事
楊維楨謝吕敬夫紅牙管歌
小忽雷詩爲劉燕庭方伯作並序
同人詩録
記孔東塘小忽雷傳奇始末
學藝雜志
花朝生筆記
神州日報
唐御府小忽雷胡琴記
東津館文集
山左詩鈔
養一齋詩話
敍
叔於田
巴塘詩鈔
敏齋詩草
讀易草堂文集
幕府紀聞
蒙養弦歌
尊王篇
春秋大義
與程原衡書
答林遠峯書
光緒會計表
楝亭詩鈔序
文見姜先生全集
來青軒
松磴
國朝詩品
吾炙集
藏山集
獨賞集
詩遇
佚叢申集
虞姬墓
志略
震川評點史記
樊酈滕灌列傳
魏叔子文集
經史百家簡編
歸方評點史記合筆
歸震川評點史記
評點震川文集
穆庵遺文
嶺南文鈔
肇慶府志
府志
古文析義
古文觀止
讀西學書法
中日戰輯
東方兵事紀略
甲午中日海戰見聞記
繫傳
三都賦
賭棋山房集
通鑑總類
賞罰門
貶賞
功賞
外戚門
貴戚
近習門
寵倖
隱逸門
高尚
積善門
陰德
僭竊
興廢
倫紀類
君臣
父子
兄弟
王道類
井田
學校
類腋
淵鑒類函
釋天
釋地
釋山
釋水
釋草木
釋鳥獸虫魚
釋宫
釋樂
釋親
釋詁
釋訓
釋言
白孔六帖
香草齋集
葛嶺
深情
春日雜思
泰安道中
西湖雜詠
題桃花流水册
春宵
偶作
崑山志
春秋列國論
列國論
雜國
書法解
懷亭詞録
晁具茨先生詩集
左傳義法舉要
抗希堂拾陸種
悼亡室龔氏八首
致桐城方存之京卿書
語
韓文故序
論
魯故
韓故
齊后氏故
孫氏故
毛氏故
解故
倉頡故
邵武府志
書所鈔高雨農抑快軒文集
友人來坐中口占二絶
顧亭林先生詩箋註
冶父山志
品花寶鑑
志樂
涇縣續志
續志
藤香館小品
緑綺琴歌
道援堂詩集
抱琴歌
漁洋詩集
文行忠信
恭寬信敏惠
鄺海雪集箋
大興徐侍御同人書札跋
莊子養生主
定性論
使瀋草
竹葉亭雜記
薦青詩草
春秋説
傷寒懸解
金匱懸解
長沙藥解
傷寒説意
四聖心源
四聖懸樞
素靈微藴
玉楸藥解
二程遺書
朱子大全
慘覩
彈詞
明鑑
樞垣紀略
大江東去
金剛經
水窗春囈
光緒湖南通志
能静居士日記
太平天囯史料叢編簡輯
曉窗春語
擬陳洋務疏
洋務宜遵祖訓安内攘外自有成效説
川淮兩全説
萇楚齋續筆
蘇報
小説月報
春窗夢囈
進場飯
王船山先生軼事
跋水窗春囈
水窗春囈作者攷
國聞周報
光緒嘉善縣志
傾軋可畏
尚書愛才
户部爲六部首
奇士遇害
潰河事類志
吴下諺聯
晉書天文志
白醉閣詩
雲笈七籤
小兒語
易説卦
國史補
噬嗑
字典
春秋穀梁
埤雅
禮月令
雲仙雜記
元命苞
酒譜
霧行圖
月令
齊民要術
朝野僉載
郊居賦
萬花谷辨證
豳風
海賦
縣志
龜筴傳
易林
隨園食單
禮内則
琵琶記
牡丹亭
西廂
西樓
十種
百種
油壺盧
貨郎兒
劉二官扣當
鄉裏婆探親
風俗通
女憲
因果録
全人矩矱
知客歌
西江月
兑
尚書緯
儀禮士昏禮
正字通
類編
王制
道千乘
弟子
賢賢
信近
君子
貧而
後漢書左原傳
禹貢
醉打山門
六書正譌
世説
菊隱圖
宋書官志
公卿表
漢官儀
七事詩
林亭七事詩
鄉村七事詩
日下七事詩
錢譜
宣和博古圖
塞上鴻
餅賦
四饝饝歌
協紀辨方
同人
无咎
孝順圖
莊稼忙
火候須知
内經
堅瓠集
否
泰
易繫
大雅
講學
親政
史記周亞夫傳
粤東記遊
周南
正氣歌
四書直解
滑稽列傳
百花台
易剥卦
易无妄
剥
諺聯
吴歌
百物志
快哉
孟子舜發
震
嫖賭吃著考
造室十事
石
鄉言解頤
大諺海
形體
卜
冰牀
辮聯
眼鏡
骨董十五事
琉璃廠小志
開盤笑
回味甜
十樣錦
百醜圖
步步高
隻隻好
紗帽底下無窮漢
去任榮逾到任時
婚姻
你嘰呱我嘰呱
寺觀
優伶
塵
書房一角
虚受齋詩鈔
樸園感舊詩
販書偶記
横飽六十日
青浦縣志人物
素史
北莊清話
帶累鄉鄰吃薄粥
官场现形记
二十年目睹之怪现状
道咸宦海见闻录
敬亭自记年谱
李二曲先生年谱序
归玄恭先生年谱跋
清人年谱的初步研究
南开大学学报
张集馨日记
时晴斋主人年谱
厚养廉议
皇朝经世文续编
梦蕉亭杂记
国闻备乘
张集馨自订年谱
椒云年谱
漳州府志
醴泉铭
必自集
十三经
镜心录
关中胜迹图
五经
纪效新书
经世文编
落叶赋
马援讨交阯论
左传
洗冤录
纲鉴日知录
韵府
张集馨朋僚函札
李氏盛铎藏书目录
椒云日记
十三经音义字辨
时晴斋诗赋稿
班
大
小夏侯
顔
伏生
先謙
堯典
皋陶謨
甘誓
高宗肜日
坶誓
鴻範
大誥
康誥
酒誥
梓材
召誥
雒誥
多士
無佚
君奭
多方
立政
粊誓
甫刑
文侯之命
秦誓
歐陽
太誓
顧命康王之誥
孔序
王充
房宏
後漢
夏侯
西漢
孔安國
馬
鄭
孔
陸德明
書序
舜典
汩作
九共
大禹謨
益
稷
胤征
湯誥
咸有一德
典寶
伊訓
肆命
原命
武成
旅獒
冏命
泰誓
桓譚
新論
建武
譚
顯宗
問神篇
孔子
堯
秦
正説篇
劉歆傳
歆
移太常博士書
臣瓚
虞夏書
商書
周書
帝告
湯征
安國
都尉朝
膠東
庸生
胡常
徐敖
涂惲
桑欽
張楷
衛宏
賈逵
張
衛
賈
康成
伏
朱子
鄭康成
王鳴盛
東漢
司馬遷
遷
本紀
蔡
晉
齊
燕
世家
孫星衍
兩漢
平帝
莽
蔡邕
應劭
徐幹
魏
馬融
書傳序
龔自珍
書論
中候
徐廣
史記音義
裴松之
正義
經籍志
衛包
周代
倉頡
李斯
始皇
漢文
史籀篇
周
孔氏
宣王
籀
大篆
左丘明
許
王肅
夔
殷
太宗
祖甲
王莽
三統曆
文王
武王
劉歆
熹平
伏先生
三代
張生
永嘉
梅
姚
劉向
歐陽夏侯古文同異
有宋
吴草廬氏
明
梅氏鷟
純皇帝
尚書孔傳參正
杜林
西州
尹敏
楊倫
孫期
周防
周磐
林
孔僖
賈逵傳
逵
徽
鄭玄
郭忠恕
薛季宣
包
光緒
孔穎達
肅
丁晏
尚書餘論
王
皇甫謐傳
謐
孔叢
家語
汲郡紀年
羲
和
羲仲
嵎夷
暘谷
羲叔
南交
和仲
西
昧谷
和叔
幽都
虞舜
象
嬀汭
虞
放齊
朱
驩兜
共工
鯀
帝堯
放勳
有扈氏
仲康
胤侯
胤后
崐
太康
有洛
有窮
后羿
河
洛
大禹
禹
有苗
苗
歷山
瞽瞍
瞽
皋陶
文命
九歌
伊尹
夏王
尹
湯
夏
有商
商
亳
桐宫
有夏
鳴條
商王
岱宗
岱
舜
伯禹
契
棄
垂
殳斨
伯與
虎
熊
羆
伯夷
龍
三苗
幽洲
崇山
三危
羽山
帝舜
重華
簫韶
丹朱
傲
塗山
啟
成湯
桀
南巢
仲虺
葛伯
葛
夏氏
夏邑
沇水
濟
滎
陶丘
菏
汶
荆
豫州
伊
瀍
澗
滎波
菏澤
孟豬
衡
荆州
江
九江
沱
潛
雲土夢
南河
淮
揚州
彭蠡
三江
震澤
島夷
泗
岷山
澧
東陵
中江
嶓冢
漾
滄浪
三澨
大别
北江
熊耳
黑水
西河
雍州
弱水
涇
渭汭
漆沮
灃水
岐
終南
惇物
鳥鼠
豬野
積石
龍門
崐崘
析支
渠搜
岍
荆山
壺口
雷首
太岳
厎柱
析城
王屋
大行
恒山
碣石
渭
同穴
灃
青州
濰
淄
萊夷
徐州
沂
蒙
羽
大野
東原
嶧陽
淮夷
兖州
九河
雷夏
灉
沮
桑土
漯
華陰
孟津
洛汭
大伾
降水
大陸
逆河
西傾
朱圉
太華
外方
桐柏
陪尾
冀州
梁
太原
岳陽
覃懷
衡漳
恒
華
梁州
岷
嶓
和夷
桓是
沔
遲任
西伯
黎
祖伊
殷邦
説
甘盤
傅巖
高宗
祖己
周公
釗
武
君牙
成
康
伯冏
畢公
芮伯
君陳
成周
宗周
豐
洛邑
苗民
蚩尤
重
釐沃
三朡
誼伯
仲伯
汝鳩
汝方
履
夏社
疑至
臣扈
陑
益稷
義和
徐戎
受
武庚
箕子
發
殷王
有周
紂
周廟
太子發
畢
師尚父
者
盟津
帝紂
秦始皇
漢室
濟南
八索
職方
九丘
墳
典
秦穆公
晉襄公
崤
成王
亳姑
召公
康王
微子啟
微子之命
管叔
蔡叔
康叔
伏犧氏
伏犧
神農
黄帝
三墳
少昊
顓頊
高辛
五典
楚
倚相
奄
蒲姑
將蒲姑
魯共王
魯侯
伯禽
曲阜
徐
夷
費誓
沃丁
咎單
太甲
桐
后稷
徂后
伊陟
太戊
巫咸
咸乂
高宗之訓
妹邦
妹土
封
帝乙
商邑
殷國
有殷
旦
微
盧
三亳
阪
周王
奭
彤伯
衛侯
毛公
仲桓
南宫毛
齊侯
吕伋
胤
周邦
逸
黎水
澗水
瀍水
祖乙
巫賢
武丁
虢叔
閎夭
散宜生
泰顛
南宫括
郭鄰
霍叔
蔡仲
叔
殷王受
中宗
太王
王季
鴟鴞
蜀
羌
髳
彭
濮
牧野
比干
商容
鹿臺
鉅橋
華山
桃林
公劉
夏桀
于
王先謙
湖南
長沙
益吾
葵園
虚受堂
清同治
清
雲南
江西
浙江
江蘇
江陰
南菁書院
皇清經解續編
思賢講舍
城南書院
嶽麓書院
王氏
詩三家義集疏
漢書補注
後漢書集解
水經注合箋
荀子集解
莊子集解
釋名疏證補
日本源流考
外國通鑑
岑春蓂
吴榮曾
張衍田
參正
尚書孔傳參正序例
閻若璩
惠棟
江聲
段玉裁
陳喬樅
皮錫瑞
閻
惠
程
段
焦循
陳澧
尚書今古文注疏
今文尚書考證
皮
尚書孔傳參證序例
堯典篇
尚書集注音疏
古文尚書撰異
今文尚書經説考
書序百篇異同表
尚書孔傳參正目録
梅鷟
尚書考異
尚書譜
古文尚書考
程廷祚
晚書訂疑
經學通論
中華書局
阮元
十三經注疏
清經解
續清經解
漢代
東晉
梅賾
唐代
吴棫
朱熹
吴澄
何君
經
注
桓
召
二南
陸氏
班氏
西京
三傳異事表
董子
杜氏
公子譜
劉子政
世本
三傳異例表
三傳同例表
微故
范氏
范
王制義證
鄒衍
何氏
公羊解詁
春秋譜牒
左氏説微
説微
京易
張氏
辨例編
穀梁氏
高密
鄭公
卜子夏
六藝論
東京
尹更始
江左
張靖
程闡
徐邈
何
杜
楊士勳
楊
啖助
陸淳
孫覺
葉夢得
蔡元定
穀梁經傳
溧水
王氏芝藻
陳氏壽祺
李氏富孫
許氏桂林
侯氏康
柳氏興恩
鍾氏文烝
陳
禮説
柳氏
大義述
季平
穀梁古義疏
叙例
大義
表
諸國地邑
山水
圖
外篇
錢唐
張預
長沙使院
春秋公羊
有清
江都
任城
胡母生
條例
范武子
鄭君
井研
古義疏
清代
釋例
阮伯元
孔撝約
通義
式誨
家傳集
起起廢疾
釋范
渭南
嚴式誨
成都
賁園家塾
鄭伯
鄢
子夏
卜商
服問
喪服傳
江公
魯詩
劉子
凡伯
楚丘
仲子
惠公
隱
孝公
武氏
翬
宋公
陳侯
穀梁子
尸子
伯姬
紀
儀
邾子
邾
眜
王姬
詹
酅
山戎
鄄
單伯
許男
曹伯
滑伯
滕子
幽
郱
鄑
郚
蔡侯
子糾
遂
因氏
延廐
法廐
餘丘
臧孫辰
梁邱
曹
齊桓
仲孫
北杏
公孫無知
襄公
公子糾
公子小白
無知
小白
朔
戰
桓公
佗
陳君
鮑
許田
邴
泰山
紀侯
定
哀
孔父
督
父
子貢
突
祭仲
郜
長狄
叔孫得臣
成父
郤克
滕
薛
捷菑
貜且
夜姑
狐夜姑
趙盾
陽處父
盾
處父
舍
商人
救
姜
沈
公子遂
公孫敖
士穀
垂斂
新城
翟泉
夏陽
虢
晉獻公
荀息
屈
垂棘
晉國
宫之奇
虞君
虞公
獻公
款
寧母
里克
重耳
夷吾
麗姬
奚齊
卓子
晉侯
宋公禦説
宰周公
宋子
葵丘
泓
雩
宋襄公
楚成王
泓水
子反
衛子
莒子
踐土
首戴
鹹
殽
秦伯
百里子
蹇叔子
姜戎
晉子
温
河陽
晉文公
邢侯
莒
挐
公子友
孟勞
牡丘
項
檉
貫
管仲
黄
屈完
召陵
昭王
陳子
夷伯
楚子
杞伯
杞
城濮
得臣
洮
公孫兹
單子
叔孫僑如
士燮
高無咎
華元
孫林父
公子鰌
鍾離
沙隨
鄢陵
尹子
國佐
孫良夫
新築
仲孫蔑
崔杼
虚朾
梁山
晉君
伯尊
蒲
柯陵
蟲牢
共姬
共公
戚
郯
季孫行父
公子手
蕭同姪子
臧孫許
公孫嬰齊
鞌
爰婁
雍門
郤獻子
繒
季孫意如
韓起
國弱
華亥
北宫佗
罕虎
厥憖
頓
鷄甫
胡子髠
沈子盈
夏齧
子産
黑肱
濫子
仲孫何忌
韓不信
高張
仲幾
太叔申
國參
小邾
南里
公子招
招
比
叔倪
趙鞅
樂大心
北宫喜
游吉
黄父
陽州
鄆
頓子
沈子
越
止
虺
許君
薛伯
小邾子
平丘
士鞅
向寧
華定
東
東國
胡子
慶封
叔孫豹
趙武
公子圍
向戌
齊惡
公孫歸生
郭
防兹
牟夷
靈王
公子棄疾
公子比
棄疾
虔
乾谿
徐子
佐
申
樂祁梨
扈
公子意恢
意恢
光
鷄澤
袁僑
吴子餘祭
欒黶
甯殖
彭城
屈建
石惡
孔奂
良霄
甯喜
湨梁
豹
商任
澶淵
專
喜
邯鄲
季孫宿
士匄
華閲
公孫蠆
荀罃
邢丘
鄫
欒盈
曲沃
柤
荀偃
北宫括
仲孫羯
荀盈
高止
世叔儀
公孫段
夷儀
叔老
祝柯
向
巢
吴子謁
鄬
仲
宣
徵舒
叔肸
宣公
黑壤
荀林父
邲
穿
靈公
趙穿
史狐
夷皋
棐林
王札子
召伯
毛伯
公子歸生
大棘
泄冶
陳靈公
夏徵舒
公孫寧
儀行父
辰
仲佗
石彄
公子地
蕭
子胥
闔廬
蔡昭公
囊瓦
昭公
南郢
平王
楚王
乾侯
國夏
游速
安甫
叔孫州仇
石尚
伯舉
頰谷
魯君
優施
讙
龜陰
應上公
公子結
公孫佗人
頓子牂
昭
黄池
吴王夫差
夫差
輒
國書
艾陵
罕達
鐵
陽生
陳乞
荼
遺説
廖平
六譯館叢書
斗
山
次山君
湘
張君富安
渝
民國
犍爲
黄印清
少城
讀未見書齋
石渠
紀君
起廢
糾謬
日月時例表
三傳師説同源異流表
王制佚文佚義考
三傳傳疑表
筆削表
左傳變異今學事實表
成鑑
枚福傳
穀梁大義
十八國尊卑儀注表
善惡表
譜牒
春秋屬辭表
比事
進退表
劉
魯國
王制注疏
溺
卷
髠
陳左海
穀梁先師遺説考
舊傳
集解糾繆
中外名號異同表
外傳
穀梁決事
名
墨
施
翟
虎觀
釋
班固
穀梁古義
古義
蕭藩西屏
阮
廖氏
魚石
僖公
公子牙
子般
閔公
四川
咸豐
廖宗澤
六譯先生行述
龍安府
射洪
綏定府
尊經書院
嘉定
九峰書院
四川國學專門學校
四益館經學叢書
今古學考
廖
冀
祭伯
術
東都
東周
西周
西都
隱公
公子益師
宿男
宿
祭叔
女叔
原仲
斷道
襄
雞澤
滕侯
薛侯
意如
定公
子牙
牙
何休
范甯
南季
趙
季子
單
祭
女
任叔
仍叔
下陽
董
季姜
經學四變記
劉文淇
左傳舊注疏證
劉氏
杜預
鍾文烝
穀梁補注
山東
晉文
嚴
復旦大學
鴻寶
北京大學
中文系
王君耐剛
北大
日新
天津圖書館
日新書局
天圖
石玉
中國科學院
自然科學史研究所
陳殿
霞浦
郜積意
外編叙目
起起穀梁廢疾
許慎
蒙文通
昆山
顧氏
潛邱
閻氏
古文尚書
穀梁廢疾
鄭玄傳
公羊墨守
左氏膏肓
玄
鍼膏肓
休
武進
劉逢禄
穀梁廢疾申何
穀梁春秋經傳古義疏
重定穀梁春秋經傳古義疏
重訂穀梁春秋經傳古義疏
僖
補疏
莊公
都
祭公
鴻寶書社
孝義家塾叢書
鄭氏
號篇
昆吾氏
大彭氏
豕韋氏
齊桓公
楚莊王
吴王闔閭
嘉
王亢
子蒼
月榭
陸游
務觀
大峨
李太白
峨眉
平羌
孫真人祠
鳴玉洞
犀浦鎮
犀浦縣
郫
杜子美
南京
犀浦
長江
子美
唐玄宗
阿難
温湯
畢鉢羅窟
業
新王舍城
河圖括地象
青城
鴿寺
支那
花氏城
育王
毘耶離城
維摩
牛心
中峰
新峨眉觀
龍門峽
龍洞
眉郡
眉
白石渡
丈人觀
長生觀
范長生
孫太古
雷洞
吴江
垂虹
茅亭觜
石子雷
大小深坑
駱駝嶺
簇店
犍為郡
九頂寺
脩覺
新津縣
絶勝亭
西川
太祖
白水寺
雙溪橋
牛心寺
白雲峽
階州
靈武
西凉
甘
瓜
沙
伊吴
高昌
焉耆
于闐
疏勒
大食
雪嶺
布路州國
蜀州
西湖
吴廣仲
四相堂
熙春
李絳
鍾紹京
相業
新店
八十四盤
娑羅平
嘉州
萬景樓
漢嘉
萬景
犍為
戎
瀘
三峨
九頂
盧楞伽
楞伽
青衣
湖瀼峽
中巖
劉焞
文潛
起文堂
東坡
李石
知幾
元祐學堂
李
淳熙
孫仙
淘珠泉
玩丹石
佛頭灘
王波渡
眉山館
高
繼業
西域
寳現溪
菩薩閣
天下大峨
白水普賢寺
天仙橋
光明巖
王瞻叔
雙溪
廬山
三峽
樟木
牛心院
王波
王老
王翁
宋景文
魯直
涪州
涪皤
羅護鎮
犍為縣
下垻
青城山
寳仙九室洞天
丈人峰
丈人
五岳丈人儲福定命真君
甯
灊
廬
李燾
仁父
耀州
天壽院
乾德
天竺
開寳
涅盤經
萬里橋
岷江
石湖居士
合江亭
合江
永康
離堆
新津
芳華樓
諸葛孔明
費禕
東吴
板橋灘
簡世傑
伯雋
楊光
商卿
周傑德
俊萬
虞植
子建
成績
楊愻伯勉
李嘉謀
良仲
夾江
江原縣
張縯
季長
善頌堂
司馬温公
范太史
善頌堂詩
趙清獻公
安德鎮
永康軍
崇德廟
李冰
普賢大士
真宗
仁宗
崇寧
發願文
眉州
彭山縣
侍郎堤
秦岷山
真君殿
玉華
張果老
孫思邈
凌雲寺
天寧閣
導江
沫水
大渡河
雅州
開元
海通
彌勒佛
凌雲
載酒亭
青城縣
何正仲
子方
王陽英
昭祖
景疏樓
峰門
羅漢店
大小扶𢱲
錯喜歡
木皮里
胡孫梯
雷洞平
青蓮峰
白雲
青蓮
光相寺
七寳巖
思佛亭
軟草平
洗脚溪
普賢
第五羅漢諾矩那道場
慈姥
馮俌
雷洞山
廣福院
東丁水
東丁院
山谷
方響洞
味江龍
宣和
浩
洪州
分寧縣
雙井里
黄庭堅
戎州
彭山
城外江
玻瓈江
蟆頤
浙
慈姥巖
上清宫
大面山
芙蓉平
雪山
大面
上清
端門
西戎山
玉壘關
浮雲亭
李蘩
清叔
華嚴院
青竹橋
路口
梅樹埡
兩龍堂
中峰院
普賢閣
白崖峰
呼應峰
茂真尊者庵
茂真
都江
西戎
李太守
西蜀
范謨
季申
郭明復
中行
楊輔
嗣勳
虎溪橋
白水
月峰
青衣山
蠶叢氏
平羌縣
龍遊
懷古亭
懷古
有
伏龍
李氏
中峨
小峨
燕渡水
雅州江
巂州
邛部
蘇稽鎮
峨眉縣
慈福
普安
白水莊
蜀村店
龍神堂
叙
程詠之
雪堂
詠之
郫縣
郫邑
楊氏
諾矩那庵
天台
深源泉
叙州
青神
蘇稽
符文鎮
符文
鹿野苑
洹河
摩羯提國
杖林山
優波掬多
孤山
鷄足三峰
迦葉
烏尤
安樂園
涪翁
華陽風俗記
舍利本生塔
鷲峰
法華經
王舍城
大葱嶺
伽溼彌羅國
薩埵太子
健陀羅國
中印土
瓦屋山
大瓦屋
南詔
小瓦屋
辟支佛
神女廟
陽雲臺
高唐觀
來鶴峰
宋玉
襄王
巫山高
墉城記
瑶姬
西王母
雲華夫人
妙用真人
凝真觀
白馬將軍
燩背洲
皖口
牛磯
雁汊
長風沙
池州
池口
瞿唐口
灧澦
瞿唐
黑石灘
瀘州
内江
資
簡州
江瀘
峽州
江陵
沙市
渚宫
章華臺
龍山
息壤
開江口
開
達州
下巖
瑞光閣
排溜閣
楊太真
妃子園
閩
莆田
陳家
川
廣
忠州
萬州
涪
恭
烟霏閣
波斯夾
皖
瑯琊
中國
三江口
赤壁
黄州
臨臯亭
酆都縣
平都山
仙都
景德
前漢
王方平
陰長生
陰君
李吉甫
吉甫
隋
晉殿
夔州
灩澦
排亭
峽
白帝
三峽堂
高齋
江州
庾樓
康廬
庾
元亮
武昌
南樓
思白堂
雙劍峰
雙林
竹樓
棲霞樓
秦申王
臨臯
慶瑞堂
棲霞
玻璃江
楊木寨
夷陵
濂溪
潘慈明
伯龍
周先生
馬頭
琵琶亭
曹訓
子序
吕勝己
琵琶行
鄂渚
鸚鵡洲
南市
平善壩
至喜亭
坡翁
楚塞樓
荆門
三國
西陵
陸遜
嶲州
大峨山
大峨峰
枝江縣
松滋縣
荆南
沙頭
東坡雪堂
小橋
高寒
水調
雲安軍
魚復
八陣圖
黔江
黔州
四人
華人
巴人
廪君
盤瓠
建康
伏龜樓
曹彬
李煜
京口
宣化縣
巫山縣
巫峽
夔峽
十二峰
歸州
叱灘
人鮓甕
歸
楚熊纏
昭君
湖北
合江縣
登天王
吕光廟
苻堅
紹
鳩摩羅什
李川
鄂
壓雲亭
雅歌
整暇
劉仙觀
安樂山
劉仙
珍
開皇
樂天草堂
樂天
元和
香爐峰
遺愛寺
楚熊繹
荆湖
恭州
東川
秭歸
嘉陵江
利
閬
果
合
望洋軒
懷忠
石首
魯家洑
臨湘
嘉魚
洞庭
運河
永泰
真卿
吉州
東林
廬阜
爐峰
遠公
生法師
謝靈運
涅槃經
南廣江
南溪縣
江安縣
張旗三灘
遠師
西林寺
惠永
竺曇現
香谷
永
遠
馬湖江
馬湖
鎖江
南定樓
晁公武
子止
簡
來風亭
梁介
子輔
灩
西林道場碑
渤海
歐陽詢
大業
虞永興
率更
詢
顔魯公
現
張僧繇
梁武帝
歐陽公
永公
大中
巫山
夔府
太平興國宫
聖治
峰
香爐
石頂
獅子
蓮花
蘄
九天採訪使者
玄宗
南唐
升元府
應元保運
神運
紹興
李成
西山
煙霏閣
峽江
卧龍山
江津縣
漁洞
泥培村
江瀆廟
公安縣
二聖寺
二聖
婁至德
青葉髻
虎溪門
杭
靈隱
飛來峰
法才
過溪
劉邦翰
子宣
長蘆
菩提達磨
達磨
泥培
川峽
坡
谷
劉道
甘泉寺
姜詩
龐氏祠
姜詩泉
晉安帝
佛䭾耶舍
西林
李邕
張又新
李訥
兀兀禪師碑
張庭倩
九華樓
齊山
翠微亭
杜牧
九華
南湖口
非水亭
湖口
大孤
松江
垂虹亭
陽羡
罨畫溪
栝蒼
睢陽
吴興
石湖
桂林
魯公
張李碑
柳公權
復寺碑
李肇
蔡京
苗紳
樂温縣
張益德廟
大觀
雄威
忠顯王
蒲氏
大韶
交石夾
小孤
澎浪磯
滶背洲
馬當
黄鶴山
大慈樓
孔明廟
劉蜀
段文昌
修觀記
石泉軍
章森
德茂
黄牛峽
洺川廟
黄牛
黄牛山
假十二峰
巫陽
黄牛廟
清溪閣
南朝
清溪
玉麟
扇子峽
蝦蟆碚
水品
黄岡
鎮江
大死庵
鎖江亭
秭歸縣
長文
歸鄉沱
管鑑
葉默
熊浩
沈作礪
麻線堆
法寳
麻線
麻線堆詩
成都路
石首縣
新灘
萬
岑公洞
岑
嚴挺之
楊商卿
譚季壬
德稱
清烈公祠
屈平
女嬃
吒灘
東奔
黄魔神
胡長文
彭蠡湖
八陣
爾雅臺
郭景純
郭道山
景純
羣猪灘
武寧縣
梓
忠
望淮亭
竹平
四賢閣
劉晏
陸贄
白居易
荔枝樓
漢口
漢水
平善垻
壩
南夷
開江
達
洞庭湖
興元
巴河
鄱陽湖
皖水
淮西
辛棄疾
幼安
絳帳臺
落帽臺
裴宙
辛幼安
百里荒
鄂州
廣西
渡瀘亭
桐木溝
黄鶴
姮娥
清溪口
太平州
凌歊臺
宋武帝
興山縣
王嬙
昭君臺
香溪
明妃廟
東林寺
惠遠師
星居寺
虎溪
白蓮池
蓮社
五杉閣
聰明泉
商仲堪
劉公
賞心亭
二水亭
金陵
伏龜
玉雪坡
范村
南陽
陶淵明
東陽
楊補之
廉宣仲
伏道
扁鵲墓
湯陰縣
沙河
禮儀河
大寧河
柏鄉縣
堯山
臺城鎮
趙王
廉頗
藺相如
邯鄲縣
女真
堯山縣
放勳廟
燕山
石晉
安肅軍
太行
睢
漳
滹沱
黄河
小黄河
欒城縣
滹沱河
真定
磁河
新樂縣
北嶽
曲陽縣
羑河
羑里城
相州
秦樓
翠樓
康樂樓
月白風清樓
中華佛國
晝錦堂
漳河
曹操
講武城
操
高翻
高公
翻
安陽河
磁州
滏陽河
崔府君廟
燕賓館
豐宜門
龍津橋
宣陽門
西御廊
會同館
乾道
成大
資政殿
崇信軍
康諝
大金國
山水河
保州
徐河
曹河
王祥
泗州
大口河
馬村
灰洞
涿州
歸德府
雷萬春墓
雷公
宋王臺
張巡
許遠廟
雙廟
雙王廟
雍丘縣
空桑
伊尹墓
伊公
陳留縣
留侯廟
孟莊
孟姜女廟
田彦皋
完顔德温
阿骨打
東御園
宜春苑
新宋門
朝陽門
弘仁門
麗景門
賓曜門
大相國寺
東御廊門
西御廊門
交鈔處
煬王
亮
正隆
河南
汴京
河南路
都亭驛
南都
湯陰
湯河
文王廟
中華
佛國
東御廊
欞星門
景靈
宣德樓
承天門
昇龍門
西角樓
鑰匙頭街
御廊
左掖門
東角樓
樊樓街
馬行街
封丘門
安遠門
玄武門
金水河
艮岳
藥市橋街
蕃衍宅
龍德宫
擷芳
擷景
喜春堂
八滴水閣
清輝橋
景陽門
柔遠館
柏鄉
光武廟
王郎城
洨河
趙州橋
横道
宫城廊
應天之門
通天
右翔龍門
日華
月華門
大安殿
敷德門
東宫
集英門
壽康殿
會通門
會通
承明門
昭慶門
集禧門
右嘉會門
左嘉會門
宣明門
仁政門
仁政殿
西上閣門
露臺
煬王亮
孔彦舟
天輔
元德
淑麗
温恭
慧明
封丘縣
胙城縣
胙城
穀熟縣
桂
瀟湘
錦城
吴郡
范成大
致能
廣右
少陵
退之
九疑仙人
萼緑華
艮嶽
萼緑華堂
梅聖俞
姑蘇
晏元獻公
王琪
君玉
館娃宫
方子通
簡齋
錢塘湖
會稽
四明
湖
武康
蘇
清江
任子嚴
凌風閣
盤園
海南
峒
蠻
大理國
馬伏波
龍隱洞
龍隱巖
七星山
曾公洞
冷水巖
曾丞相
隱山
朝陽
南華
北牖
嘉蓮
白萑
屏風巖
壺天觀
空明
興安
陽朔
繡山
羅漢
白鶴
華蓋
明珠
容州
都嶠
融州
靈巖真仙洞
伏波巖
試劍石
水月洞
宜山
佛子巖
鍾隱巖
讀書巖
獨秀峰
顔延年
薊
交
岷峨
常山
衡嶽
池
歙
黄山
括
雁蕩
韓退之
柳子厚
訾家洲記
桂州
黄魯直
桂嶺
桂山
昭平
臨賀
德慶
瀧水
邵陽
營道
毗那
自杞
大理
自杞國
邕州
羅殿國
謝蕃
羅孔
横山寨
善闡府
時磨
交趾
象山
欽州
右江
林邑
占城
邕
牡丹譜
番禺
賓
宜州
廣州
合浦
蜑
斷望池
安南
永樂
常恭
播流山
南丹州
莫氏
南丹
莫延葚
延廪
熙寧
欽
廉
郭逵
桄榔縣
西原
黄洞
武陽郡
黄家賊
延葚
永樂州
玉氏
南詔國
交州
龍編
桑江
傜
生徑
羅曼
左江
永平
太平
横山
漢武帝
交趾郡
洛陽
占城國
馬援
銅柱山
真臘
登樓眉
細闌
吐番
細闌國
故臨國
東大食海
大食國
西大食海
三佛齊
闍婆國
新羅國
高麗國
水晶宫
天元殿
安南都
護府
皇祐
智高
元豐
巴
湖廣
羈縻州洞
猺
獠
儂
儂氏
天祚
阿巳
阿謝
王二娘
瓊州
瓊
王宜人
二娘
富良江
福建
公藴
安南國
九真
日南
唐歡
愛
太平寨
桄榔
花步
富良
白藤
丹特羅
諒州
温潤寨
都貝大王
武州
唐史
東謝蠻
謝氏
羅殿
䍧牁
施公
大任
南江
特磨
白衣
九道
峨州
蘇綺
羅坐
夜面
計利
流求
萬壽
多嶺
阿悮
守羅殿國王
慶曆
廣源
西南蕃
大小張
大小王
謝
四道
安平
武勒
忠浪
七源
黄氏
安德
歸樂
露城
田州
武侯
延衆
石門
感德
尹子思
李邦正
阮文獻
元祐
南越國
黔南
融
宜
高峰寨
觀州
安平州
李棫
黄諧
智商
趙氏
五溪
静江
義寧
古縣
融水
懷遠縣
諸葛武侯
西屠夷
馬留人
騰
黎母山
黎人
生黎
熟黎
黎母
夜回
端拱
嘉祐
兩江
蘇茂
甲洞
房千里
異物志
唐志
飛頭獠
烏武獠
凌
羅
建炎
曹成
指山
王仲期
仲期
王仲文
顯應廟
王居則
陽焕
黎牟
黎王
雪河州
飛頭
鑿齒
鼻飲
白衫
花面
赤裩
靈川
臨桂
羅曼傜
麻園傜
黄沙
甲石
嶺屯
褒江
贈脚
黄村
赤水
藍思
巾江
竦江
定花
冷石
白面
黄意
大利
小平
灘頭
丹江
閃江
山獠
赤褌
會昌
羅殿王
守羅
羅吕
太史公書
幽陵
龍沙
蟠木
榮溪
施參政
南平王
交州記
南定縣
交陘國
郭璞
愛州
姜公輔
高峰
莫大王
譚友諒
思浪州
友諒
趙願
李德遠
珠崖
金蘭山
辰州
廣東
零陵
永州
江東
東江
登流眉
萬安
萬安山
連州
丁流眉
本草圖經
圖經
正夏堂記
南海
靈渠
興安縣
湘水
融江
牂牁
史禄
癸水
灕江
武后
大禮國
嚴關
關
交趾國
馬總
何履光
伏波
灕
海陽
賀州
桂嶺縣
陶隱居
隱居
陳藏器
靈寳方
抱朴子
衢
欒城
天隨子
紀行三録跋
紀行三録
范公
隆興
攬轡録
驂鸞録
吴船録
田園雜興
項建陽
秉仁
夏建安
國符
嘉靖
盧襄
金主
襃
耶律阿里
敬嗣暉
蘇保衡
魏子平
大興
李天吉
鄭子𣆀
趙可
高懷正
懷正
會陵
大定
會寧
廣樂園
子𣆀
利州
阜俗
天德
楊建中
天錫智勇正萬邦賦
翼城
貞元
不貴異物民乃足賦
金國
耶律阿烈
耶律
神麓記
梁球
耶律諶
球
廣軍
至能
醴泉觀
丹陽郡
信安郡
康湑
吴縣
孝宗皇帝
讀書附志
書録解題
通考
宋志
説郛
普
祕笈
契丹
耶律窩幹
居庸關
褎
紇石烈志寧
窩幹
南宋
燕京
長安
宋翌
金亮本末
石湖三録
建安書坊
寳顔堂
攬轡
驂鸞
桂海虞衡志
晁氏
讀書志
盧氏
眉公
嘉慶
通介叟
鮑廷博
趙晉齋
竹崦盦
薰風殿
李通
翟永固
韓汝嘉
永固
汝嘉
汴邑
江南
綦戩
戩
周氏
阿克占謙
保衡
雲中
鎮江軍
瓜洲
張真
趙甡之
遺史
梁尚書
浙西
李寳
密州
膠西縣
陳家島
態克
小曆
馮忠嘉
海道記
葛王
忠嘉
金國主
武德殿
胡勵
蕭廉
通
唐括
安禮
孝宗
洞霄宫
文穆
静江府
韓愈
虞衡志
粤
元結
浯溪中興
仰山
孚忠廟
寳大
吴江寺
錢氏
錢
武義
順義
乾貞
太和
吴越
吴任臣
十國春秋紀元表
韓文公
鮑氏
石湖紀行三録
桂海
周子功
溪蠻叢笑
東城顧氏
小讀書堆
復翁
周麟之
麟之
金主亮
金蘭
袁潄
六
潭州
袁卧
雪廬
石湖詩集
志果
志花
志草木
修仁
四裔考
志蠻
大牙山
馬氏
四裔類
陸
二十一種祕書
范石湖
白石先生
廢翁檀萃
黄鶴樓
敷文閣
志巖洞
志金石
志香
志酒
志器
志禽
志獸
志蟲魚
臨安
伏虎觀
黄休復
益州名畫記
杜甫
吴船志
平江
陳幾亭
王逸少
王述
岷嶺
蘇子瞻
函關
劍棧
昆陽
幾亭
陳士業
梁王
六朝
楊无咎
宋孝宗
嘉熙
淳祐間
趙希鵠
洞天清録
菊譜
范村梅菊譜
梅譜
墨海金壺
謝采伯
密齋筆記
史正志
胡少瀹
胡融
譜
史鑄
百菊集譜
衡州
石鼓書院
徂徠
金山
嶽麓
石鼓
蒸水
元子
磨崖頌
潮
西溪
唐李吉甫
齊映
至先
山陽驛
湖湘
衡山縣
嶽山
任詔
子嚴
薌林
凌雲閣
衢州
超鑒堂
施元之
德初
招賢市
子充
必達
子上
伯恭
向公
薌林堂
企疏堂
搴芳
黄羆嶺
馮公
五嶺
大營
汪公
聖錫
玉山
張幾仲
棲桐山
玉虚觀
王長史
許旌陽
蕭史洞
飛茅殿
仙茅碑
江文蔚
大中祥符
魏國
張忠獻公
萬安驛
桐廬
釣臺
嚴州
蘭溪
婺州
常山縣
信
玉山縣
信州
南嶽廟
武洞清
富壽堂
富壽岡
清江臺
閤皁
玉笥
臨江軍
宜春
湘山寺
無量壽佛塔
盤石山
玉髓泉
七里鋪
仰山師
傳燈録
小釋迦
獺經橋
大仰
顔淵亭
叔季泉
袁州
弋陽
貴溪
饒
安仁縣
餘干縣
琵琶洲
鄔子口
隆興府
滕王閣
東湖
許真君觀
姑蘇館
餘杭
文通
富陽縣
廣南西路
安肅
大通驛
赤門
臞庵
鄔子
龍王廟
豐城縣
寳氣亭
張雷廟
新喻縣
袁
分宜縣
施一靈
王阮
南卿
櫧州市
湘江
南嶽
嶽市
左顧亭
李公子至
德甫
沈度
公雅
孔愉
德清
孔侯
龜溪
城山
晚對軒
梅花邨
安溪
蒸
緑净閣
文公
潮陽
衡陽
滑石鋪
龍思泉
碧玉泉
張安國
靈川縣
秦史禄
八桂堂
八桂
始安嶺
吕源
岳麓
安興縣
秦城
祁陽里
浯溪橋
中興頌
峿臺
𢈪亭
次山
漫郎宅
浯溪禪寺
陶定
中宫寺
東青驛
報恩寺
瀟灑軒
文正公
桐廬郡
歙浦
休寧
漸江
孚惠廟
祠山
張王廟
仰山祖師
感化録
南昌樓
江月臺
龔實之
王士元
襟帶堂
衡嶽寺
集賢峰
善果尊者
孟氏
歐陽彬
勝業寺
御書閣
嶽
石廪
紫蓋
痀瘻
祝融
紫蓋峰
赤帝峰
臺寺
瑞應峰
般舟和尚碑
子厚
超化寺
兩山閣
鄭升之
公明
應辰
凌季文
季文
端明殿
顯謨閣
麟臺後志
景夏
孺子亭
詠歸亭
劉焞文潛
結舂陵
甫
肅宗
趙彦端
德莊
思賢寺
清音堂
清音
晁無咎
鼈洲
餘干
潭
琵琶
浮洲
前漢書
干越亭
回雁峰
衡山
花藥寺
醴陵縣
渌水橋
漉水
李金方
貴溪縣
金沙渡
桃花臺
龜山
上饒
湖州
宿横山
霅川
石林
大玲瓏
小玲瓏
長興
富陽
南嶽峰
盧仝
劍池鄉
故縣
錢塘
木湖灘
李浩
德遠
報恩
光孝寺
牛氏
歲寒堂
卞山
上天竺
白雲堂
西巖
承詔
葉公
羅漢巖
東巖
旌善寺
葉氏
玲瓏山
長興縣
沈氏
玲瓏
杜牧之
舍利寺
龍游縣
龍丘驛
瀟水
愚溪
愚亭
鈷鉧潭
萍鄉縣
三先生祠
新安
括蒼
羊裘公
西口
光華館
新堂
萬石堂
瀟湘樓
南臺寺
福州
聞人阜民
伯卿
周震震亨
滑州
李嘉言
聖俞
震亨
珞琭子
林開
饒州
撫州
南昌
宿港
范家池
龍游
金華驛
剡溪
桐廬縣
涵芬樓
知不足齋
王惲
宋光宗
紹熙
文淵閣書目
李心傳
郡齋讀書志
附志
周中孚
黄震
黄氏日抄
石湖居士詩集
州橋
范石湖文
乾隆
北京圖書館
中都
北京市
金代
中都路
至正
武英殿
周必大
平園續稿
資政殿大學士贈銀青光禄大夫范公成大神道碑
石湖集
石湖大全集
范成大佚著輯存
范成大著述目録
蘇州
梧州
宛委山堂
庫
文淵閣
古今説部叢書
古今遊記叢鈔
叢書集成
徽州
歙縣
新安江
少藴
張子顔
幾仲
汪應辰
凌景夏
龔茂良
實之
劉惇
文潜
向子諲
魏公
張孝祥
黄昇
中興以來絶妙詞選
眼兒媚
萍鄉
柳塘
一落索
南浦
菩薩蠻
湘東驛
滿江紅
謁金門
秦樓月
胡元高
馬海寺
石鼓山
中興頌碑
涵
宛
古今説海
古今逸史
周星詒
添色芙蓉花
康熙
顧嗣立
大全集
端臨
四裔
商務印書館
十通
宋太祖
印度
眉山
伏龍觀
九頂山
凌雲大像
普賢大士銅像
石湖居士吴船録
沈德壽
抱經樓
劍南詩稿
渭南文集
石湖菊譜
委山堂
劉蒙
北宋
行難
陸先生
送石洪處士序
石先生
洪
温造
造
孟東野
貞曜
吴筠
宗元
法真
元德先生
陶弘景
貞白
司馬承禎
貞一
潘師正
體玄
陳圖南
希夷
康節
安定
文潞公
程純公
明道
先生
劉器之
司馬公
吴氏
漫録
蜀志
匈奴
松之
太山
丈人峯
酉陽雜俎
張説
鑑
黄幡綽
後山
送外舅
註
宋元嘉
蘇鶚
演義
張燕公
胥
士冠禮
鄉飲酒禮
鄉射禮
崔靈恩
包氏
陳瑩中
陸伯思
瓘
王介
荆公
介
高后紀
班書
崔浩
隴西
劉玄佐
夷門
韓滉
玄佐
滉
柳氏家訓
楊於陵
章八元
於陵
柳子
厚
蒯通
漢註
明少遐
崔劼
徐鍇
王逸
顔氏家訓
嚴安之
京兆
韓王
安之
明皇
平等王
了翁
灊山
乾
淳
富鄭公
范文正公
洪景盧
曾吉甫
曾公
韓擒虎
涼州
擒虎
歐公
先主傳
獻
帝
董承
漢靈帝
董太后
獻帝
宋文帝
蕭思話
文帝
思話
孝懿后
周弘讓
陸機
與長沙顧母書
之推
高齊
元嘉
韋昭
毛氏
夏官
隸僕
鄭司農
李景讓
李琢
朱新仲
翌
王龜齡
陳君舉
蘭花供
素馨花賦
名園記
宋牼
石丘
冠
禮解
樂正子
曾子
武城
朱文公
沈猶行
叔孫通
猗覺寮雜記
楊詹事
獨孤氏
柳集
祭楊憑詹事文
祭獨孤氏丈母文
楊京兆
憑
誨之
寄許京兆孟容書
答周君巢書
送蔡秀才下第歸覲敍
馬暢
繼祖
韓丈人
任子淵
伍子胥
張率
薛十二丈
李四丈
韋左丞
鄭八丈
盧五
丈
韋大夫
潼關吏
奉寄河南韋丈人
李鄠縣丈人
别李義山
趙彦材
李義山
柳侯
邵堯夫
天容
伊川丈人
陳叔易
恬
嵩山
澗上
魏道輔
漢上丈人
陸龜蒙
江上丈人
寇萊公
翰府名談
萊公
光州
蒨桃
王克勤
曹州
皇甫湜
昌黎
密
進學解
施先生
陽先生
醉時歌
鄭虔
廣文館
田光先生
齊魯仲連先生
稷下先生
甪里先生
平原君
毛遂
毛先生
馮驩
燕易王
蘇秦
范睢
淳于髠
韓信
酈食其
北海
王先生
包孝肅
開封
包老
孝壽
李閻羅
董璉
寶祐
宋臣
張彦文
璉
阜陵
安吉
蘇氏
扁鵲
虢君
唐舉
蔡澤
司馬季主
宋忠
賈誼
東郭先生
衛青
王輔嗣
子路
漢陰
魏唐睢
秦王
南方艸木狀
南越行紀
南越
李南紀
韓吏部
李漢
韋齋
草堂
致中
黄長卿
李仁父
嶺
艮嶽記
武林
南粤
吕居仁
梁苑
洛陽名園記
漢王
陳平
平
東方朔
張禄先生
淵明
五柳
南齊
臧榮緒
被褐
王無功
五斗
醉吟
魯望
甫里
高漸離
宣元六王傳
淮陽憲王
張博
漢傳
且鞮侯
單于
師古
疏廣
高貴鄉公
裴秀
王瑩
義興
謝超宗
超宗
瑩
懋
張克
王儉
張纘
謐聿
纘
北齊
盧詢祖
邢劭
沈傳師
許孟容
傳師
談藂
丁謂
寇
文定
忠愍
王性之
蒲宗孟
曾肇
宗孟
寇忠愍
丁晉公
丁
肇
致堯
晉公
子固
潘安仁
關中
劉灣
雲南行
曹公
陳陶
無定河
漢文帝
趙充國
王忠嗣
李廣
虞翊
項羽
白起
韓香
南徐
香
雜傳
五代
杭州
錢塘宫
行宫
寧和門
北宫門
祥曦殿
朵殿
後殿
慈元殿
天章
垂拱殿
延和殿
端誠
集英
崇德
講武
麗正門
南宫門
外宫門
導春坊
凝華殿
瞻菉堂
彝齋
繡香堂
繹已堂
楊太后
慈明堂
射圃
博雅樓
陽春亭
清霽亭
玉質亭
綉臙廊
梅崗亭
冰花亭
水月境界
澄碧牡丹
伊洛傳芳
冠芳
鶴丹
天闕
清香堂
本支百世
佑聖祠
慶和
慈濟
得真
洞庭佳味
昭儉
架雪
賞靜
天陵偃蓋
日本國
翠寒堂
碧琳堂
觀堂
吴知古
三茅觀
芙蓉閣
小西湖
清漣
凌虚樓
瑞慶殿
損齋
緝熙
崇政殿
欽先孝思
復古
紫宸
福寧殿
射殿
選德
坤寧殿
睿思殿
東華門
范十郎
雲間
鶯鶯
燕燕
豫讓
智伯
讓
楊彪
修
郄愔
超
桓温
戰國
無忌
田文
趙勝
黄歇
侯嬴
毛薛
蒙驁
勝
歇
李園
楚國
魯隱
泰伯
列傳
商臣
建成
高沙
榮全
毛惜惜
全
潘紫岩
淮海
杲卿
大慶
紫宸殿
集賢
延和
垂拱
李邯鄲
復圭
壽朋
德芻
項平甫
曾仲躬
王仲言
賀方回
房
廪
常子然
瓌
河朔
常氏
子然
任佚
美向
周任
史佚
叔向
鮮于氏
可
參
噩
賀
常
平甫
孫和甫
朴
埜
戇
慤
韓蘄王
直
質
吕渭
儉
謝莊
颺
朏
顥
嵸
瀹
漢史恭
曾
魏太武
寇謙之
靜輪宫
唐武宗
趙歸真
正光
周顯德
元氏
江氏
趙德麟
侯鯖録
襄州
穀城縣
夫子廟
士昏禮
方氏
儀禮疏
咸陽
臨洮
長樂宫
董卓
中平
畢嵐
蒼龍
玄武
魏明帝
景初
霸城
司馬門
酈氏
黄初
李長吉
明帝
青龍
緗素雜記
石虎
張彌
鄴
赫連勃勃
鳳翔
義熙
統萬
嬴秦
駱越
宣德殿
上西門
平樂觀
武帝
東門京
金馬門
晉灼
建始殿
石氏
苻氏
薊子訓
索靖
索
赫連
令狐綯
宣宗
治平
神宗
鄭毅夫
内東門
吴文肅
張文定
王岐公
吕申公
吕汲公
范忠宣
周益公
虞雍公
選德殿
益公
史忠定
澄碧殿
太史公
夏本紀
帝禹
帝履癸
帝桀
殷本紀
帝太甲
孔氏雜説
夏紀
殷紀
周武王
譙周
帝甲
帝辛
董公
吕公
夏黄公
東園公
蓋公
泄公
申公
吴公
司馬德操
龐德公
龐公
于定國
于公
夏侯嬰
滕公
嬰
薛公
郯公
孔融
高密縣
鄭公鄉
鄧公
商山
房公
琯
衛武公
虢文公
鄭桓公
太公
白公
浩公
墨君堂
范曄
漢史
鄧禹
吴漢
伏公
湛
弘
牟公
袁公
安
李公
固
陳公
寵
橋公
崔公
烈
胡公
王公
龔
楊公
彪
荀公
爽
皇甫公
嵩
諸葛公
馬公
顧公
張公
韓公
富公
蘇公
洪氏
顔延之
何偃
偃
延之
顔公
後唐
九經
毋昭裔
唐明宗
馮道
李愚
田敏
後周
廣順
高從誨
揮麈録
王蜀
陶岳
五代史補
明宗
李鍔
仲言
鍔
鄭覃
金石録
李鶚
鶚
益州
兩朝國史
柳氏家訓序
中和
燕語
沈存中
馮瀛王
五季
高帝紀
武負
陳丞相世家
張負
絳侯世家
許負
王媪
如淳
曲沃負
魏大夫
如耳
女清
馮
漢惠帝
張后
義
少帝
不疑
朝
太
孝惠
吕氏
宣平侯
孝惠皇后
吕后
張敖
敖
吕太后
孝惠帝
吕禄
平昌侯
吕王
張辟疆
濟川王
淮陽王
常山王
外戚世家
齊王
高后
淮陽
代
琅琊王
駟鈞
代王
薄氏
高帝
渭橋
宋昌
竇長君
平勃
惠帝
外戚恩澤侯表
恩澤侯表
孟堅
趙中令
王貽孫
祁公
溥
天后
大和
幽州
張建章
渤海國記
國史
王貽孫傳
天聖
明肅太后
薛簡肅公
貽孫
簡肅
汪聖錫
端明
燕語證誤
周昌傳
昌
周宣帝
則
天
明肅
簡肅墓誌
汪氏
宋子京
謁廟賦
程氏
考古編
天元靜帝
大象
周昌
隋志
朱文公語録
范質
杲
則天
樂府
大祝
范杲
杜子春
南北朝
程泰之
項氏家説
安世
天元
王建
建
陝州
元魏
正始
唐代宗
元載
王縉
宋敏求
東京記
太平興國寺
龍興寺
顯德
昌陵
義烏
普門寺
普門山
金華洞天
毛
歸真
林靈素
政和
輔正亭
張知甫
可書
温公
潞公
政
東魏
高澄
馮翊公主
靜帝
章敬吴后
代宗
王毛仲
高力士
姜萼
張德
杜肅
禄山
貴妃
賀子由生孫
玉壺野史
曹武惠王
武惠
吕成公
龍朔
旭輪
陸務觀
馬永卿
亳州
永城
王鞏
王學士
童蒙訓
滎陽公
瓌寶
雜誌
張正素
\U000f59c0
東萊公
楊器之
寶
東萊
楊應之
應之
吕進伯
仲尼
高祖
季
袁種
絲
王丹
侯霸
霸
君房
江北
王元景
雲
續家訓
魏常林
伯先
庾翼
爰客
孫盛
盛
放
庾稚恭
侯昱
昱
顔氏
董氏
續訓
石仲卿
哀公
尼父
仲山甫
尹吉甫
山甫
吉父
左丞
介甫
蘇季明
張横渠
農師
鶴山
魏氏
常熟
柳宗元
有子
閔子騫
淵
弓
游
禮運
言
子思
答張行甫書
子房
君實
仁仲
敬夫
元晦
答羅愚書
題韓氏墓誌後
冉
回
雍
閔子
子騫
閔氏
冉有
無已
王平父集序
南豐先生
南豐
唐立夫
歐永叔
田敬仲世家
田乞
景公
田氏
謂
晏子
羑里
周紀
淮南王
諫伐閩越書
服虔
瓚
江表
項昭
服
天津
司馬光
却掃篇
朝野雜記
維揚
靖康
磁
宗汝霖
汪彦章集
行在百官謝許乘輿轎表
思陵
北盟集編
開封府
丁特起
靖康録
陸放翁
宋法帖
陳文惠
堯佐
希元
文惠
黄氏法帖刊誤
柳少師
誠懸
顔籀
丞相衡傳
逸少
敬謝帖
遠公集
盧循
與遠書
范陽
盧子先
黄長睿
張晏
匡衡
鼎
稚圭
貢禹
匡鼎
顔師古
長睿
萇弘
劉文公
孔仲尼
孔丘
陳惠公
淩陽
靈臺
宰我
梁丘據
齊君
梁丘子
梁丘
東郭亥
丘
子張
文祖
師
帝典
洛誥
五誥
三王
季桓子
桓子
上甲微
五嶽
孟懿子
周文王
牖里
懿子
賜
由
齊景公
陳氏
孟侯
公西赤
乾卦
坤卦
通介堂經說
仲翔
夬
張皋文
周易虞氏義
周易集解
周易鄭注
注疏校勘記
說文
宋衷
李軌
論語釋文
斯干
孔子世家
費
古文易
王弼
論語古訓
四書考異
黃
論語後案
歸妹
王皇后
蕭淑妃
武昭儀
象傳
茹三樵
周易二閭記
茹
毛西河
季彭山
三樵
蘅洲
詩瀋
三家拾遺
易學
周乙齋
尙書未定稿
越諺釋
易說
書義拾遺
四書貫約
夏小正輯注
家語證僞
韻學攷源
今韻津
史漢義法
史記蒙拾
廟制問答
刑法表
南中日札
荼閭
𧅁閭
白鷺洲
歸安
葉聞沚
易守
師誠
潘文恭
佩蓀
丹穎
聞沚
紹楏
琴柯
紹本
紉之
筠潭
山西
葉
朱文正
王述庵
道光
京
王厚齋
棟
惠言
李文貞
朱文端
奇齡
焦
循
煦
函書
乾坤
莊珍埶
龜茲王
孔冲遠
輔嗣
高貴鄕公
淳于俊
高貴
漢志易經
尙書
大小夏
齊說齊故
齊傳
韓說
費直
陳元
鄭衆
荀爽
七錄
後漢書儒林傳
易注
月南
庚辰讀易記
毛詩後箋
地名考證
穀梁傳時月日釋例
漢書別本
禮記長義
大學中庸講義
四書因論
許氏說音
說文後解
太玄後知
金隄大義
宣西通
算牖
步緯簡明法
立天元一導竅
擢對
半古叢鈔
味無味齋文集
騈體文
壹籟詞
唐確愼
陶文毅
澍
總論
易圖
易理
易數
易用
易表
易確
邵
易傳
北堂永慕記
吳孺人
永慕記
庚辰學易記
陶應榮
記論古義
記辨新解
記申肊見
記存餘說
困上九爻
困
江南可采蓮詩
引之
何治運
文言
雞鳴
六書音均表
十翼
說卦
序卦
雜卦
弼
韓康伯
周易繫辭
爻辭
彖象
丁儉卿
周易述傳
楊誠齋
莊簡
周易訟卦淺說
廣陵思古編
儀徵
方申
周易五書
周易互體詳述
周易卦變舉要
虞氏易象彙編
諸家易象別錄
周易卦象集證
汪
端齋
方
皇
邢
戴東原
釋車
段懋堂
凌曉樓
四書典故覈
戴
式三
皇侃
義疏本
張參
高麗本
實知篇
急就章
傅介子
太玄注
皇偘
論語義疏
日本
孝經孔傳
孝經鄭注
江熙
樊光
王朗
張憑
梁冀
殷仲堪
沈居士
沈峭
熊埋
褚仲都
顏延之
顧歡
秦道賓
太史叔明
琳公
虞喜
論語新書對張論
張封溪
公冶長
論釋
顧歡傳
經典釋文序錄
義疏
申苞
顧
鄕黨
老
戴顒
中庸注
郭象
袁宏
孫綽
蔡謨
宋明帝
梁元帝
智略
慧琳
朱蓉生
蓉生
孫頤谷
論語類考
孟子雜記
應城
陳士元
心叔
灤州
灤志
章
學誠
文史通義
江漢叢談
類考
桓寬
桓寬傳
孟軻
楊忠愍
大舜
豐坊
張璁
論語𥡴求篇
祝鮀
宋朝
唐棣之華
王祥傳
祥
唐棣
顏子
輈人
潘壬
潘丙
濟王
李全
彌遠
太湖
謝周卿
史彌遠
王元春
彭任
淮安
秦天錫
天錫
巴陵郡公
魏了翁
真德秀
洪咨夔
潘枋
胡夢昱
申生
戾太子
廷美
夢昱
象州
紹定
剛簡
中夏
羯胡
濟邸
雍熙
秦邸
德秀
太平興國
王溥
康定
呂夷簡
傅伯成
楊簡
柴中行
趙蕃
劉宰
陳宓
徐僑
伯成
宓
僑
趙䈣夫
䈣夫
崔與之
楊長孺
楊邁
寧考
羅點
光宗
侂胄
趙范
趙葵
全子才
谷用安
起范
杜杲
汴
合肥
李伯淵
范用吉
崔立
寸金淀
壽
子才
嵩之
南滁州
樊辛
王安
鄭州
潼關
李先
胡顯
徐敏子
楊誼
廬州
敏子
和州
張迪
迪
楊義
洛水
梁成大
真公
建寧
宏詞坊
靖州
王定
咨夔
韃靼國
大河
關陜
三門
析津
邳州
源雀鎮
汀郡
陳鞾
晏頭陀
夢彪
寧化
清流
將樂
南劍
鞾
南劍州
曾式中
陳萬
潭飛磜
蓮城
京東
季先
李平
許國
楚州
杜耒
耒
國
灣頭
葵
徐清叟
巴陵
史丞相府
洪舜俞
汾陽
馮榯
史嵩之
鄒伸之
伸之
寧宗
荀夢玉
王宣撫
開禧
理宗
余天錫
李知孝
薛極
胡榘
聶子述
趙汝述
江淮
儀狄
南威
端平
兩淮
諸葛亮
扁
朐山
胡義
京湖
荆襄
舒
大學章句
唐州
楊侁
襄陽
郭勝
蔣應
侁
江海
隨州
棗陽軍
劉子澄
趙楷
棗林
子澄
桓溪山
上閘口
余哲
普州
順慶
潼川府
成都府
曹友聞
淮甸
蔣峴
方大琮
劉克莊
潘昉
徐鹿卿
安豐軍
吕文德
淮右
安豐
周坦
邵澤
澤
定一亭
察罕
巢湖
公安
淮河
庶
聶斌
軒帝
緱山
楊玄敬
獨孤知元
何某
濜口
溟
渤
峒山
曼倩
雉川
非熊
謙之
子平
華胥
蓬島
祗林
唐堯
宋祖
漢宣
炎漢
瑞圖
唐叔
嘉禾篇
旅
軒皇
隴
褒
汧
玉清
真元
紫極
至德
興聖
錦江
張潛
黄軒
周武
吴岳
桑簡
亳社
商受
回中
灞上
鑒聖真人
嵩公
神堯
梁武
黄萬祐
萬祐
錦水
百經
羅江
玉局化
天漢
龍興觀
玉局
老君
北邙化
五帝
三皇
玄元
元帝
散關
三秦
孝武
唐高宗
仲謀
玄德
淮水
蓬宫
王廙
瀨鄉
圖澄
羅什
龜兹
法静
身毒
罽賓
三滿多
吕延昌
玉塞
金河
班定遠
烏孫
張博望
青海
崑嶠
鍾山
葱嶺
大蜀
頊
紫霞洞
天竺國
蓬
川后
鎬
漢惠
豐沛
漢祖
邠
周文
啓后
楚國夫人
宋國太夫人
北帝
廣州府
新會縣
正統
國子監
景泰
成化
彭韶
兩廣
朱英
陳景星
陳景暘
李伯藥
王通
應
薛收
三百篇
河汾子
朱公
認真子集
白沙
陳獻章
蒼梧
魏野
寇公
永興
野
通州
羅浮
李德孚
文溪先生
文溪
德孚
孟軻氏
澹齋先生
秫坡
黎先生
黎秫坡
澹齋
羅山
伍氏
汴梁
嶺南
新會
緑圍
伍
朝佐
朝愷
氓
光宇
南山
尋樂
寶安
林光
琰
伍光宇
絢
裕
五羊
張詡
廷實
李世卿
崑崙峰
世卿
丁氏
寧都
園村
關西
剛説
孫先生
介夫
孫氏
七二居士
湯氏
南雄
古岡
統
有容
退菴
鄧先生
溥英
貴奇坑
馬持國
紹端
弘治
李承箕
大庾嶺
都憲公
承恩
北京
世
卿
大雲山
茂卿
大崖山
飛雲
望雲思親圖
古岡病夫
李令伯
陳情表
令伯
匡廬
白鹿
考亭
朱晦翁
翟公
南康
李先生
白鹿書院
恥菴
陳先生
鍾公
冷菴
李士達
劉希孟
東白
張先生
彭公
吉水
袁德純
李生
劉生
陶公
丁侯
何子有
味月亭
羅浮道士
子有
容生
許文正
文正
道學
聞蛙
聞杜鵑
示跛奴
詰李翁奴
送西賓筆
永豐
李立武
蓬萊館
仰天湖
崑崙
李君
一峰
羅先生
容貫
清極
木齋
莊先生
江浦
范規
規
東圃翁
西江
花山
東圃
曹溪洞
陳子昂
真
昭信
世祖
伯顔
積谷口
姚氏
子成
井頭
亨甫
河口
通甫
洪武
子和
通甫君
劉先生
宋仁宗
忠襄
余公
蔡君
謨
韶
錢君
鏞
風采樓
張文獻
風度樓
英
曲江公
菊坡公
顔淵
顔子
立山
樂安
謝公
綬
廬陵
彭君
栗
蒙州
立山縣
古眉
獞
荔浦
李恭著
平樂
輔
桂山巖
時可
水調歌頭
劍門關
菊坡
青門
緑野
裴
虎門
李白
釋氏
子思子
楊朱
墨翟
季路
顔回
告子
北宫黝
孟施舍
園
綺
啓
軒轅
陶唐
廣成子
崆峒
許由
箕山
軒
太顛
望
叔齊
首陽山
首陽子
辛
姬發
匡
范蠡
勾踐
種
中
飛廉
華士
光武
嚴陵
卓茂
伏湛
蔚宗
魏武
吴三桂
聖祖
雍正
世宗
魏文帝
明治
楚靈王
漢武
司馬相如
主父偃
嚴助
吾丘壽王
霍去病
陳湯
班超
唐太宗
魏徵
劉洎
馬周
伏伽
褚遂良
魏元忠
宋璟
張九齡
馬皇后
明太祖
蔣
歐洲
華夏
康子
坤
咸
恆
既濟
未濟
羿
浞
和緩
倉公
屯
革
楊子
程子
漆雕開
子賤
世子
禮緯
春秋繁露
周子
羅馬
墨西哥
子莫
耶穌
囘
馬哈麻
伏羲
熹
廣漢
張敬夫
西銘
張閎中
東見録
横渠
睽
家人
彖傳
離
太極
誠
動静
理性命
李仲通銘
程邵公誌
顔子好學論
潘清逸
太極圖
胡氏
潘
誌
潘公
易通
圖説
進易説表
陳摶
种放
穆修
五峯
胡公仁仲
通書序
种
穆
遺事
事狀
建安
清逸
臨汀
楊方
營道詩序
舂陵
張忠定公
敦頤
茂叔
程夫子
太極圖説
延平
誠幾德
慎動
化
愛敬
聖學
過
刑
太極説
家人睽復無妄
敦實
盧溪鎮
分寧
太博
思永
吉
益州路
巴川郡
渝州
巴川
温泉
合州
周敦實
邵州
周敦頤
兗國公
文宣王
周一
韓姐
百一
百二
善善
周三翁
周幼二
顯鶴
同人説
傅耆
讀易窗
任所寄鄉關故舊
余從周
元禮
孫儼
王深之
長源
沈遯
睿達
樂岳
惟嶽
陳藻
君章
項隨
持正
梁宏
巨卿
荆湖南路
程濬
治之
鞠拯
道濟
朝陽洞
伏羲氏
神農氏
河圖
張子
説卦
易源奥義
周易原旨
保巴
普菴
進太子牋
黄州路
牋
黄虞稷
千頃堂書目
方回
牟巘
巘
易體用
朱彝尊
周易尚占
陳繼儒
秘笈
大德
瑩蟾子
李清庵
守寸雙田
明堂宫
洞房宫
丹田宫
流珠宫
玉帝宫
明堂
天庭宫
洞房
極真宫
丹田
玄丹宫
太皇宫
流珠
玄丹宫經
太極帝君
玉清神母
上清真女
真極宫
太極帝妃
太上君后
守寸
黄闕
紫户
絳臺
青房
平静
法王
正心
切方
太上
三一
明童真君
玄陽
少青
明女真君
微陰
少元
明鏡神君
照精
黄闕紫户玄精之室
無英公子
白元君
黄老君
雲林夫人
英明
泥丸
方丈
太上四明王經
洞經
天蓬
炎帝
北斗
羅酆山
紂絶陰天宫
太殺諒事宗天宫
明晨耐犯武城天宫
恬照罪氣天宫
宗靈七非天宫
敢司連宛屢天宫
酆都
石笥文
項梁城
酆宫頌
紂絶
諒事
武陽
恬照
七非
連宛
太虚真人南嶽赤君
太一
太霄
含真臺
張微子
東華玉妃
杜廣平
介琰
長壽
李昭德
周世宗
武行德
景祐
王曾
定鼎門
明教
宜人
淳化
安業
修文
尚善
樂和
正平
修行
崇業
修業
旌善
尚賢
敦行
崇政
宣範
恭安
勸善
惠訓
道術
歸德
康俗
敦化
道化
温柔
擇善
道德
仁和
正俗
修善
思順
福善
惠和
安衆
興教
宣教
陶化
嘉善
通利
樂成
安遠
慈惠
上林
游奕
尊賢
章善
賢相
臨闤
延福
富教
詢善
銅駝
崇讓
履道
履信
會節
綏福
從善
睦仁
嘉猷
里仁
永通
利仁
歸仁
懷仁
仁風
靜仁
延慶
寧人
寬政
淳風
宣風
觀德
積善
從政
大同
承義
明義
教義
廣利
通濟
懷義
淳和
北里
承福
立德
清化
道義
道政
永福
思恭
歸義
履順
進德
温洛
景行
北市
鄰德
敦厚
修義
時泰
時邕
立行
殖業
豐財
教業
毓材
德懋
毓德
審教
積德
賜福
教善
興藝
通遠
河南府
𤄊水
王城
郟
鄏
下都
穀水
隋煬
蘇威
伊闕
邙嶺
紫微城
河南縣
正大
承福門
中京
金昌府
府城
敬王
子朝
魏舒
狄泉
漢高祖
婁敬
張良
河南府路
路門
應門
雉門
庫門
皋門
路寢
燕寢
帝王世紀
王都
晉元康地道記
洛城
洛陽記
洛陽城
華延儁
周敬王
洛陽縣
元康地道記
北宫
南宫
卻非殿
白馬寺
芳林亭
奉常亭
廣世亭
昌益亭
廣莫亭
定陽亭
遮要亭
暴室亭
廣陽亭
西明亭
萬歲亭
文陽亭
東明亭
視中亭
東因亭
建春亭
止姦亭
德宫亭
東陽亭
千秋亭
安衆亭
孝敬亭
清明亭
芳德殿
清暑殿
靈圃殿
承光殿
永寧殿
景福殿
延休殿
虞淵殿
洞冥殿
安昌殿
明光殿
萬年殿
東堂
西堂
宣猷堂
堯母堂
長壽堂
則百堂
螽斯堂
休徵堂
延禄堂
承慶堂
仁壽堂
綏福堂
含芳堂
樂昌堂
椒華堂
芳香堂
顯成堂
承光堂
五福堂
嘉寧堂
桃間堂皇
金光閣
清陽閣
朱明閣
承休閣
安樂閣
白藏閣
顯仁閣
崇明閣
章德閣
飛雲閣
安世閣
長安閣
文成閣
明慶閣
崇陽闥
延明闥
明闥
修雲闥
通福闥
徽音闥
承休闥
元明闥
元暉闥
崇禮闥
白藏闥
羲和温房
顯昌坊
修成坊
綏福坊
延禄坊
休徵坊
承慶坊
桂芬坊
椒房坊
舒蘭坊
藝文坊
鳳凰樓
伺星樓
東陽門
東安里
司馬悦
濟州
刁宣
李直奴
公孫讓
暉文里
隋煬帝
冬至乾陽殿受朝詩
牛弘
奉和冬至日乾陽殿受朝應詔
望春門
清夏門
興安門
昭仁門
迎秋門
遊義門
籠煙門
靈溪門
風和門
靈圃門
禦冬門
膺福門
延光院
上清觀
乾元殿
春暉門
秋景門
燭龍門
明福
崇賢門
集賢殿
長壽殿
仙居殿
億歲殿
同明殿
元圃門
宣仁門
天眷
宣聖廟學
考古通訊
考古學專刊
陳公柔
趙萬里
元河南志
河南府總圖
大祀殿圖
河南府路廨宇圖
河南郡邑山川圖
嵩嶽之圖
東洋
文庫
平崗武夫
唐代長安洛陽
繆荃孫
曹魏都城圖
西晉京城
顧祖禹
魏文
萬曆
海寧
延
柦
查
胥臣
文徽公
伯圭公
檇李
園花鎮
劉青田
伯圭
審山
東山先生
談遷
海昌外志
徐氏
查懋功
慈溪
劉憲龍
破鏡行
茅鹿門
半鏡贊
肇翼
祖信
繼泉
范孺人
先大父述略
汪五峰
先子節記
桂北海
爾翰公
騰仲
效翁
川翁
菩提庵
鄭方叔
杜生
六合
水棊杜
水棊
王樂水
江濟寰
趙君融
盛符先
沈似蘿
釣玉軒稿
濤
沈陵
荆本澈
郭店
馬聖
桐鄉
陸晉
于畏五
蒲留仙
鈕玉樵
吴順恪
鈕
長明寺
放鶴亭
王阮亭
蔣心餘
吴啓豐
順恪
葛如
外紀
許夢椽
事記
崇教寺
董穉升
釣玉軒
陸生
與之
陸與之
鮑子班
許效翁
子班
山陰
篝鐙雜綴
祝開美
賈心直
歸德衛
闖
宛平
世寧
孫忠烈
燧
王文成
守仁
博庵
温烏程
仲方
沈起
起
敬修堂
子丑程墨戒
丁丑房書戒
柔些
廣陵
汪蛟門
春風裊娜
宗定九
查氏
蝶粉
留些
李太虚
葉些
杜于皇
葉些歌
澄些
珊些
梅些
紅些
雲些
月些
海昌
范文白
朱近修
觀社
徐邈思
沈聞大
曉社
吴門
旦社
己卯墨戒
徐勿齋
勿齋
勿翁
孫枚先
查伊璜
枚先
慎行
悔餘
嗣璉
夏重
他山
查田
初白菴
初白先生
黄宗羲
逸遠
禾郡
族譜約編
選佛詩傳
長繡樓集
初白老人
梅花園存稿
謹
濬安
信菴
眉石公
\U000f0c86繼
逸遠公
叔寶公
嗣珪
叔寶
克承
葛太君
王安石
四庫全書目録
托克托
趙彦衞
雲麓漫抄
考略
安石
邵氏聞見録
司馬
涑水記聞
臨川文集序
金谿
危素
太樸
黄次山傳
季岑
龍圖閣
庭堅
陸佃
豫章
玉照新志
元祐黨碑
玉照
紹聖
宋室
澗泉日記
韓止仲
元吉
維
億
止仲
持國
陸文安
荆國祠堂記
臨川王文公集序
草廬
遺書
大全
虞伯生
重建文公祠記
至順
撫州路
塔不台侯
吳公
荆國
田
陸公
九淵
鹽步嶺
吳
應雲鸑
鄞
江寧
王臨川文集序
章袞
臨川
陝西
學庸口義
章子瑣言
曾鞏
歐陽修
鄞縣
舒州
文彦博
常州
開有益齋讀書志
無錫
震滄
海豐
吴仲飴
津
天禧
涑水
露
馬蠻
温公年譜
劉承幹
荆公祠
彭樂君
吕惠卿
田登
顧棟高
玉停
汴宋
神廟
靈
燕昭
望諸
昭烈
諸葛
交阯
西夏
曾子固
上歐陽書
歐
至和
墓志銘
仁宗本紀
哲宗本紀
鄞女墓志
蘇潁濱
馮京
宋稗類鈔
上殿
惠卿
與吕吉甫書
陳州
吕獻可
講官議
伊川
老泉
觀之
用之
永安縣君
捐之
詠
昇州
舜良
祥符
新淦縣
廬陵縣
新繁
韶州
江寧府
安仁
常甫
安道
勤甫
和甫
安上
純甫
康國公
楚國太夫人
吴君
畋
墓志
先大夫述
王荆公
日録
畫虎圖
送陳興之序
恕
興之
如皋
憶昨
正之
同學一首别子固
鞏
河北
丕烈
紹武
紹甫
蕘圃
蕘夫
蕘翁
老蕘
復初氏
宋廛一翁
求古居士
求古居主
讀未見書齋主人
聽擬軒主人
秋清逸士
廿止醒人
見獨學人
陶陶軒主
復見心翁
學山海居主人
抱守老人
長梧子
知非子
半恕道人
民山山民
員嶠山人
佞宋主人
蘇州府
長洲縣
秀陸
江甯
琅
耐奄
承勳
任達
文瑞樓
陸敕先
滋蘭堂
惠松崖
大戴禮記
錢磬室
吴地記
吴郡圖經
吴琯
沈書山
吴郡圖經續記
匪石
顧亭林
郡國利病書
杜詩
王復齋
鐘鼎款識
義門
隸續
東家雜記
錢叔寳
鄭注儀禮
左傳注
周漪塘
隸釋
太平寰宇記
淡生堂
林和靖集
穀梁注疏
謝宣城詩集
顧五癡
急就篇
京房易傳
樊川集
顧㵎蘋
林和靖先生詩集
顧云美
顧抱冲
抱冲
夏方米
北山小集
黄蕘圃
黄君
稼軒長短句
㵎蘋
玉峯
丁鶴年集
葉德榮
法帖刊誤
圖畫見聞志
孫真人
千金方
鈕匪石
楓橋
袁綬階
孟浩然集
錢杲之
離騷集傳
雲莊四六餘話
岳
吕夏卿
唐書直筆新例
錢竹汀
陳曼生
顧南雅
紅椒山館
南雅
分得子字韻詩
紅椒
曼生
錢疁田
魚玄機詩
才調集
朱慶餘詩集
五柳居
宗羲
太沖
南雷
忠端公
餘姚
通德鄉
黄竹浦
甬
大江
梨洲先生
文孝
未孩
山東道
陶
靈運
潯陽
柴桑
德安縣
楚城市
命子
陶氏
侃
淡
孟嘉
從都還阻風規林
始作鎮軍參軍經曲阿
還舊居
游斜川
赴假還江陵夜行途中
祭妹文
爲建威參軍使都經錢溪
歸去來辭
彭澤
王休元
龐通之
栗里
休元
九日閒居
周續之
檀韶
續之
示周掾祖謝
潁水
江城
劉遺民
和劉柴桑
酬劉柴桑
南村
移居
遺民
劉柴桑
酬丁柴桑
始安
劉穆之
自祭文
擬挽歌
誄
蕭統
形贈
影答
神釋
王雪山
吴斗南
劉牢之
長沙郡公
昭明太子
宋高祖
沈約
李延壽
陶潛集
西齋録
示龐主簿鄧治中
晉紀
五行志
太元
始興
崔杼生
東郭氏
與子儼等疏
翟氏
經曲阿
曲阿
丹陽縣
李善
元興
善
葛文康
阻風規林
夜行塗口
七月赴假還江陵夜行塗口
葉少藴
隆安
桓玄
劉裕
大亨
仁傑
從都還阻風
答龐參軍
龐
建業
祭程氏妹文
阻風
飲酒
永始
敬遠
夷叔
榮木
連雨獨飲
桓振
劉懷肅
振
懷肅
使都經錢溪
田生
毛子
韓子蒼
淵明傳
歸去來序
東坡先生
微生高
於陵仲子
桓氏
劉寄奴
歸園田居
陳述古
江淹
田居
與殷晉安别
安南府
武帝紀
殷景仁傳
殷晉安
景仁
祭從弟敬遠文
雜詩
祖企
謝景夷
周生
祖
蕭德施
廣固
儼
俟
份
佚
佟
責子
擬挽歌辭
於下潠田舍穫
怨詩楚調示龐主簿鄧治中
劉柳
周續之傳
柳
贈羊長史
松齡
秦川
角
王弘
永初
讀史述九章
辛丑嵗七月赴假還江陵
思悦
乙巳嵗三月經錢溪作
晉氏
桃花源
桓靈寳
述酒
山陽
山陽公
馮衍
顯志賦
靖節
斜川
營陽王
景平
何法盛
中興晉書
始安郡
湘州
屈原
贈長沙公
長沙公
陶侃傳
瞻
琦
旗
斌
稱
範
侃傳
咸和
庾亮
綽之
延壽
吴昌侯
吴昌
咸康
興寧
式
格
令
甲乙
脉經
張仲景
小品
集〔驗〕
黄帝針經
脉訣
流注
偃側
亦（赤）烏神針
集驗
黄帝鍼經
赤烏神鍼
天聖令
開元令
田令
仁井田陞
唐令拾遺
池田温
唐令拾遺補
戴建國
養老
令義解
令集解
唐令
賦役令
大寶令
養老令
惟宗直本
元慶
唐廣明
古記
天平
令釋
迹記
穴記
延曆
日
唐日民户授田制度相異問題試釋
唐朝
唐六典
天圣令
宋令
近衛
冊府元龜
唐律疏議
唐令拾遺補補訂
楊際平
汪籛
唐田令試釋
永徽
元典章
宋刑統
明鈔本天聖田令和開元田令之外的令文問題
户部式
天山縣
户部
屯田
工部
工部式
屯田格
邦計部
俸禄
唐會要
貞觀
雅
頌
神考
南陽郡
開國公
韓維
太原郡
開國侯
王存
崇慶
隆祐
虞帝
淮徐
王尊
叔圉
龔遂
國僑
仲山
汲黯
晁錯
潘岳
開國伯
任
姒
富平
考父
皋
丙
楊綰
王綬
有唐
黄霸
傅説
姚崇
劉邵
皇覽
史攷
皇謐
班斿
狐
蓬萊
東野
次孺
留
漢帝
絳
小毖
鳧鷖
甘泉
太姒
東秦
漳浦
茂陵
觀文殿
蘄州
坎
坎離匡廓
三五至精圖
漢上易説
圖解
既
真元經品圖
太極先天
摶
先天
參同
蔡季通
匡廓
鼎器歌
道藏
漢上
徽宗
周惇實
惇實
英宗
易緯
鉤命訣
禪源銓集
原人論
乾坤鑿度
易註
老氏
杜順
華嚴疏
汲冢周書
後秦
僧肇
論中和集
上方大洞真元妙經品
藏
真元聖主
趙宋
濂溪傳
景盧
邁
洪容齋
容齋
蘇子容
陸子靜
子靜
與陸梭山書
性理
陸子
度正
張忠定
書周子文集後
周集
大易
禪源諸銓
上繫
朱元晦
乾鑿度
劉瓛
論語集註
虞仲翔
頤
大過
小過
中孚
漸
蠱
隨
東都賦
楊升庵
何平叔
論語集解
平叔
淮南鴻烈
張平子
班孟堅
先主紀
漢中王
新莽
孫竦
陳崇
朱子發
叢説
仲氏易
推易始末
孝宣
河内
荀爽集解
朱氏
荀氏集解
説卦傳
子夏傳
虞書
歸藏
巽
薛貞
明夷
陳倉
虞氏易
九家易
京房
黄鵠山
姤
艮
觀卦
陵氏
季本
盧東元
井
釋誨
劉昭
梁統傳
北周
蘇綽
經解
東方朔傳
仲長統
昌言
杜欽傳
范升傳
雜卦傳
孫奕
示兒篇
卦略
大有
賓之初筵
張邯
劉伯升
高陵侯
翟義
冉閔
韋謏
閔
諛
遯
趙典傳
李傕
大過卦
虞翻
崔憬
李鼎祚
禮疏
郭子章
姚承庵
明代
仲氏
昏
大畜
程傳
酒正
晁以道
袁紹
孫權
吳會
劉璋
張魯
丕
昭烈皇帝
項籍
垓下
東城
月支
康居
支富
康植
輔果
智氏
項伯
郭攸之
董允
向寵
先漢
攸之
禕
允
先帝
良
劉繇
孫策
烏巢
祁連
黎陽
北山
昌霸
李服
漢中
趙雲
陽羣
馬玉
閻芝
丁立
白壽
劉郃
鄧銅
賨叟
靑羌
關羽
曹丕
巴州
司馬懿
立
巴郡
正方
江陽
狐忠
劉琰
南鄭侯
魏延
袁綝
高陽鄕侯
吳壹
玄鄕侯
高翔
安樂亭侯
吳班
楊儀
鄧芝
劉巴
漢成亭侯
許允
丁咸
劉敏
當陽亭侯
姜維
上官雝
胡濟
閻晏
爨習
杜義
杜祺
盛勃
樊岐
皇思夫人
賴恭
高皇帝
昭靈夫人
昭靈皇后
孝和皇帝
梁貴人
恭懷皇后
孝愍皇帝
王夫人
靈懷皇后
昭烈皇后
崇
竦
孟德
張郃
陽平
子桓
唐帝
軍誡
軒轅氏
權
孝文
焉
王元泰
李伯仁
王文儀
楊季休
丁君幹
李永南
文仲寶
李鴻
漢陽
劉封
先主
鴻
王沖
沖
祁山
渭水
東關
公琰
來敏
上官顯
敏
劉子初
孫臏
曹植
辟陽
戚姬
呂氏
阜
東齊
赤眉
彭寵
龐萌
隗戎
公孫
竇融
曹子建
勃
吳漢
援
商鞅
尾生
王嘉
許子將
虞卿
太伯
燕噲
孝哀
趙高
黃牛
黃牛廟
新興
樂平
西平
新平
略陽
陰平
帶方
譙郡
樂陵
章武
〔鄉〕
〔陽〕
上郡
朔方
五原
定襄
漁陽
廬江
朝歌
魏興
義陽
〔淵〕
遼西
遼東
玄菟
樂浪
上庸
平陽
劉備
巴東
巴西
梓潼
〔汶〕山
朱提
〔宕渠〕
涪陵
牂柯
越嶲
永昌
南安
武都
〔蜀郡〕
揚
朱崖
孫亮
臨海
湘東
孫休
天門
建平
孫皓
邵陵
安成
新昌
武平
九德
滎陽
〔都〕
太康地記
司
兖
豫
青
并
涼
蕩陰
羯
劉曜
〔寧〕
後魏
孝文帝
熙平
武定
周明帝
隋文帝
萬年道
長安道
富平道
醴泉道
同州道
華州道
寧州道
岐州道
豳州道
西麟州道
涇州道
宜州道
同
潞州
蕭嵩
横海
北平
高陽
經略
安塞
納降
唐興
懷柔
威武
鎮遠
静塞
雄武
鎮安
懷遠
保定
范陽道
豐安
定遠
天柱
宥州
横塞
天安
受降
豐寧
保寧
烏延
新泉
關内道
大斗
白亭
豆盧
墨離
寧寇
玉門
伊吾
天山
烏城
河西道
鎮西
天成
振威
安人
綏戎
河源
天威
榆林
莫門
神策
寧邊
威勝
金天
武寧
曜武
平夷
綏和
合川
隴右道
威戎
安夷
昆明
寧遠
洪源
通化
松當
平戎
天保
威遠軍
羊灌田
劍南道
張萬歲
麟德
豳
寧
保樂
甘露
南普閏
北普閏
岐陽
宜禄
河西
涇川
亭川
闕水
赤城
清泉
烏氏
木峽
萬福
鹽州
嵐州
白馬
樓煩
玄池
天池
去者日以疏
客從遠方來
橘柚垂華實
陳思
公幹
思王
景陽
仲宣
翰林
謝混
嶸
益壽
杜明
會𥡴
謝玄
客兒
泰機
寒女
長康
世基
橫海
顧邁
鴻飛
戴凱
鮑照
小謝
秋懷
擣衣
謝氏家錄
康樂
惠連
王微
謝朓
淹
宣城郡
冶亭
休文
鮑明遠
永明
相王
王元長
約
范雲
五經正義
舊書
穎達
司馬才章
王恭
王琰
義贊
馬嘉運
于志寧
張行成
高季輔
汲古閣
嘉運
趙宏智
趙乾叶
乾叶
谷那律
長孫无忌
李勣
禇遂良
柳奭
賈公彦
范義頵
齊威
柳士宣
孔志約
趙君贊
薛伯珍
史士宏
鄭祖元
周元達
李元植
王真儒
王德韶
隋德素
六緯
十二經
毛萇
箋
春秋左氏
徐彦
楊士勛
唐明皇
何晏
邢昺
趙岐
孫奭
汲古
溧陽
史恒齋
何妥
洙
易研
婺源
戴補庵
彖
干寶
莊氏
長勺
宋襄
秦政
王敦
爾朱榮
楊堅
莫敖
大心
宇文護
楊邠
史宏肇
初六
否初六
六二
六三
大壯
九三
京氏
小象
惠定宇
閻百詩
有庳
禹謨
僞喜
史遷
非樂篇
武觀
定宇
逸書
嘗麥
紀年
彭伯壽
嘗麥解
楚辭
九辯
夏康
竹書
今文尚書
帝太康
三晉
晉陽
宇文氏
亭林
補庵
朱竹垞
梅氏
大明
漢書志
惠氏
岐山
四書釋地續
書傳
殷墟
衞世家
康伯
括地志
康城
許州
陽翟縣
禹州
左春谷
三餘偶筆
衛叔
克殷解
今文
周本紀
衞叔
衞康叔封
衞
衞誥
唐誥
小序
馬季長
孔沖遠
燕世家
天寳
劍南
李宓
楊國忠
新舊書
高適集
李宓南征蠻
西南夷
高適
楊衡
常建
雲谷雜記
杜荀鶴
周朴
亞父
細柳
魏文侯
周威烈王
文侯
考王
威烈王
折檻行
朱雲
婁公
婁
橄欖
王立之詩話
金樓子
立之
新仲
甕牖閒評
别子由
汝陰
大小夏侯氏
共王
高堂生
士禮
后倉
戴德
戴聖
慶普
禮古經
淹中
丘明
鄒
夾
鄒氏
夾氏
齊論
昌邑
王吉
宋畸
五鹿充宗
王陽
魯論語
龔奮
長信
夏侯勝
韋賢
扶卿
蕭望之
安昌侯
張禹
長孫
江翁
翼奉
蒼頡
爰歷
博學
胡母敬
梓慎
禆竈
卜偃
子韋
六國
甘公
石申夫
唐都
阪泉
涿鹿
北狄
南蠻
東夷
北發
析枝
渠廋
氐
息慎
長
鳥夷
臯陶
九侯
鄂侯
西伯昌
崇侯虎
殷紂
有莘氏
驪戎
有熊
費仲
芮
祝
叔帶
威公
東周惠公
百里傒
繆公
疾
修魚
申差
公子渴
太子奐
中山
鹽氏
封陵
穰侯
大梁
暴鳶
鳶
胡傷
蔡陽
長社
芒卯
華陽
王翦
桓齮
楊端和
閼與
橑陽
翦
安陽
平輿
荆王
郢陳
項燕
昌平君
蒙武
項王
鴻門
沛公
霸上
樊噲
靳彊
紀信
酈山
芷陽
劉賈
壽春
城父
周殷
彭越
悼武王
杠里
陽熊
曲遇
東郡
魯元
亢
兗州
心
尾
箕
牽牛
婺女
虚
危
營室
東壁
并州
奎
胃
昴畢
觜觿
東井
輿鬼
七星
三河
翼
軫
周靈王
狸首
南北斗
熒惑
太白
歲星
填星
二十八宿
風伯
雨師
四海
九臣
十四臣
諸布
諸嚴
諸逑
吕尚
周西伯
公子如
成公
繻
晉出公
知伯
趙簡子
太子毋卹
毋卹
簡子
孝成王
繁陽
樂乘
悼襄王
陳完
陳厲公佗
厲公
陳文公
桓公鮑
太子免
陳佗
陵
雍齒
安國侯
少姬
周室
柯
曹沫
瞿
馯臂子弘
矯子庸疵
疵
周子家豎
豎
淳于
光子乘羽
田子莊何
褚先生
七略
馮商
班彪傳
律歷志
三統歷
郊祀志
張蒼傳
天文
地理志
新室
成帝
洪範五行傳
史篇
適
夏侯氏
嘉新公
董仲舒
太史公自序
董生
左邱
春秋古文
隱公篇
費伯
郎
風
公羊氏
司馬氏
尹氏
王子朝
崔氏
公孫禄
左邱明
孟荀列傳
十二紀
太皞
句芒
后土
少皞
蓐收
玄冥
時則訓
帝嚳
帝少昊
帝顓頊
嚳
封禪書
櫟陽
秦獻公
畦畤
成紀
張蒼
公孫臣
三正篇
三正記
秦始
漢高本紀
十二諸侯年表
張耳傳
大辰
郢
星紀
玄枵
諏訾
降婁
鶉首
鶉火
鶉尾
壽星
大火
析木
保章氏
堪輿
娵訾
實沈
歲
龍星
伏傳
泠州鳩
夏侯始昌
許商
陳公子招
仲舒
鄭世家
鍾會
觀
太嶽
田齊世家
宋公和
晉侯彪
諸兒
衞侯衎
悼公
買
髡
般
陳侯鮑
鄭伯髡頑
陳侯溺
陳壽
南北史
五宗世家
孝景
景帝
元光
臨淮
倪寬傳
寬
張湯
百官表
元朔
荀悦
漢紀
卬
孔卬
楊何
黄子
遷傳
移讓太常博士書
歐陽生
倪寬
伏氏
〔賾〕
楊倫傳
馬續
班彪
和帝
古文經
魯世家
漢東
平陽公
彦孚
荀慈明
文與先
眉陽
孫景初
平陽氏
平胡論
鼎祚
謝誨
新郪
侯天麟
史似
唐安
鮮于侃
資中
東漕
巽巖
申之
費氏
略例
王應麟
鄭康成易注
應麟
海虞
趙清常
清常
錫山
孫蘭公
蘭公
焦弱侯
焦氏
海鹽
胡震亨
易解
蘇長公
繡水
沈士龍
資州
倫
仰之
蔡氏
景君
西亭
蔡廣成
施士丐
袁彝
仲子陵
韋彤
裴菃
趙匡
强蒙
禮志
贊皇子
袁桷集
讀書臺
費易
費長翁
荀氏
九家
易傳集解
前明
王伯厚
鄭氏易
孟喜
易述
德宗
顯
隆基
宋翼祖
敬
宣祖
集注周易
中興書目
雅雨堂
元和志
寰宇記
能改齋漫録
盤石縣
盤石
四明山
乾元
榮
昌州
樂産
吕才
連珠明鏡式經
連珠集
武德
安禄山
崔甯
計用章
蜀才
侯果
陸績
津逮
學津
李秘書
蘭陵
孫觀察
心葵
費氏易
費氏古文易
張海鵬
張先
劉攽
程頤
蘇頌
覺
莘老
蘇軾
蘇轍
米芾
徐積
宋祁
范鎮
同州
晏殊
孫莘老
茆泮林
孫莘老年譜
王闢之
澠水燕談録
吕同
忠武軍
永興軍
昭文館
富弼
劉沆
陳執中
鎮海軍
淮海集
李氏夫人墓誌銘
安定先生
海陵王
覿
長編
祭歐陽修文
河陽三城
韓琦
宋庠
黄㽦
山谷先生年譜
建中靖國
王子予
劉仲更
李公擇
公擇
子予
施宿
東坡先生年譜
孫汝聽
蘇潁濱年表
南行集
昭文
程俱
麟臺故事
蘇洵
洵
軾
轍
權書
衡論
機策
趙抃
歐陽文忠公
庚子
南行後集
天章閣
楊畋
澠池縣
懷遠驛
東坡集
王文誥
東坡年譜
吴奎
胡宿
沈遘
蔡襄
鳳翔府
子由
韓忠獻
商州
高郵
二室墓誌
孫公
和答莘老見贈
邗溝
淮海後集
奉和莘老
籍湜
少游
與孫莘老學士簡
法寶
徐文美
徐成甫
興化
成甫
徐君主簿行狀
文仲
文剛
文饒
文昌
漣水軍
俞澹
避暑録話
清老
辨姦論
蔡上翔
王荆公年譜考略
辨姦
吕公著
明允
潞國
嘉祐全集
彭汝礪
覽
孫升
君孚
喬執中
希聖
喬
孫公談圃
莘老年譜
宋史紀事本末
濮王
吕誨
范純仁
吕大防
王珪
蔡州
趙鼎
趙瞻
傅堯俞
誨
魏國公
鎮安武勝軍
曾公亮
潁
汝州
陳升之
旭
魯國公
蔡延慶
大名府路
廣德軍
程顥
京西路
李常
張戬
王子韶
上元縣
陳襄
太原府
吕公弼
山陰縣
陳舜俞
南康軍
韓絳
李定
謝景温
曾布
吴充
李公擇行狀
雱
温陵
張方平
潁州
潁上
孫洙
劉摯
楊繪
孫覺傳
陳師道
後山居士文集
秦少游字序
秦子
太虚
熙河路
熙
通遠軍
鎮洮軍
熙州
王韶
運鹽河
秀
賈耘老
收
墨妙亭記
江夏
秦譜
屯田郎中俞汝尚墓表
東坡詩注
退翁
秦少游
俞汝尚
墓表
東坡詩集
汝尚
隱逸傳
蘇詩
益公題跋
四朝國史
遺逸
俞退翁傳
俞汝尚傳
隱逸
俞（次）〔汝〕尚
〔汝〕尚
歎二鶴賦
紫微
錢公
風亭
月觀
錢公輔
君倚
胡瑗
吴中
越州
明州
治平十議
帝問
王疇
公輔
滁州
鄧州
崇福觀
長短句
品令
鄭俠
流民圖
元素
令舉
子野
劉述
考叔
巨源
正仲
潤州
齊州
謝師厚
張耒
晁補之
端友
補之
眉山蘇
惠洪
冷齋夜話
代賀吕司空啓
賀門下吕僕射微仲啓
代賀中書僕射范相公啓
賈誼書
媧
霍
召平
四皓
魯兩生
浮丘伯
萬石君
虎牢
大峴
漢宣帝
王政君
藝祖
張芸叟
易緯通卦驗
解
萃
史伯
易正義
下繫
繫辭上傳
阮逸
鬼方
洞林
蕭魚
异
鎛
潞
公仲
牛畜
欣
孔明
魏相
許伯
瓦
郢城
盈
牧
增
垓
連山
百刻圖
王介甫
臨
復
李子思
需
張真父
小畜
損
張文饒
和帝紀
對策
鄎國公主銘
帝唐
天乙
微子啓
易大傳
魯恭
趙温
天圓篇
薛士龍
周髀
韓氏
簡文帝
庭誥
李泰發
一行
管輅
馮當可
晁子止
易廣傳
當可
艾軒
誠齋
易緯乾鑿度
訟
湯伯紀
李林甫
哥舒翰
九家集解
釋文序録
姚信
翟子玄
王昭素
古易
吴仁傑
晁
上經
下經
易纂
劉夢得
辨易九六論
畢中和
畢氏
夢得
吕微仲
周燔
程迥
洪興祖
古子夏傳
考異釋疑
張逸
贊
棘下生
易贊
棘下
稷下
稷門
京氏易積算法
上蔡
謝子
晁以道傳易堂記後序
安樂
邵先生
皇極經世
文恭
邵子
張稘
書文恭集後
天叟
觀物外篇
先天圖
陳忠肅
洛書
迂齋
策問
种明逸
世衡
師道
兼山
西羌傳
西羌
西落鬼戎
鬼戎
殷武
荆楚
帝繫篇
陸終氏
鬼方氏
楚世家
陸終
季連
芈
張緒
伏曼容
館閣書目
周易元包
衞元嵩
楊楫
元嵩
蜀郡公
藝術傳
蜀郡
徐復傳
林瑀
周易會元紀
會元紀
賈昌朝
瑀
賁
蹇
曹侍郎
秋岳先生
集福精舍
何焯
少皞氏
郯子
書大傳
虞傳
九共篇
殷傳
帝告篇
古文逸篇
嘉禾
揜誥
逸篇
鄭漁仲
修政語
粥子
王子旦
人間訓
堯戒
蕭相國
考課令
雷公式
波斯
建隆
准顯
開成
崔龜從
張楚
張公約
長慶
揚生
西漢氏
楊子雲
漢氏
曾文清
吕治先
子雲
太元經
胡少汲
洪玉父
李文若
先秦
劇秦
相如
曹成王碑
晉問
歐文忠
曾南豐
尋陽
慶元
汝
朝鮮
洌水
平原
翟縣
燕代
西甌
毒屋
黄石
召南
楚魏
甌
爾泰
毅菴
滿洲
汪秦
西林覺羅氏
順天
貴
保和殿
襄勤伯
正
慶
曆
禎
有明
席他拉氏
邁文恭公
柱
爾奇
伯行
爾奇公
實
補氏
補
高氏
希福
安徽
朱筠
翰林院
筠
于敏中
四庫全書館
永溶
紀昀
陸錫熊
戴震
邵晉涵
莊存與
任大椿
王念孫
姚鼐
翁方綱
鮑士恭
范懋柱
汪啓淑
馬裕
周厚堉
蔣曾瑩
吴玉墀
孫仰曾
汪汝瑮
總目提要
薈要
摛藻堂
文淵
圓明園
文源
奉天
文溯
熱河
文津
大觀堂
文匯閣
鎮
金山寺
文宗閣
聖因寺
玉蘭堂
文瀾閣
法
文匯
文宗
文瀾
天禄琳瑯
宫史
學海堂經解
曾國藩
張之洞
廣雅書局
同治
江南製造局
譯書局
敦煌
易例
易微言
易大誼
周易本義辨證
增補周易鄭注
周易鄭注爻辰圖
虞氏消息
虞氏易禮
虞氏易事
虞氏易言
虞氏易候
虞氏易變表
周易鄭氏義
周易荀氏九家義
易義別錄
易圖條辨
易緯略義
玩易篇
艮宦易說
邵易補原
卦氣直日解
易窮通變化論
八卦方位說
卦象補考
周易互體徵
四書賸言
四書改錯
四書索解
大學知本圖說
大學問
中庸說
逸講箋
論語古注擇從
論語鄭義
何邵公論語義
續論語騈枝
論語小言
孟子古注擇從
孟子高氏義
孟子纘義
四書辨疑辨
說文繫傳校錄
說文釋例
說文補正
說文解字句讀
句讀補正
說文韻譜校
新附考校正
正字略
考信錄提要
補上古考信錄
唐虞考信錄
夏考信錄
商考信錄
豐鎬考信錄
豐鎬別錄
考古續說
考信附錄
宏光日錄
永歷實錄
行朝錄
汰存錄
贛州失事記
紹武爭立記
沙州定亂記
賜姓始末
鄭成功傳
滇考
歷學疑問
疑問補
歷學騈枝
歷學答問
交食管見
交食蒙求
七政細草補注
平立定三差解
測圓密率
堆垜測圜
垜積招差
橢圓正術
截球解義
弧三角拾遺
圜率通考
橢圓求周術
割圜八綫綴術
造各表簡法
方圓闡幽
對數探源
垜積比類
橢圓正術解
橢圓新術
橢圓拾遺
尖錐變法釋
級數回求
筆算
今有術
分法
開方釋
立方立圓術
平方術
平圓術
平三角術
弧三角術
測量術
差分術
盈朒術
割圜八線綴術
方程天元合釋
讀書餘錄
湖樓筆談
九九消夏錄
淸聖祖文初集
避暑山莊詩
世宗文集
悅心集
高宗文初集
五集
樂善堂定本
擬白居易樂府
圓明園詩
仁宗文初集
味餘書屋全集定本
宣宗文集
養正書屋全集定本
文宗文集
穆宗文集
卷施閣文甲集
乙集
更生齋文甲集
五編
六編
詩編
詁經精舍自課文
淸
劉知幾
史通書志篇
楊愼
丹鉛總錄
周復俊
全蜀藝文志
王琛
淮安藝文志
淸史
宋孝王
關東風俗傳
墳籍志
書志篇
七略別錄
阮孝緖
古今書最
四庫總目
焦竑
竑
國史經籍志
鄭樵
藝文略
淸史志稿
淸史藝文志
皇朝文獻通攷
經籍攷
黃本驥
皇朝經籍志
滿旗
國語孝經
鮮卑
婆羅門書
志稿
南懷仁
坤輿圖志
新舊約全書
太平天國
明史藝文志
康有爲
王闓運
桃花扇
長生殿
紅樓夢
王圻
水滸傳
續文獻通攷
經籍考
圻
藏書紀事詩
靈鶼閣
士禮居題跋記
古文舊書攷
繆
揚州畫舫錄
黃文暘
曲海總目
曲海
余蕭客
文選音義
文選紀聞
碧琳琅館叢書
音義
紀聞
經義模範
四書程文
五經程文
欽定四書文
梁章鉅
制義叢話
侯康
四書文話
守山閣
明志
章學誠
婦學
顧炎武
救文格論
日知錄
陳瑒
屈子生卒年月日攷
胡承珙
許桂林
臧壽恭
春秋左氏古義
春秋左傳古義
杭世駿
歷代藝文志
南都事略
史籍攷
陳景雲
輯略
萬斯同
廟制圖考
廟朝圖考
金鶚
求古錄禮說
求古錄禮記
切韻考
切韻表
傅雲龍
遊歷日本圖經
日本圖經
傅
遊歷巴西圖經
黃遵憲
日本國志
日本圖志
鄭堂讀書記
鄭堂讀書日記
莫
傳本書目
丙辰劄記
丙辰雜記
爾雅郭注補正
圖理琛
異域錄
瞿中溶
姚範
黃以周
禮書通故
董兆熊
南宋文錄
莊仲方
南宋文範
文錄
南宋文
鄭氏詩譜考正
林伯桐
七家後漢書
汪文臺
王文臺
訂譌雜錄
胡鳴玉
胡明玉
宋元以來畫人姓名錄
魯駿
曾峻
黃丕烈
竹汀日記鈔
錢大昕
授經圖
朱睦㮮
黃虞稷
龔翔麟
賴襄
日本外史
馬國翰
玉函山房目耕帖
目耕帖
亭林十種
說鈴
雜錄
何元錫
西淸古鑑
姚之駰
後漢書補逸
校讎通義
校讎學雜述
提要分纂稿
紹興先正遺書
南江書錄
纂稿
書錄
章氏遺書
章實齋文集
中興將帥別傳
咸同以來功臣別傳
中興名臣事略
續先正事略
戴氏遺書
戴丁
梁玉繩
漢書古今人表考
呂子校補
元號考略
誌銘廣例
瞥記
蛻稿
淸白士集
劉台拱
論語騈枝
荀子補注
經傳小記
漢學拾遺
國語校補
劉氏遺書
牛運震
史記評注
王士祿
焦山古鼎考
㠀夷
嶧
蔡蒙
鉤命決
卜氏
陸湻
纂例
赤
淑
元始
孫卿
穀梁赤
春秋序録
麋信
秦孝公
麋
渠梁
尸佼
麋氏
文烝
麋南山
桓君山
應仲瑗
孟子列傳
王劭
應氏
荀卿
子噲
子之
惠王
論語序
仲弓
論語讖
子
彖象傳
論三傳次第
公羊高
釋廢疾
陸玄朗
序録
趙襄子
元凱氏
宣帝
衞太子
穀梁春秋
樂陵侯
史高
齊論語
魯論
儒林列傳
俞
子石
公肩子
子池
漢景帝
咺
禦
桓宫
聶北
麗
莒挐
衞侯
陳世子款
司馬子反
狄
使
王子成父
世子止
同姪子
胥閭
管氏
三歸
孟武伯
求
長城
五湖
華下
非
圍
崔子
賈舉
李兌
主父
卓齒
湣王
桃左春秋
王良
越王
周天子
魏宣子
任章
宣子
溫
皇霸
春秋運斗樞
女媧
禮號謚記
含文嘉
虙戲
燧人
遂人
遂皇
戲皇
農皇
夏禹
殷湯
大商
大王
夏后
帶
百里奚
子車氏
黄鳥
莊王
宋國
五伯
女潰
𦍋
鬻熊子
熊繹
懷王
上官
子蕳
汨羅
張儀
負芻
燕召公
陝
甘棠
貊
姬
敬仲
陳厲公
懿氏
有嬀
完
田成
簡公
康公
威王
后勝
臨菑
共
太史公記
函
商君
孟嘗
春申
信陵
甯越
杜赫
陳軫
召滑
樂毅
吴起
關東
二周
阿衡
育
大漢
后夔
正失
魯哀公
重黎
子侯
孝武皇帝
公孫卿
梁父
繹繹
亭亭
汶上
元鼎
元封
東嶽
太史記
橋山
子高
諸梁
方城
白公勝
子西
子期
石乞
孝明
師曠
王子喬
揚雄
虙犧
魯城
丹
荆軻
秦武陽
樊於期
督亢
燕王
孝成皇帝
孝文皇帝
明光宫
薄后
兵法
孟賁
慶忌
鮑叔
柳惠
彭祖
九江郡
徐巿
沙丘
文成
五利
陽成侯
南仲
均
陽侯
元服
汝南
原
安帝
竇氏
伯楚
伯奇
宣伯應
袁元服
孟嘗君
夏甫
正甫
沛
愆禮
宣度
王龔
陳蕃
袁隗
袁周陽
鄧伯條
訾孟直
訾
子衡
翩祖
郕
子臯
曼慈
施氏
鮑焦
友
晏平仲
緱氏
宋伯姬
長沮
鯉
陳亢
孺子
子琰
黔敖
郅惲
歐陽歙
繇延
惲
矍相
臧文仲
興
稜
周黨
伯況
黨
樂正子春
恂
鮑宣
茂
孝武皇帝爲
去病
誓
蓋
楊惲
后成叔
世公
幼起
薛孟嘗
袁盎
仲讓
展禽
干木
包胥
平仲
惠施
桑扈
甯戚
顔闔
高柴
端木
孟獻
原憲
十反
范滂
孟博
叔矩
勾章
梁國
盛允
子嗣
咸池
六莖
五英
大章
護
勺
桑間
濮上
制氏
聲音
皇帝
伶倫
大夏
嶰谷
鐘律書
樂記
月
章帝
奚景
冷道
舜祠
宓羲
黄帝書
泰帝
素女
晉平公
平公
畢方
周景王
單穆公
南風
伯子牙
鍾子期
鍾子
伯牙
燕太子
易水
漸離
宛丘
趙惠文王
秦昭王
澠池
丘仲
笛賦
京君明
君明
窮通
夾谷
尹士
畫
軻
魯平公
臧倉
克
臧氏
萬章
墨氏
梁惠王
孫況
田駢
春申君
七國
況
趙孝成王
范雎
魏齊
管夷吾
范君
信陵君
藍田
霸陵
李將軍
隋會
伐木
谷風
陳餘
張耳
貢
博
長平
冠軍
魏其
武安
鄭當
宣尼
春秋國語
季氏
祀典
孟獻子
烈山氏
周棄
邾文公
繒子
次睢
子魚
明堂月令
漢記
陰子
識
原鹿侯
鮦陽侯
師卦
鬱壘
度朔山
齊語
𣻲上
濇水
魯襄公
楚康王
叔孫穆叔
張怡
瑶星
鹿徵
上元
可大
登
萊
毛文龍
孫元化
怡
攝山
白雲先生
徐昭發
宣城
沈眉生
余處士
公佩
遺
薇庵
白雲庵
玉光劍氣集
遥星
李闖
三禮合纂
陽明
郝敬
姚江
自怡
崇禎
袁崇焕
皮島
李自成
自成
雪客
衛湜
集説
周在浚
曾秉正
御制文集
凉
張重華
張遇賢
方臘
天順
阿速急八
正德
李乾順
隆慶
天啓
梁蕭
永嘉王
元法僧
陳友諒
劉一燝
周逢春
魏忠賢
魏廣微
宣德
襄憲王
景皇
大明門
峴山
夏時
彭文憲
時
萬歲山
廣寒殿
鏡殿
南臺
宣廟
馬仲房
汝驥
西苑詩
文憲
百果園
松
瀛
武宗
沈越
新亭聞見紀
聚寶門
聞人銓
樊玉衡
翊坤宫
吕坤
閨鑑圖説
翊坤
漢明德
明德
朱東吉
憂危竑議
張養蒙
劉導
鄭承恩
戴士衡
士衡
丁應泰
張位
沈一貫
楊鎬
位
一貫
趙之翰
劉楚先
劉應秋
楊廷蘭
萬建崐
神宗皇帝
仲春
重慶
熙豐
高淮
梁永
陳奉
李鳳
孫隆
楊榮
劉成
常鎮
潘相
馮琦
輪臺
衛武
秦穆
孫承宗
李蕃
樞輔舉動可駭
李懷光
晋陽
李邦華
賢
承宗
榆關
邦華
熊廷弼
廷弼
袁應泰
黔
周朝瑞
顧大章
汪文言
楊漣
左光斗
文華殿
遼東傳
郭興治
門克新
石三畏
周洪謨
熹廟
方澤壇
西苑
客氏
譚敬
酌中志略
鮑恂
宋濂
高廟實録
陳濟
解縉
李至剛
錢文通
善啓
周文襄
啟公
文襄
東倉
宋潜溪
桂彦良
彦良
東宫心圖
上太平十二策
節文
午門
仁廟
文皇
虎顧衆彪圖
隆平侯
張信
英國公
時勉
鹿鳴
李東陽
通達民情疏
守陳
閻樂
丘文莊
濬
學的
世史正綱
家禮儀節
孝皇
張永
寧夏
寘鐇
瑾
吕强
張承業
明史紀事
鐇
濠
毛澄
王瓚
顧東江
慈壽
癸辛雜志
霍渭崖
與吕涇野書
谷應泰
趙普
霍光
烈皇
别山
浩然吟
文山
指南
孫月峰
鑛
會祭江陵文
臯
錢御泠
士升
李璡
晋
温體仁
成祖
張孚敬
夏言
興獻
徐文貞
穆皇
文貞
高拱
張居正
居正
南樂
太阿
烏程
武陵
荆谿
覃吉
孝廟
憲宗
高麗
張穡
法象
方密之
會
南極老人
利瑪竇
滿剌伽
天官書
鄧老
通雅
利公
大浪山
大浪
畢星伯
天問略
周髀算經
趙君卿
算經
骨利幹
欽察
元明善
至元
大統曆
回回曆
御覽月令曆
六壬遁甲曆
御覽天象七政躔度曆
光啟
漢安帝
元初
張掖
崇禎曆書
乾清宫
徐寧
甘露漿詩序
甘露頌
承天
同野
天鼓考
五行傳
凉州
西陵衛
楊一桂
王三原
漕河通志
中灤
淇門
汶水
須城
安民山
清濟
東阿
利津河
直沽
臨清
御河
韓仲暉
會通河
原武
安上湖
陽武
衛輝
濟寧州
潘叔正
宋禮
平江伯
右碣石
潜
劍閣
儀真
吴城
蘭州
河套
倪文毅
保德
潼關衛
渭河
鞏昌
洛河
延安
涇河
慶陽
延綏
徐霞客
導江紀源
金沙江
滇池
霞客
桑
酈
張適
滇南
滇
莊蹻
建元
唐蒙
益州郡
楪榆
弄棟
句町王
卭人
僰人
戕牁郡
蒙化
曲靖
爨人
嶲
夜郎
犍爲郡
身毒國
南昆縣
貴州
黄諫
京師泉品
玉泉
蒲澗
鷄井
盛仲交
金陵泉品
周吉甫
高坐寺
茶泉
白乳泉
茅中君
白乳
黄岩
王叔英
建文
資治八策
太祖皇帝
周叙
王吏部
噬
臍
留侯
赤松
晋公
王錫爵
李騰芳
錫爵
鄴侯
騰芳
摘瓜詩
廣平
國本攸關
續憂危竑議
項應祥
四川道
喬應甲
陳矩
矩
皦生光
生光
包繼志
康丕揚
達觀
聞柝偈
李宗伯
廷機
東嘉
趙士楨
士楨
文華
沈裕
申時行
舒王
羅大紘
黄正賓
李獻可
李春長
鄭妃
王家屏
史夢麟
王憲司
嘉謨
請建儲
災異疏
唐玄
九齡
宋真
李沆
王旦
包拯
郝楚望
遼左
天啟
天山評
泰昌
左忠毅
光斗
許世子
鄒忠介
元標
從吾
首善書院
徐階
識仁
定性
趙忠毅
南星
力挽干進疏
在銓疏
孫北海
承澤
倪元璐
辨黨人疏
崔
請毁三朝要典疏
三朝要典
神祖
要典
章給諫
允儒
言路漸輕
許給諫
國榮
論驛遞
周宜興
延儒
道周
三十六義
宜興
岳忠武
飛
黄道周
光時亨
明睿
睿
唐宗
高皇
時亨
何光顯
羅萬象
阮大鋮
大鋮
春燈謎
陰符
沈光禄
鍊
陸錦衣
炳
張遜業
出師
趙司業
大洲
夏太宰
邦謨
楊順
路楷
白蓮教
穆廟
順
楷
沈梅岡
束
周尚文
趙御史
錦
徐刑部
學詩
越中
梅岡
章勺
爵
楊棟
汪鋐
馮子仁
恩
孚敬
鋐
獻夫
范希文
百官圖
廷相
馮御史
夏宗伯
王新甫
藍
聖學要議
程番
神朝
張司馬
學顔
大明律
學洢
上黄虞兩年伯書
朱亥
辭里中父老書
洢
方從哲
高忠憲
攀龍
崔呈秀
呈秀
龜山先生
别聖文
高攀龍
别友人書
李元禮
范孟博
周仲先
起元
獄中寄兒書
顧裕愍
自叙
訣别詩
唐虞
獄中與兒遜之書
律
忠節
胡惟庸
雲奇
西華門
奇
黄俞邰
涂節
雲公
涂公
太平門
致身録序
史仲彬
致身録
鬼門
水關
神樂觀
吴王
楊應能
程濟
葉希賢
馮㴶
郭節
宋和
趙天泰
王之臣
牛景光
金焦
蔡運
梁田玉
梁良玉
梁仲節
王資
劉伸
鄭洽
何洲
革除録
吾學編
西平侯
浦江
仲彬
黄溪
彬
白龍山
浪穹
胡瀠
張三丰
陳瑛
史公
史氏
焦先生
茅山
巴縣
曹自山
惟静
鄰水
雪菴
静
大竹縣
善慶里
松柏灘
松柏嶺
守牧
嬾牛
義濟
孤舟
戴絅菴
補鍋匠
詠柑
韋氏
東橋
茶歌
懶牛
俞邰
浣水續談
補鍋
柑詩
史公節
希賢
從亡隨筆
成學
惠宗
歸蜀詩
雪
忠賢奇秘録
劉琳
拊膝録
雪菴和尚
吴成學
河西傭
王之遴
東湖樵
牛景先
柳一景
王志
白龍
穹浪
松陽
王詔
治平寺
葉御史
田玉
何申
峽口
金川
梁良用
梁中節
定海
良用
洲
嚴氏
郭良
焦漪園
卓忠貞祠碑
臧洪
卞壺
什方
逢萌
伯况
廣武
温舒
張儉
方公
孝孺
鄒公
練公
子寧
司中
閏
卓公
黄公
齊公
冕
度
盧公
元質
鐵尚書
景御史
郭淮
潘氏
盧忠烈
象昇
楊嗣昌
嗣昌
賈莊
阮太冲
漢聞
遼北
黄龍
鴨緑
女雲臺
尉氏
汪僉都
喬年
郾城
襄城
段公
增輝
商丘
高名衡
錢牧齋
三良詩
之馮
馮氏
宣大
杜勳
王承胤
吕新吾
董復
韓霖
朱三樂
三樂
畢僉事
拱辰
冀寧
掖縣
蟬雪𡅃言
韓少師
爌
周忠武
遇吉
萃宇
陳尚志
姜鑲
宣府
啟禎野乘
劉夫人
李小有
梁夫人
趙昂發
王忠端
家彦
吴忠節
甘來
左公
懋第
弘光
馬士英
馬紹愉
滄州
紹愉
艾大選
陳名夏
金之俊
攝政
福王
望祭先帝文
祭死事諸臣文
雲乳續筆
用極
一斌
良佐
廷佐
示偦詩
信國
止水
叠山
袁夏甫
毓蓍
王炎午
柳橋河
國維
疊山
孝陵
念母
示子
函輝
雲峰山
台
靈均
湛明大師
木叔
黄蘗
徐陵
正學
所南
方正學
寒山子
遺友人書
輝
季札
孝標
吏治
王莊毅
徐淮
廣運倉
救災録
周梁石
瑛
廣德
祠山雜辨
教民雜録
經世管錀
律吕管錀
字書管錀
政本
政均
楊廉
邵蔡
蔣參政
山卿
林大輅
何遵
潯州
岑猛
善後條議
許公逵
劉六
劉七
利津
高苑
德平
何景明
樂陵令行
岳正
漷縣
何執中
重建黄公廟碑記
伍容菴
王振
容菴
海北
文煒
暨陽
宅相四十吉祥
召虎
萬公
璽
戚公
繼光
譚公
綸
武功
李清
傅友德逸傳
友德
宿州
芝蔴李
碭山
李喜喜
喜喜
明玉珍
李二
高冠山
徐中山
王保保
和林
金牛
階
烏撒
洗州
榮山
弇州
棘
劉三吾
開國功臣録
趙本學
韜鈐
湯克寬
克寬
東晋
譚公綸
猷
方叔
郭子儀
俞盱江
與曹樂川書
李衛公
方正
蔣貴達
崑
况公
鍾
忠經
慈谿
敬宗
李文毅
四箴
薛文清
李文達
原德
王文
暘
自罰
嚴分宜
顧東橋
許石城
吴小仙
月明千里故人來
倪青溪
分宜
石城
萬虞愷
黄光禄
進道詩
大臨
繹
鑾
囚對
清介
粤西
韋御史
伐檀
清惠
神樓圖
顧英玉
瑮
武廟
酒隱詩
劉景元
戬
交南
緬甸
南寧
初入關
關南
才能
孝友
黼
無際大士
無際
雞足山
楊黼
西園聞見録
文安
珣
田横島
淇水
輝縣
夢覺寺
法林
如來
吕尚之
趙公
廷瑞
武當
太子岩
趙廷瑞
趙重華
三茅
毘陵
横林
南禪寺
趙氏客遊述
叔度
德量
惺
虎丘
譚友夏
友夏
陳文莊
仁錫
孫文豸
步天歌
文文肅
濟上
相
王抑菴
叔簡
抑庵
楊節婦傳
抑菴
長洲
郭公
波
張志聰
聰
蕭景腆
志聰
景腆
廷舉
伏義英風碑
吴仕期
上相國書
蕪江
沈公
懋學
豪爽
王十岳
寅
李獻吉
少林扁囤
古峯長老
十岳山人
胡梅林
仲房
十嶽山人集
謝山人
茂秦
胡元瑞
淮陰
三百
元瑞
張叔夜
無何有
叔夜
張左虞
元凱
毛氏詩
長卿
旴江
武夷
八閩
阮賢之
晋安
烏石山
鄰霄臺
漁陽撾
林茂之
撾鼓歌
屠生
茅止生
元儀
陳筠塘
止生
秦淮
午日題詩吊汨羅
稽
高人
道衍
袁珙
金忠
王倫
秦檜
夢
詠桃
點
純
王古直
日影
史明古
劉道原
吴文定
西村
明古
西村集
王震澤
吴綸
大本
茶經
樵隱
漁樂
心遠道人
沈石田
恒吉
崔冢宰
鳳皇臺歌
王子安
横崖
寧鄉
新林
高士吟
高士傳
孫太初
終南山
太白山
華南
闕里
日觀
石川
殷雲霄
海門
殷公
太初
張玄度
振英
苦竹君
林和靖
王潼
司馬子長
朱白民
鷺
馮具區
天井
華山寺
辭世偈
吴少君
玉雪厨銅
荆溪
元美
破瓢道人歌
陳仲醇
繼儒
支硎山
崑山
懷二陸詩
董玄宰
天傭
牧齋
蒙叟
藝苑
詹同
出師表
青田
潛溪
郁離子
龍門子
郁離
董學士
桓榮
試録序
曾子啟
棨
捕蛇者説
曾棨
巢睫集
湯東谷
于忠肅
忠肅
五雲清唱
風雅遺音
東谷集
鄒克明
况
湯公讓
公讓
克明
劉溥
潄芳
吉安
劉公恭
鉉
黄孝廉
省曾
獻吉
陽明洞天
會稽問道録
張學士
元禎
易書春秋語要
太極圖説要
綱目近思録
家語解
陳約之
甬川
張尚書
董中峯
陳生
甬江
屠文升
唐應德
田叔禾
王道思
後岡集
王允寧
維楨
餘姚孫公
陞
空同
王氏存笥稿
高子業
叔嗣
蘇門山人
申情賦
讀書園
王汝化
三閭
楊仲弘
蔡司空
汝楠
六經札記
自知集
樞筦集
白石文集
陸璽卿
夏貴溪
李文康
文衡山
文先生
左史子漢雋
晋江
王慎中
李于鱗
于鱗
考工
鳳洲
漆園
玄亭
魏惠王
安邑
浚儀縣
三川郡
酈生
陳留
陳留郡
宋州
晉武
陳留國
孝靜帝
開封郡
汴州
汴水
潁川
濟陰
通濟渠
煬帝
王世充
洧
浚儀
新里
小黄
封丘
杞州
雍丘
管州
中牟
洧州
開封縣
天寶
建中
開平
同光
宣武軍
天福
逢澤
蓬池
公子少官
衛國
匡地
福源池
吹臺
陳留風俗傳
師曠城
梁孝王
朱梁
繁臺
講武臺
繁氏
沙海
顔率
隋文
琵琶溝
中牟縣
大梁城
蒗𦿆
渠
舊圖經
樊於期墓
張儀墓
硯子臺
張耳墓
南硯臺
北硯臺
新里城
浚水
封國
封父
魯國都記
延鄉
翟母
道武帝
酸棗
宣武帝
黑山
魏志
初平
鄄城
劉表
袁術
黄亭
濟水
桐牢亭
魯成公
續漢記
桐渦
朱亥墓
安釐王
晉鄙
公子無忌
程徵君墓
程仲
孔禮
晉武帝
泰始
元鄉亭侯
有莘城
莘墟
鄭桓公友
西晉
𣏌州
睢溝
睢水
泗水
莘城
莘國
韋
莘
老丘城
老丘
平丘城
衛靈公
長垣縣
牛首城
牛首
石倉城
酈善長
八里溝
城冢記
鄭莊公
盛倉城
張良城
張城
德
陳留侯
殤帝
張光墓
向城
北林
長社縣
蔣城
新鄭縣
凡
茅
胙
苑陵縣城
續述征記
成臯
苑陵城
鄭國
任瓌
苑陵
尉氏縣
古山氏城
苑陵縣
圉城
圉
風俗傳
外黄城
魏郡
内黄
黄柏山
外黄縣
繁陽城
祺城
陳思王
雍丘王
禹祠
漢光武
雍丘城
植
酈食其墓
食其
陳思王集
食其墓
汴渠
考城
姚泓
巢亭
太叔疾
向魋
衛莊公
中山王
襄邑
考城縣
戴國
甾縣
城安縣
北梁郡
南兖州
濟陰郡
戴邑縣
黄溝
北亳城
葛國
寧陵縣
都城記
亳城
十三州志
南亳
穀熟
北亳
景亳
陽武縣
棣城
城棣
河南郡
晉地道記
博浪沙
郡國縣道記
孝昌
陽池城
原武縣
趙獻侯
耿
襄子
佛肸
田英
褰裳
太武
真君
景明
廣武郡
圃田城
内牟
郟城縣
圃田縣
中牟城
扶樂故城
扶樂
陳國
大扶縣
婦姑城
匡城縣
匡城
蒲邑
仲由
長垣城
滑臺
匡邑城
訾樓城
訾婁
長垣
訾樓
蒲城
子路祠
漆城
寧武子
宛濮
宛亭
濮水
漆
鶴城
衛懿公
夏累
酸棗縣
延津
淳于瓊
南燕縣
南燕
滎陽郡
金堤
靈昌縣
溝洫志
扶溝縣
淮陽國
小扶亭
洧水
之溝
許昌郡
北陳州
新汲故城
尹武公
單襄公
戲童
曲洧
新汲縣
曲洧城
汲
桐丘城
子元
桐丘
許昌縣
帛鄉
帛亭
太子建
虞延墓
子大
東昏
洛州
博物志
三塗
雒
郟鄏
郟山
皇甫謐
孝經援神契
周洛
幽王
犬戎
赧王
昭襄王
穀城
平陰
偃師
瑕丘公
申陽
河南王
陽
定陶
河南尹
卓
陳留王
奂
司州
王彌
劉聰
石季龍
永和
桓元子
王猛
東垣
西垣
神䴥
安頡
孝武帝
西魏
大統
大塢城
宜遷
建德
洛陽郡
河南道
楊素
洛陽宫
邙山
宇文愷
愷
侗
充
陽城
嵩陽
陸渾
陝東道
懷
穀州
壽安
宣範坊
顯慶
福昌
永寧
長水
懷州
濟源
氾水
陽翟
密縣
絳州
垣縣
乾封
咸亨
柏崖
大基
柏崖縣
緱氏縣
永淳
嵩陽縣
光宅
神都
永昌縣
載初
武臨縣
天授
武泰縣
武泰
來庭縣
神龍
來庭
伊闕縣
河陰縣
職方氏
李巡
九州記
賈耽
郡國志
郟鄏中
周平王
寬政坊
合宫縣
唐隆
新安縣
天津橋
金谷
郭緣生
述征記
金水
太白原
石崇
金谷詩
元康
金谷澗
芒山
平逢山
光武陵
北邙山
辛毗
楊佺期
洛城記
東洛
戴延之
西征記
張母祠
丹陽
田横
劉寬
楊修
後主
張華
嵇康
陸倕
阮籍
羊祜
梁鴻
五噫之歌
北芒
闕塞山
女寬
闕塞
孝水
廆
俞隨之水
河南城
西征賦
千金堰
九州要記
九龍祠
甘城
甘昭公
惠后
甘水
王子帶
大石山
晉惠帝
南山篇
大谷
孫堅
張衡
東京賦
通谷
閑居賦
王子虎
步廣里
帝王紀
景王
景王陵
太子宫
洛子神
洛子淵
樊元寶
洛下
元寶
銅駞街
銅駞陌
風土記
金市
馬市
臨商觀
酈道元
司馬昭
陽渠水
函谷
建春門
上東門
昌門
漢舊儀
王衍
石勒
開陽門
開陽
琅邪
開陽縣
平城門
平昌門
小苑門
冰井
陵雲臺
謻
門
薛綜
謻門
津門
陳宣
廣陽門
劉曜壘
試弩棚
鬬雞臺
射雉觀
河南十二縣境簿
繭觀
西明門
閶闔門
夏門
大夏門
魏略
魏武帝
晉宫闕簿
宣武觀
天淵池
宣武場
穀門
廣莫門
鞏縣
鞏伯
周顯王
西周惠公
武公
莊襄王
成皋
李密
洛口倉
洛川
九山
白桐澗水
卜成
九山廟
岑原丘
鞏穴
鮪渚
成公子
大河賦
琅邪渚
洛口
什谷
三川
鄩谷
京相璠
鞏洛渡
鄩谷水
下鄩
上鄩
北鄩
南鄩
明谿水
谿泉
明谿泉
明樂泉
五道泉
密國
鄶國
新密
密城
卓茂祠
陽翟郡
文宣
密縣城
滎州
法橋堡城
唐武德
大騩山
具茨山
具茨之山
洪堤
神芝圖
潩水
弘農郡
陝亭
周地圖記
蠡城
四夷郡國縣道記
澠池城
澠池水
曹魏
福昌縣
同軌郡
新安驛
熊州
惠文王
俱利城
秦趙城
續漢書
利陽
宜陽
滑國
滑
中亭
鉤鎖
公路澗
孝敬陵
緱氏山
列仙傳
王子晉
桓良
飲鶴池
嵩山記
覆釜堆
赴父堆
緱嶺
轘轅山
轘轅
轘轅坂
何進
半馬澗
盧元明
百馬澗
拜馬澗
佛光谷
百生墓
周暢
伯持
暢
潁陽縣
綸國
綸氏
綸氏城
堙陽縣
武林縣
王屋山
底柱
河東
古今地名
愚公
夸娥氏
神仙傳
甘始
茅君内傳
河清縣
陰
平陰縣
黄君漢
大基縣
咸通
王本立
大順
開寶
白波
覆舟山
盧世明
嵩嶽
覆舟
陶季述
京邦記
白水苑
曲洛
黄澤
曲河驛
續齊諧記
摯虞
漢章帝
徐肇
束晳
曲水祠
洛洞
劉義慶
幽明録
虢國
北虢
上陽城
平陸縣
焦國
魏襄王
陝縣
恒農郡
永熙
弘農
崤郡
弘農宫
崤縣
虢州
函州
南韓州
嵩州
陝府
芮州
芮城
硤石縣
大足
夏縣
陝郡
蒲州
虞邑
吐蕃
天祐
昭宗
興德府
哀帝
保平軍
靈寶
灞水
橐水
魯水
利人渠
長孫操
曹陽墟
七里澗
郭汜
東澗
曹陽澗
好陽澗
詹嘉
瑕
芮城縣
芮國
馮翊
魯桓公
芮伯萬
姜氏
魏城
畢萬
河北縣
河東郡
姚秦
河北郡
太陽城
安戎縣
浢水津
浢水
浢澤
河水
浢津
窴軨
南鄭
薄山
蒲山
甘棗
共水
薄坂
方山
雷首山
河中府
陰崖
旅巢命
臨晉縣
汾水
大名
郤芮墓
瑕甥
郤芮
缺
臼季
晉州
冀氏縣
吴山
虞坂
大陽縣
吴坂
伯樂
閑原
傅説祠
傅氏
沙澗水
虞山
虞城
鄍城
顛軨
鄍
顛軨坂
桃林塞
夸父之山
湖水
造父
穆王
三秦記
晉王斜路
函谷關路
湖城縣
晉王
函谷關
武關
楊僕
弘農縣
崤山
潼津
漢書訓纂
門水
終軍
尹喜
王元
隗囂
尹真人
靈寶縣
稠桑澤
虢公
桑田
冶盧
冶
硤石塢
鴨橋
安陽城
永寧縣
胡郭
底柱山
漢成帝
鴻嘉
楊焉
韋瓚
砥柱
常平
夏后皋
三崤
虢城
上陽
大陽
東虢
西虢
上官桀
巫咸山
覆奥山
鹽水
巫咸國
女丑
登葆山
大荒西經
靈山
巫即
巫盼
巫彭
巫姑
巫真
巫孔
巫抵
巫謝
巫羅
夏禹臺
土地十三州志
塗山氏
夏靜
與洛下人書
青臺
涑川
聞喜縣
河中
猗氏縣
青原
吕相
安邑城
秦山
秦嶺山
錢來
松果山
大華山
郭氏
西嶽
華陰山
夸父山
湖縣
閿鄉
黄卷坂
潼關路
黄卷
潼
京兆尹
胡城
首山
鼎湖
上陽宫
天平縣
大曆
虢仲
司隸
獻文
陝城
恒農
西恒農郡
鴻臚川
鳳林郡
盧氏縣
虢郡
鼎州
閿鄉縣
河東道
劉昆
鴻臚澗
朱陽縣
陽華
鴻關水
十三州記
朱陽山
樊磨
朱陽郡
東義州
𨻳
芹池川
恒農縣
遁甲開山圖
盧氏山
熊耳山
伊水
樊崇
魯昭公
城父縣
白羽
潁川郡
許縣
魏太祖
王思政
清河王
高岳
思政
長葛縣
北齊高澄
南鄭州
長葛
許昌
繁昌
黄臺
㶏强
臨潁
扶溝
北澧
葉縣
仙州
溵州
郾城縣
匡國軍
宋人
潁川縣
高陽里
荀氏家傳
荀淑
西豪里
潁陰
苑康
高陽氏
西豪
陳寔
太丘
元方
季方
叔慈
慈明
文若
德星鄉
東偏城
許莊公
百里
許叔
公孫獲
繁昌城
曲蠡
繁昌亭
繁昌縣
百官勸進碑
受禪碑
鍾繇
曹氏
太叔
文宣帝
鄢陵縣
黄巾
棗祗
任峻
永始臺
郭后
楚昭王
貞姜
漸臺
景福殿賦
陽城山
溱
少康
衛臻
康鄉侯
臻
鈞臺
夏啟
鈞臺陂
啟筮亭
大陵
昭陽
郾
賈復
劉緬
殷孝祖
臨潁郡
道州
韓弘
遂平
吕望
陸賈
范升
尚父
謝該
雋不疑
該
由余
鎬京
上黨
狐突
貍蜃
延陵季子
路粹
嚴象
激楚
陽阿
日磾
宜僚
漢律
襄仲
幽公
子家
夙沙
伊戾
英布
鬻拳
卞和
子政
穆公
南睢
初筵
都賴
魏尚
商瞿
延陵
孝章
朱穆
荀愔
三略
武軍賦
琳
龜賦
白雪
緑水
殷辛
氂
宫奇
季梁
公輸
即墨
田單
申鳴
樂羊
季友
孝靈
張楊
韓馥
公孫瓚
蒙恬
杜郵
尸鳩
姜姒
蓼莪
齊襄公
伯游
郭公則
辛仲
治
劉堅
皇河
田買
顯雍
審
閼伯
棠棣
三齊
七槃
巴渝
陳惠
越裳
肅慎
衛鞅
王粲
粲
尚書注
桃夭
無衣
竇
條
北魏
鐵木
怯薛
成祖文皇帝
榜葛剌
滿剌加
忽魯謨斯
韃靼
女直
野人
兀良哈
謝文正
倫諭德
文敍
以諒
以訓
黄行人
乾亨
如金
伍參政
\U000f2cf4
符
史僉事
俊
道
毛文簡
張侍郎
志淳
曾狀元
鶴齡
追
費狀元
宏
懋中
羅文莊
欽順
珵
孫文恪
鋌
堪
劉尚書
潔
鳳儀
葛少保
守禮
曦
周庶子
述
孟簡
文思
楊文懿
守阯
劉文簡
春
王文莊
鴻儒
鴻漸
楊光禄
惟聰
惟傑
王宫保
鼎爵
張嗣修
懋修
王刑侍
宗沐
士琦
士崧
士昌
曹樓
應天
武宗實録
費公
宷
懋賢
徐公
陟
璠
琨
元春
俊民
俊卿
俊士
元祥
嗣修
敬修
簡修
楊潁公
昌平侯
能
寧遠伯
李成梁
如松
如柏
如楨
恩育録
鄭濂
鄭湜
湜
鄭濟
鄭沂
幹
平胡詩
煁
爲善陰騭
鄭叔美
鄭檢討
吕震
陸文裕
玉堂雜筆
焦公
芳
鏊
許公
進
宇
傑
屠公
勳
鐩
滽
濙
謙
金公
濂
何公
儀公
銘
俞公
士悦
石公
璞
鎰
翱
廷和
梁公
儲
蔣公
子麟
璟
宗仁
澄
仁宗實録
楊文貞公
士奇
楊文敏公
楊文定公
宣宗實録
文敏
憲宗實録
劉文靖
健
孝宗實録
文靖
世宗實録
江陵公
穆宗實録
憲章録
王恕
丘濬
劉文泰
文泰
丘公
三原公
大司馬三原王公傳
關昶
吴禎
大司馬王公傳
三原
瑣綴録
文升
屠
吴原博
吴宗伯
尹文和
胡宗伯
胡濙
王直
尹公
旻
立齋閒録
安陸
諸司職掌
萬閣老
萬文康
楊文貞
雙槐歲鈔
慶元伯
唐氏
潘真
蔡用
紀貴
紀旺
孝穆太后
旺
秦絃
陸愷
郭鏞
父貴
祖旺
孝慈高皇后
徐王
紀氏
歲鈔
韓苑洛
李夢陽
張鶴齡
苗氏
祕録
西涯
燕對録
張皇后
壽寧侯
壽寧伯
巒
延齡
客坐新聞
太倉
孫廷慎
皁林
夷堅志
憲章類編
蕭敬
懷恩
李榮
尚銘
孤樹裒談
苑洛雜識
劉大夏
戴珊
劉健
陳寬
劉宇
李空同
許進
韓文
焦芳
雙溪雜記
楊廷和
劉忠
劉瑾
謝遷
王鏊
成國公
朱瀛
廷儀
秦民悦
玄真觀
曹元
靳貴
梁儲
費宏
楊一清
蔣冕
毛紀
晉溪
江彬
王毅愍
鴻猷
薛氏
憲章
楊文忠行狀
王瓊
張鋭
張忠
許泰
錢安
鋭
李獻
桑弘羊
張佐
宸濠
亦虎仙
錢寧
王新建
霍文敏
黄久菴
新建
新都
近峰聞略
正陽門
崇文門
馬永成
王文恪
陳洪謨
繼世紀聞
東安門
永成
近峯
陸完
固安
惠安伯
張偉
馬中錫
涿
震澤紀聞
趙鐩
幽燕
韓林兒
大宋
李文正
桂萼
武宗皇帝
張仁
劉文肅
薛仲常
高岱
鴻猷録
楊用修
楊公行狀
谷大用
蔣文定
吴東湖
梁文康
楊文襄
楊文忠
高子
薛子
李遜學
朱寧
寧王
王鴻儒
丹鉛餘録
文安縣
王鈞
魏彬
汪玄錫
蕭淮
丘聚
張雄
于經
劉祥
孫和
劉養
佛保
趙林
馬英
蘇晉
劉拳
周昂
吴經
丘得
顔大經
許全
馬錫
張洪
馬昂
周惠疇
王杲
皮德
朱福
鄭宏
臧賢
劉實
王晉溪
費鉛山
楊新都
梁南海
楊師傅
丹鉛雜録
震澤長語
皇明通紀
孝王
董賢
張綵
震澤公
武廟録
高麗國王
李仁人
瑶
李成桂
漢城
成桂
仁人
祭海嶽祝文
祖訓條章
芳遠
大明會典
祖訓
朝鮮國
李懌
高麗王
王顓
顒
王昌
定國君
王瑶
趙胖
恭愍王
辛肫
禑
安氏
玄禹實
鄭夢周
鴨緑江
王禑
王伯安
伯安
勝果寺
伍員
告終詞
廣信
王公年譜
舟山
鐵柱宫
龍山公
鄱陽
龍場驛
錢德洪
德洪
戴銑
武夷山
沈周
楊文襄公
王海日公華墓誌銘
王文成公年譜
行狀
王恭襄
餘冬序録
梁廷用
回道人
白巖
李謫仙
喬公
汪若谷
張炳
劉苞
和君
韓文公碑
吕洞賓
滕宗諒
高策
純陽子集
梁生
秦楚材
積金峰
蘇養直
羅浮山
裕夫
白巖公
秦用
盧明
王守仁
鎮國公
朱壽
安邊伯
朱泰
朱暉
平虜伯
朱彬
畢真
劉瑯
劉璟
廖鵬
齊佐
王準
王瓛
瑯
鵬
瓛
準
商忠
杜裕
趙秀
李英
西樵野記
蔣閣老
全州
陸太宰
哈密
孫堪
許瑒
孫燧
許逵
王忠肅
竚
余肅敏
子俊
寘
巵言
高蘇門
彭湖
吴峻伯
延祐
交事紀聞
御製送毛伯温南征詩
損齋備忘録
送總兵楊文征蠻詩
備忘録
哲宗
原傑
襄敏公
楊豫孫
謚纂
鄖陽
原公
言行録
南劍州尤溪縣學明堂記
喬宇
一清
桂華
湛若水
方獻夫
若水
萼
大典
方鵬
方鳳
鳳
璁
李承勛
進明倫大典表
徐左使
學謨
楚通志
王廷陳傳
廷陳
毅皇帝
舒芬
汪應軫
石珤
烏母謡
裕州
曹嘉
江暉
馬汝驥
暉
應軫
肅皇帝
顧璘
璘
承天志
肅皇
台州
丙戌進士題名記
戊辰記
徐文華
順天府
周璽
楊玉
武録
怒
陸武惠炳傳
衞輝
華亭公
墓誌
嘉興
穆廟録
趙貞吉
王元馭
萬鏜
鏜
趙文華
陶仲文
朱隆禧
麻城
徐宗伯
冰廳劄記
王金
李太宰
華亭
西長安街
趙尚書
徐少師
徐文貞公傳
顧定芳
陸文裕公
世廟
許文簡公
讚
霍韜
吕柟
鄒守益
薛蕙
任瀚
黄佐
蕙
夏公
永壽宫
玉熙殿
永壽
英宗皇帝
雷禮
王沂公
文貞公
山齋語録
楊文定
文貞神道碑
三朝聖諭録
宣皇
楊文敏
解學士年譜
庾嶺
楊文公
藏經
觀音金剛經
禎亮
禎期
三萬
鐵嶺衞
解烏仔
紀綱
縉
綱
程學士
敏政
道傳
遼王
文皇帝
臨邑
文敏墓誌銘
鄧真
神道碑
虞謙
楊時習
時習
虞公墓誌
聖諭録爲
夏忠靖神道碑
吕公碑
金榮襄公濂墓誌
陳芳洲
何文肅
喬新
浙東
景皇帝
袁永之
定襄伯郭登傳
定襄碑誌
水頭
沙窩
栲栳山
定襄伯
順聖川
哈剌
昌平
武清
楊信
彰武
安遠柳武肅侯溥墓誌
平江侯
陳豫
武清侯
石亨
安遠侯
柳溥
甘肅
廖學士
茹忠誠瑺傳
谷王
橞
瑺
陳璉
異典
王文端
陳公志
黄才伯
吴溥墓表
文端
徐武功行狀
尹昌
黄瓚
趙智
陳雲
傅綱
黄回
徐珵
賴世隆
吴節
李紹
姜洪
虞瑛
潘洪
王玉
陳金
鄭建
方熙
何瑄
王忠肅行狀
李文達公
李賢
岳季方
姚文敏
王忠肅公行狀
劉讓
兵部事例
平鄉伯
陳懷
顧恆
余子俊
僮
陳政
郭定襄嵩墓志
忠武侯
忠武
會昌侯
孫繼宗
繼宗
文毅
黄封丘紱傳
蹇尚書
忠定
謝尚書
一夔
叔融
孜德
召和
文昭
歷城
汪直
孜省
景
丁未會試録序
李孜省
王襄敏墓志
威寧海
威寧伯
威寧
奉天翊衞推誠宣力守正
屠襄惠
襄敏
肅州
沙窩堡
孫世其
磯園雜録
馬端肅
襄惠
端肅
屠滽
馬文升
徐文靖
程尚書宗墓志
木邦
罕穵法
孟養
恩六
孟密
曩罕弄
木密
材寨
田汝成
西南夷傳
利府
司歪
罕楪
罕穵
南寧伯
毛勝
錢能
王舉
周賓五
昭德宫
萬皇親
程宗
宗
吴誠
南牙山
林俊
曩罕
睦㮮
馬端肅傳
陸康僖公瑜神道碑
盱江
門達
弘農衞
李斌
英廟實録
孝廟録
文肅
瑜
武功伯
徐有貞
有貞
金齒
尹文和傳
程諧
司馬君實
宋瑛
黄景
尹直
張涇川
李古澹裕葬志
李都御史
耿公
戚編修瀾墓誌
王文肅
㒜
文湍
錢塘江
桑石
丘文莊公
戚瀾
丘先生
文莊公
文莊
九疑
曼卿
湛甘泉
莊定山墓志
定山
泌陽
李尚書
遜學
焦少師芳葬誌
通鑑節要
孝廟實録
陳鋭
神英
何錦
丁廣
安化
㫤
仇鉞
通紀纂要
韓福
綵
徐子元
許龍
上虞
徐文彪
焦泌陽
泌陽墓志
讀李文正墓志
張瑋
崔濬
姚祥
纂要
齊化門
文恪
李文正墓誌
董狐
崔璿
張家灣
文忠行狀
居庸
張龍
楊閣老
德勝門
榆河
左順門
林介立時行狀
張太監永志
楊文忠公行狀
陳嚴
坤寧宫
西安門
北安門
文忠
張永嘉
陳司馬
楊内閣
康對山
許宗魯
張治道
夢陽
對山
何柏齋
柏齋
李郎中
薛應旂
李子
白
黄泰泉
董大理傳
謝給事
吕仲木
德涵
馬伯循
猛
禰衡
黄祖
力士
中山狼雜劇
應旂
中山狼傳
馬左都
中錫
王太史
九思
董少卿
康公行狀
謝閣老
黄中
仲木
王濟之
濟之
熊尚書翀墓志
喻司徒
馬端肅公
馬文貞公
熊翀
王文成行狀
長安街
黄綰
石和尚
劉千斤
狀
沅
貴陽
龍場
浰頭
池大鬢
横水
池仲安
盧珂
鄭志高
陳英
珂
贛
楊少師
彭少保
憲
王時中
吴廷舉
李充嗣
席書
費文憲公
謝文正公神道碑
邃菴
張羅峯
桂見山
張恆山子麟志銘
胡世寧
張子麟
新建伯
伍文定
謝源
伍希儒
源
楊太宰旦傳
江汝璧
見山
桂公
羅峯
陳洸
一鵬
偉時
孟公
洸
劉天民
偉
天民
屈都御史傳
胡端敏公世寧墓志銘
吴鼎
七
陳九疇
曾太僕直墓志
羅文恭
洪先
慶陽伯
張柱
熊公
浹
顧文康
李文康墓志
皇史宬
累朝訓録
乙未登科録
桂文襄萼志
張文忠
明倫大典
秦端敏公金志
端敏
翟文懿行狀
召對録
大用
劉松石行狀
劉端簡公
采
廖堂
堂
萬侍郎
治齋公
王襄敏公以旂墓志
銑
晉江
李源
德州
孫九峯
鹿野史公行狀
石齋
金鄉縣
南陽府
金鄉
孟奇
吴愷
于桂
閻宏
咸寧
黄尚書綰行狀
聶貞襄豹行狀
陽明先生
綰
盛榮簡端明墓表
歐陽文莊
吴明卿
李文正公
梁相
明卿
江都御史潮墓志
李福達
福達
張寅
武定侯
郭勛
勛
李五
張五
馬録
録
桂安福
劉中丞夔墓志銘
費文通
武廟實録
席尚書
趙洪洋志
王憲
夏少師
李琮
琮
劉端簡公采行狀
徐少保
方司徒
鈍
趙司空
吴訒庵公山志
屠文陞
程先生文德墓志
默
用賓
程公
汪伯玉
吴峻伯狀
峻伯
王學柳
泰安州
段御史
顧言
泰安
衮
文待詔
徵明
朱恭靖公希周神道碑
徐尚書
吴文端
吴一鵬
羅欽順
趙鑑
趙璜
嚴文靖公行實
徐文貞公
袁提學尊尼墓誌銘
周天球
全元立
全公
袁君
汪諭德
汪子才墓志銘
汪郎
翊公
夏文愍
文愍
朱希忠
希忠
孫應奎
遴
應奎
陳鏸
郭仁
仁
宗凱
興宗
建文君
標
興宗孝康皇帝
懿敬妃
孝康皇后
本
皇太子紀
懿文皇太子
陳迪
濠州
開平王
遇春
懿敬
壽州
帝號紀
元王
濞
如意
東平憲王
高煦
直隸
重順
同姓諸王表
鎮平恭靖王
有爌
道統論
歷代賢王傳
榮莊王
子堠
端裕王
同䥸
昭順王
安泭
睦欄
中山侯
德慶侯
東勝
東平
藍氏
馮宋公
傅潁公
厲
灌
鄂國公
曹國公
衞國公
愈
信國公
誠意伯
基
李韓公
廖德慶
吴江陰
靖海
常遇春
張士誠
鄭國公
開國輔運推誠宣力武臣
納哈出
昇
玄振
永樂以後列侯表
鄧愈
虹縣
申國公
梃
繼坤
侯表
湯和
信世子
晟
文瑜
紹宗
沐英
朱文英
國公表
黔國公
沐晟
英公
奉天翊運推誠宣力武臣
定邊伯
昂
紹勛
朝輔
朝弼
昌祚
保國公
朱永
伯志
建州
麟
郄慮
賴義
崔元
顔頤壽
南贛
安慶
汝寧府
北直隸
李士實
劉養正
大駕親征辭告禮儀
朱勳
朱杰
朱周
朱琮
黄偉
顯陵
巡幸考
張輔
薊州
遵化
陳景先
灤河
蹇義
楊士奇
夏原吉
王驥
施禮
凌晏如
楊溥
姚友直
王貴
五里橋
張堪
石門驛
喜峯口
親征
慈聖康壽太皇太后
孝貞太皇太后
顧侍郎
清河
李鐩
天壽山
林岳
馬誠
長陵
獻陵
景陵
裕陵
泰陵
懷來
保安
萬全左衞
天城
陽和
葉椿
關山
楊俊
偏頭關
綏德州
戴欽
米脂
綏德
石州
文水
晉府
楊騰
劉良
保定府
伍符
王珝
神周
珝
龔弘
黎鑑
盧溝
林文纘
濟寧
清江浦
張陽
胡琮
朱輔
鎮遠侯
顧仕隆
寶應縣
范光湖
揚州府
上方寺
泰州
新閘
黄昌
馬昊
王獻
牛首山
龍江
江口
瓜州
望江樓
寶應
蔣瑶
叢蘭
山陽縣
金濂
積水池
薛璽
陳嘉
張鼇山
林正茂
正陽橋
南狩注
睿宗
德祖
懿祖
熙祖
仁祖
山海關
恆山
滎澤
武當山
豐驛
承天府
純德山
正陽
雁門
固原
鄭村壩
大黄莊
白羊口
紫荆
倒馬
鈞州
裕王
咸寧侯
仇鸞
東寧伯
焦棟
翊國公
潘璐
嚴嵩
王庭相
趙州
陳寅
臨洺鎮
厚煜
溶
汝王
祐椁
新鄭
鄭王
厚烷
王聘
侯郡
張衍慶
易瓚
馮震
朝堈
徽王
厚爝
賈詠
唐王
宇温
許讚
伊王
訏亨
慶雲宫
隆慶殿
紅門
初謁純德山喜而自得之詩
李廷相
張璧
陸深
龍飛殿
稜恩殿
獻陵之歌
顯榕
獻皇
張治
思恩之賦
胡守中
崇王
載境
訏諄
謝少南
慶都
堯母墓
李浦
太平安樂公主
韋嗣立
宋務光
太平安樂
瀋
岷王
肅王
岷府
代府
唐府
韓府
遼府
豐林王
宗藩條例
榮王
莫登庸
胡璉
高公韶
雲貴
公韶
江桓
楊鼎
田茂
孫繼武
樊泰
蕭鼐
湯慶
陳偉
李鶴鳴
傅鳳翱
馬汝彰
胡時濟
毛伯温
登庸
方瀛
阮文泰
鎮南關
鸞
伯温
柳珣
烏雷山
蓮花灘
沐朝輔
蔡經
汪文盛
福海
文明
阮如桂
四峒
海陽山
翁萬達
翟鑾
張瓚
謚法通紀
王褘
文節
姚恭靖
廣孝
胡文穆
恭靖
洪熙
魯王
荒
愍
文榮
傅友德
徐輝祖
章溢
唐鐸
胡儼
魏源
劉玉
馬永
王効
楊瑄
黄鞏
王思
楊爵
吴與弼
胡居仁
楊慎
李攀龍
李善長
馮勝
廖永忠
耿秉文
丘福
陳循
于謙
劉吉
宣國公
漳州府
王禕
汪克寬
康能
陳文
李全同
阿都赤
臚寧王
脱歡
脱脱不花王
把把的
昂克
學的打力麻海荅孫
阿都剌忽秃不花
撒都剌
淮王
也先
把把只
伯顔帖木兒
小的朱王
也里
瓦剌
占城王
阿荅阿者
安南王
陳日煃
顓
李春富
陳理
明昇
琉球王
察度
琉球
山東王
承察度
暹羅國
烏思藏
灌頂
尼八剌
尼八剌國王
癿列工
察里巴
仰卜羅沙魯
列思巴端竹
荅里巴遠毋爾監卒
德化里
天爵
忠武王
邛
𤏡
述律公
充國
先零
杜君
彦表
容城
劉文靖公
烏冲
内丘
林起宗
大都
房山
賈彜
趙郡
蘇天爵
金世宗
小堯舜
五臺
惟仁
嘉禾圖
横海軍
千里馬圖贊
上京
夫子
賀惟一
李溥
許有壬
世祖皇帝
董昱
李輔國
元公
來瑱
商庠
姚文獻公
王文忠公
許文正公
商文定公
秉忠
天澤
廉公
希憲
子貞
文謙
文炳
賈公
居貞
良弼
昶
世隆
竇公
文用
郝公
恭懿
守敬
光山
孔君
豳風亭詩
逯君
思迪
永貞
新樂
李栖筠
宋太平興國
浙右
文水縣
云周里
汾河
真定路
真定縣
新市鄉
新城鎮
登科記
集英殿
遼陽
張甫
子威
盧奴
天平城
滋
泒
新市
蓋氏
趙某
龐某
劉某
張某
天地無私覆載
發倉振乏餒
正心以正朝廷
趙渢
趙文昌
蕭貢
孟奎
孫椿年
楊庭秀
路元
椿年
伯禄
仰陵原
王寂
泰和令
共姜
紀叔姬
鎮陽
張祜
祜
奎章閣
漢泉漫稿
曹文貞公
復亨
履亨
貞
郊
島
好問
嚴侯
西林先生
蠶災謡
修鄉校詩
齊乘
趙忭
大一統志
益都
徵
渾源
膺
祗遹
汲郡
博文
孔孫
漢陽府
内方
眉山公
哈剌台
德卿
伊洛淵源録
子朱子
鄂省
趙郡蘇天爵
魯齋先生許文正公
魯齋
祁文思
正學編
臨卭
魏文靖公
仁皇
顯夫
燕石
榮祖
新格
徐侯
思讓
性理四書
雲某
紫陽
薊丘
張侯
士從
燕南
江右
伯充
楊文康公
家禮
關隴
蕭公
𣂏
泰定
星子縣
開先寺
南康郡
都昌
福州路
天曆
小學大義
孟子標題
讀易私言
中庸四箴
莊慎公
傳家誓訓
東丹王
蔡公
硯氏
彌堅
伯固
堅
頴州
汝翼
德安
珎
端禮
直卿
王景宋
景宋
劉仁卿
鄖城集
砥
閻公
養直
臨濟村
因
夢吉
臨洮府
昉
中山府
俣
貞祐
國寶
興定
秉善
中統
武邑
駰
夢驥
硯公
中山滕公
希聖解
吊荆軻文
渡江賦
静修
郎山
雷溪
雷溪真隱
田尚書
易州
瑋
四書集義
精要
丁亥集
小學四書語録
易繫辭説
聶輝
至大
成廟
李謙
尚文
趙居信
劉敏中
蕭㪺
程鉅夫
郝天挺
韓從益
劉正
程鵬飛
董士選
陳天祥
王思廉
咸寧縣
少陵鄉
朱張里
至治
四川行省
廉公惇
江浙行省
孛术魯公
翀
扶風郡公
貞敏
同公
吴文
正公
鄧伯道
吴文正公
侯均
姚文公燧
姚公
蕭先生
九州志
同毅
陳㽦
智炳
李材
盧烈
蕭維斗
文原
端
蒙古
應州
土番
英皇
淮東
鄆忠獻王
魯忠憲王
安童
駐驛頌
忠憲王
晉邸
菊潭集
順陽
博山書院
味經堂
陝西行省
南陽郡公
鄧
永昌鄉
西樊里
四望山
貞隱先生
南陽郡夫人
稼穡堂
履謙
伯恒
大明曆
曆經
曆議
惠通河
色目
濱州
易本説
繫辭旨略
蔡氏書傳詳説
春秋諸國統紀
大學四傳小註
中庸章句續解
論語言仁通旨
皇極經世書入式
外篇微旨
授時曆經串演撰八法
二至畧景考
金門
世皇
羲和
袁氏
轂
處州
正獻公
爕
正肅公
越公
㲄
正獻
舒岳祥
鉅夫
構
成宗皇帝
昊天五帝議
祭天名
數議
圜丘非郊議
卽社議
祭天無間歲議
燔柴泰
壇議
郊不當立從祀議
郊明堂禮儀異制議
郊非辛日議
北郊議
吕思誠
宋褧
王守誠
祖常
士熙
清容居士集
淛東
梁郡夫人
慶都縣
太君
奎章閣記
龍虎臺
皇圖大訓
承華事略
列后金鑑
千秋記略
子立
主静
太極圖訓
陵州
元城縣
令公鄉
通制
滿城
張廵
許遠
從革
授時曆
奉元路
關輔
二老出關圖
踈
郡侯
康靖
守簡
子敬
守中
義沉
栢柱
浙西道
湖廣行省
忠穆公
忠宣公
士選
士恭
守庸
范孟
董左丞
至正條格
九門
宋氏
褧
宛平縣
香山鄉
橛山
衡州路
范陽郡夫人
興山
皇慶
明善
養浩
汶陽
元用
孛朮魯公
元統
天曆實録
天妃
閩海
宋高宗紀
燕石集
妙品上上
名家
賞音
情境超詣
才情
漷州
段懋
託寅
李玉林
黄童
建陽
嚴斗巖
斗巖
嚴滄浪
三山書院
浙省
明廟實録
春秋經旨
四書一貫
蔣氏
邵武縣君
近仁
模
樞
檟
上官文本
吴國瑞
詹夫人
泌
道原
祐
郁
秉彜
平昌郡伯
師敬
冠州
上都
條格
若金
與礪
湘潭
廣明
臨江
新喻
川陝
循州
元余
君平
价
曲江
允迪
明可
阿榮
岳麓書院
若霖
德麟
宜男
宜弟
擢秀鄉
玉隆山
周易備忘
中晉書
要言
讀通鑑詩
因讀記
槀城
新豐鄉杜家原
志學指南圖
心學淵源圖
孝經圖解
小學題辭發明
魯菴家説
王公結
順德
静修先生
存齋
安君
謁劉
詩講疑
侯君
王文恭公
登歌樂
梁氏
四傳歸經
伯啓
貢公
剛中
柳城
燉
鄱
黎君
存
江浙
儀可
邢氏
武元
楊割太師
龕福
胡來
核里頗
蒲剌束
楊割
吴乞買
思改
粘罕
蕭解里
解里
延禧
咸雍
李儼
蕭奉先
契丹志
楊朴
大聖大明皇帝
大金
長春
趙三
阿鶻産
静江軍
蕭習烈
東懷國
至聖至明皇帝
大金皇帝
許亢宗
奉使契丹條例
白溝
冒離納鉢
拒馬河
代郡
淶水
容城縣
雄州
歸信縣
新城縣
阿保機
莊宗
〔詩〕
宗澤
澶州
閭邱升
濮州
黄潛善
趙野
范訥
向子野
鉅野
何志同
梅執禮
程振
陳知質
安扶
執禮
胡唐老
胡舜陟
姚舜明
王俣
武功記
湘妃
大潘
小潘
濯纓
澹翁
阿永
景升
文度
柳柳州
滕六
后山
文同
渭城
居延
凌煙
歸去來
大阮
三都
過秦
濟翁
石井
龎公
剡
梅花賦
螺山
惠山
玄元殿
扶桑
翟園
玉林
茂松軒
驪駒歌
華鏜
許靖
華佗
四明狂客
剡川
安福
李與賢
似剡
昭陵
稽山
季真
禹穴
興公
天台賦
孤竹
先軫
郭橐駝
龍井
淇奥
太液池
不直
太史滑稽篇
蓬莱
龜蒙
海棠花下醉卧圖
尤
復古殿
一覽亭
志功堂
公瑾
小喬
小蠻
燕然銘
宋光武
趙少康
封禪
貞符詩
陾
中興慶壽篇
春秋論語
冬郎
猗那
皇矣
奚斯
漫郎
聖孝詩
沈隱侯
謝玄暉
寶婺
雙溪操
阿麟
杜康
雲安
建鄴
酒經
伯雅
絶交篇
莊周
金華
神武
印山
羅天文
周雅
康鼎
仇香
黄叔度
皋旦
華文
文賦
阿香
平津
三瑞堂
麻姑
春草篇
旴水
張飾庵
飾庵
光皇
子真
汪端明
禾水
盧溪
項斯
屏山
十論
甘老
玉皇
阿旦
恩江
畢逋
竇憲
曹霸
岐伯
華陽洞
枕中鴻寶
回巖
釣磯
中唐
雄狐
禄兒
馬嵬
元度
揚子雲
司徒
箕疇
羲之
詹尹
謨訓
鵲巢
渭濱
商嶺
鴻鵠之歌
湘流
螺浦
循吏傳
講德論
王某
曹參
傅說
子虚
步兵
菑川
潁濱
黄樓
江介
牧之
丹井
鐔城
修水
快閣
小雅
兔園
橘頌
酒箴
南溪
慈塔
孝先
何蕃
中沚
莪蒿
天禄
瀛洲
乘成先生
同谷
西塞
六一
平子
四愁
治安
審敵
采石
康衡
光堯
韓世忠
劉光世
謝安
亘冲
張浚
岳飛
劉珙
張栻
謝元
郄超
亘温
李勢
劉惔
蕭何
段凝
孫武
穰苴
杜恕
錯
漢高帝
萬里
沈复
秀州
錢良臣
正觀政要
賈偉
許知新
抑之詩
趙武靈王
晃
奉新
直躬
商盤
謝蔡卿薦書
送蔡漕序
半山
江西宗派詩序
老萊子
尤延之
湯朝美
讀邸報感事
上皇帝書
元后誄
序篇
離婁
載道
枚乘
張景陽
鄶
弔屈
乞巧
枚
吴武陵
虎祁
冀北
班春亭
答徐達書
易牙
澠
淄水
澠水
長孺
臧武仲
機仲
易書
辯歐陽子易說
袁子
離婁子
屯蒙
功父
曾端伯
百家詩選
次公
蕭郎
南湖
寄湖中隱者
元賓
言偃
舞陽
玉川
毗陵
嘉貞
荀悅
王陵
西子
陶泓
房湖
子荆
向秀
魏證
封倫
正觀
乾道新書
利害札子
范仲淹
日曆
高宗皇帝日曆
至尊聖壽皇帝日曆
王藺
留正
程侅
帝王君臣論
時務利害策
月堂
祖光
譚氏
峽水
凌煙銘
景延
庾元規
彦純
水月亭記
直夫
元渤
王元之
竹樓記
宜雪
鄭子真
嚴子陵
下泳
蕭民望
民望
永新
炳先
周直夫
怡齋記
彦周
魯仲
伯承
南軒
清純
浩齋
彦與
張堯臣
張功父
以道
寒緑軒
杞菊賦
寒緑
堯臣
羅氏
凝歸門
完塘
武岡
印岡
東西塘
長吉
惠國
南陽侯
亮夫
時侃
時俊
神虎門
景伯
頣
盡心
定國
歐陽崇公
伯威
脞辭
習齋子
道子
三劉
李開
去非
愚言
陳晞顔
敦復齋記
晞顔
秋日十咏
謁衡嶽
臨漳
林甫
令孜
莆陽
沃
御史公文集
晩唐
聞新雁
遊東林寺
上李補闕
退居
韓致光
吴融
翁承贊
曾時傑
睎說
滔
文江
光化
黄滔集
多稼亭
德輝
子城記
蒼梧集
之望
說命
陰鏗
何遜
蘇子卿
與賢
壽聖
似剡正論
劉蜕
沈顔
皮日休
羅江東
李泰伯
王戎
陸羽
章江
雙井
江西宗派圖
謝幼槃
達臣
獨醒雜志
三聘
和陶詩
九日閑居
文蔚
補注韓文
順宗實録
上李實書
送鄭權序
城南聯句
羑里操
春秋指掌
集義
二帝
西歸集
劉伯順
鍾仲山
竹枝歌
劉涣
伯順
清遠
南海集
江湖集
朝天集
謝昌國
壽皇聖帝
江西道院
江西道院集
江亭
霍和卿
昌國
和卿
當世急務
陳去非
渡揚子江
尤梁溪
朝天續集
劉繼先
江東集
劉炳先
繼先
上行
全略
維藩
維翰
全材
全德
上達
維申
孚
澥
羅氏一經集
東夫
千巖摘藁
蕭千巖
子駒
無玷
順寧集
劉光祖
李兼
孟達
披沙集
桓靈寶
齊賢
通鑑韵語
艮齋
太史遷
廣陵散
惠子
秋
張老
羅惟一
允中
尚書集說
思
惟一
從之
立誼
林謙之
王符
潜夫
崔寔
政論
魏鄭公
陳祥道
禮書
樂書
祥道
建昌軍
三山
晋之
女樂
宋褘
涣
柲
澹庵文集
池陽
必勝
董振之
何巨源
雷
棫
銓
邦衡
澹庵
益國
淦江
子穎
覽古詩斷
開州
師宋
元勛
崇公
思賢録
思賢續録
内篇
逍遥遊
齊諧
鵬賦
宋榮子
藐姑射
黄庭經
肩吾
連叔
南郭子綦
神禹
昭氏
雜篇
林鬳齋
公孫龍
膾
胥敖
逍遥篇
瞿鵲子
瞿鵲
驪姬
清静經
惠能
庖丁
文惠君
桑林
經首
人間世
王駘
申屠嘉
養生主篇
常季
思適居士
徐遵明
杜伯山
靈光
姬公
忠甫
弘文
陳李
聞人
説文解字
東海
林宗
斧季
繋傳
楚金
寒山
靈威
清祕
余丞
小宋
之冏
吳志
承祚
少期
孫宣
敬室
劉昫
編年
見可
身之
中興館閣
潛采
杏壇
并官
叔節
郰邑
列女
深父
賫研
南城
歷代紀年
也是
樂圃先生
郡志
懸磬
嘗熟
竹垞
新定
可則
雅雨
余姚
熙寜
晉代
吳縣
沖虚
處度
敬順
吳都
蘆泉
欣遇
述古
共山
倦翁
愧郯
長塘
夢羽
光遠
鑑戒
文瑩
湘山
揮麈
明清
圖畫
茅亭
傷寒
産科
活人
事親
十便
大衍
千金
備急
秘要
翰林歌詩
九家杜注
寶慶
麻沙
辰翁
點勘
賓客
文房
建昌
次道
敬輿
中書
一品
胡曾
詠史
米
睦親
唐求
味江
幼微
咸宜
昭諫
用晦
朱慶餘
温國
傳家
子遹
劔南
友林
梁溪
撃壤
泰興
乖崖
崇陽
立方
參寥
攝六
致道
才調
宏秀
百家
萬首
唐粹
宋選
紅豆
河汾
統和
四六餘話
伯玉
愚齋
三賦
梅山
文訣
曆要
忘憂清樂
梅花喜神
類説
香嚴
芳茮
延令
敏求
百宋
宣父
七録
雄
閭
蒼
嶠
管敬
璡
河間
關内
疁
弁
顧廣圻
洙泗
素
中壘
凡將
顧君
巨朔
崧
鴻溝
七畧
釋音
黄唐
監
陳髯
郭子
蕪城
河上歌
集古
德父
貝君
小戴
投壺
顔黄門
緑净園
雲林
清閟
高岡詩
王猷
裴駰
邶
鄘
衛風
鄉飲酒
華黍
燕禮
大小雅譜
肆夏
繁遏
緜
樂經
皇氏
劉芳傳
芳傳
鄉射疏
金壇
段氏
茂堂
四郊小學疏證
疏證
思適齋筆記
楓江
有虞氏
保傅
賈子新書
賈誼傅
蔡邕集
明堂月令論
大戴
劉芳
保傅篇
三禮義證
鄉
射
有虞
顧千里
吳子
志忠
張觀察
古餘
與古
秣陵
正行街
翁子
小海
松陵四君畫象
計甫草
顧茂倫
潘稼堂
吳漢槎
吳江
松陵
朱長孺
王曉菴
陳見桃
儀徴
阮君
梅叔
芸臺公
珠湖漁隱
千里
珠湖
白下
何驃騎
馬少遊
虎邱
冶坊浜
普濟橋
石觀音殿
普門品
觀音
釋子英
釋迦文佛
阿彌陀佛
劍池
黄溍
雲巖寺興造記
蔡林
千手眼大悲菩薩贊
四面觀音殿
千人石
生公臺
范文穆
蔣堂
希魯
君謨
必
邵必
蔡忠惠
李陽冰
隆祖塔院
趙吳興
隆祖師銘
半塘寺
下津橋
一雲散人
顧千里甫
元和縣
壽聖教寺
後梁
龍德
陀羅尼經
魏憲
德祐
戴覺民
淳祐
長樂
潘牥
紹聖吕升卿
程振父
千人坐
可中亭
周師成
倪祖義
點頭石
王質
大悲像贊
天王
黄文獻至正
文獻
望山橋
下塘
方家橋
范蔚宗
華元化
阿瞞
闕史
元化
省齋
白蓮涇
鄧哀
銅臺
高陵
松崖先生
樸菴先生
江艮庭
粤東
泮環巷
磐卿
仲孺
東渚
椒聊詩
采蘋
木瓜
阮中丞
考證
孔仲達
仲達
毛鄭詩考讀
春秋元命苞
頡皇
吕不韋
史皇氏
子列子
子公羊子
子沈子
中庸章句
子程子
五經義疏
子皮
子羽
夏書
許叔重
晉惠公
梁伯
妾
句踐
李君實
沂水
韓昌黎
李翱
伯子
大全辨
邠風
月令章句
元嘉起居注
韋朗
源賀傳
五經文字
昔昔鹽
王賓
仲光
虎邱詩
郝經
仲誼
吕敏
志學
曾朴
彦魯
寧居中
周南老正
至正丁酉冬督役城虎邱詩
月泉吟社
青溪社
應社
金沙
張溥
天如
張采
受先
楊廷樞
維斗
楊彝
子常
顧夢麟
麟士
朱隗
雲子
王啟榮
惠常
周銓
簡臣
周鍾
介生
吴昌時
來之
錢旃
彦林
廣應社
貴池
劉城
伯宗
吴應箕
次尾
萬應隆
道吉
蕪湖
沈士柱
崑銅
沈壽民
眉生
吴䎖
扶九
孫淳
孟朴
復社
幾社
聞社
南社
則社
歷亭社
席社
崑陽
雲簪社
羽社
朋社
匡社
讀書社
大社
淮泗
齊魯
陸文聲
臨川縣
周之夔
婁東
吴下
卧子
金毓峒
姜埰
顧杲
留都防亂公揭
福藩
王鼎實
東南利孔久淹復社渠魁聚歛
陳貞慧
定生
桐城
錢秉鐙
幼光
陳芹
寧鄉縣
懋謙
孟震
資賢
淛
世祥
復初
倬
喬棟
才甫
夢榛
獻翼
孔昭
公遠
雲龍
曰瑚
紀亳州
振東
陳將軍
經朝
顯節
道貫
道會
應魁
時復
子玉
學禮
是龍
文柱
青溪社集
吴瑞瑴
朱秉器
停雲小志
秉器
金陵社集詩
華玉
王欽佩
徐士仁
陳大聲
朱子价
何元朗
金在衡
盛仲文
皇甫子循
黄淳父
桃葉
陳寧鄉
芹
笛步
在衡
仲文
幼于
百穀
曹學佺
能始
冶城
臧晉叔
陳德遠
吴非熊
吴允兆
柳陳父
盛太古
臺城
新亭
白門
秀水
姚澣
北若
秦淮河
國門廣業
阮集之
燕子箋傳奇
秦德公
曆釋
王鎮惡
鎮惡
崔信明
桑文侯
艮山門
大樹巷
抱鐺圖
弢甫
調元
五岳
五岳集
大梁書院
秦本紀
戴封
西鄂
楊弼
楊君
度尚
韋義
劉仁
劉衡
思善侯
楊著
譙玄
槐里
仲定
王純
陳重
嵇紹
陶潛
錢氏私志
遼國
韓正
天童經
乾象典
歲功典
曆法典
庶徵典
坤輿典
職方典
山川典
邊裔典
皇極典
宫闈典
官常典
家範典
交誼典
氏族典
人事典
閨媛典
藝術典
神異典
禽獸典
艸木典
經籍典
學行典
字學典
選舉典
銓衡典
食貨典
禮儀典
樂律典
戎政典
祥刑典
考工典
程式
洪遵
顧烜
張台
封演
董逌
李孝美
鼂氏
太昊
葛天氏
項梁
公孫述
王則河陽
吴越王
景和
歲時記
曼陀多王
嚴君平
勞水
廣韻
聖濟總録
本艸
五曹
九章
海島
張丘建
夏候陽
五經算
綴術
緝古
紀遺
三等算
平湖
陸稼書
隴其
嘉定縣
靈壽
四書大全
松陽講義
困勉録
三魚堂集
清獻
玉茗堂
湯義仍
義仍
曇陽子
弇州四部稾
曇陽子傳
龍泓山人丁敬
敬身
鈍丁
候潮門
武林金石録
張燕昌
懷舊録
施彦執
北窗炙輠録
彦執
德操
張九成
子韶
姚進道
葉先覺
述堯
簫臺公餘詞
羊祜傳
景獻皇后
蔡襲
文姬
吴王濞
漢郡國志
廣陵郡
東陽縣
長洲澤
盱眙縣
隋虞綽
長洲玉鏡
伍子
骨母
鑑湖圖
斗門
廣陵侯廟
元狩
羅刹江賦
錢惟善
錢唐江
曲江居士
陳寵
洛鼎銘
趙明誠
潘汝楨
關壯繆
普德
清苑
閻永泰
薊遼
黄運泰
龔萃肅
杞縣
劉詔
代州
張鳳翼
何宗聖
蘆溝橋
曾國楨
蒙陰
秦士文
南直隸
遂安
毛一鷺
王瑛
稾城
許其孝
宋楨漢
濰縣郭尚友
祁縣
頡鵬
李之才
李從心
李精白
登州
榮河
李嵩山
西大同
魏縣
王點
五臺山
閬中
張樸
興州
曹爾楨
劉宏光
縉雲
李燦然
郭增光
鮑奇謨
周鏘
季寓庸
萊蕪
朱童蒙
史永安
姚宗文
東莞
温皋謨
保定侯
梁世勛
博平侯
郭振明
李誠銘
李若琳
日照
黄憲卿
壽張
王大年
旌德
汪若極
平定
張樞
智鋋
李春茂
張化愚
張永祥
葉憲祖
陸萬齡
少正卯
哲皇帝
魏璫
永恩
感恩
祝恩
瞻恩
隆恩
洽恩
廣恩
留恩
湛恩
懷德
昭德
懋德
瞻德
彰德
隆德
成德
萃德
仰德
裦德
崇勛
茂勛
鴻勛
隆勛
崇功
元功
報功
旌功
崇仁
存仁
廣仁
懋猷
德馨
德芳
留敬
鴻惠
隆禧
永愛
著愛
孫瓛公
執修
竹徑詩
羊
周密
澄懷録
林敏脩
張牧之
竹溪
普通
天定
熹宗
魏閹
明太學志
廣業堂
率性堂
王弇州
天師
冀縣侯
隗
昭成
椒
仲回
迴
子祥
仲常
士元
脩
諶
秉一
正隨
乾真
乾曜
鎮南
宋真宗
虚静先生
真誥
丘光庭
陶唐氏
敬齋
儀封
張伯行
張玉書
噶禮
陳鵬年
焦映漢
臧大受
趙晉
蘇郡
左必蕃
穆和倫
張廷樞
揚城
葑門
清恪
洛學編
睢州志
困學録
正誼堂文集
居濟一得
華豫原
豫原
狄梁公
魏州
景暉
希閔
廣事類賦
涇縣
吴張公
羅璧
識遺
窫窳
十日
九嬰
大風
封豕
長蛇
共工氏
不周山
女媧氏
詩含神霧
雷澤
宓犧
女登
少典
尚羊
河圖握樞
附寶
春秋元命包
華渚
女節
少昊氏
世紀
蜀山氏
景僕
昌意
女樞
符瑞志
握登
有㜪氏
女姞
砥山
主癸
扶都
姜嫄
弃
太任
鴻都門
魏正始
孟蜀
廣政
番易
房山縣
白帶山
小西天
慧思大師
靜琬
大湼槃經
石經山
石經寺
都少卿
南濠
玄敬
金薤琳瑯
南濠文跋
南濠詩話
徐枋
鄭敷教
顧苓
金俊明
徐樹丕
枋
昭法
文靖公
汧子
上沙
澗上艸堂
湯文正公
震伯
廷樞
敷教
士敬
桐菴
苓
云美
塔影園
汪鈍翁
琬
長洲苑
短簿祠
俊明
耿菴
不寐道人
春艸閒房
雙林巷
亦陶
樹丕
武子
活埋菴主人
禎起
損之
炎武
歸莊
章邱
潘耒
元恭
祚明
歸乎來
園公
縣弓
恒軒
普明頭陀
鏖鏊鉅山人
紀永樂大典
姜紹書
韻石齋筆談
胡廣
王洪
杜宏域
唐建中
商高
夕桀
金濤
陶凱
潘廷堅
原本
會試録
杭堇浦
魏良輔
梁辰
魚伯龍
浣紗記
吴梅村
梁伯龍
江賦
周櫟園
涵江
任氏
子長
魏多
魏曼多
曼多
房元齡
李衆
巡
郭曜
曜
李恢
恢
李條
竇思仁
張義方
騎都尉李君碑
緯
孔羡
陳仲弓
太邱
劉徽
倪嘉慶
高迎祥
干
邢州
干山
言山
順德府
唐山縣
泉水
夏小正
律曆志
月令問答
三統
四分曆
周憲王
張光弼
塞上謡
元國
周伯清
中原音韻
通鑑外紀
司馬彪
澧州
熊方
後漢書年表
范史
熊氏
乾興
孫宣公
鄭所南
連江
條坊巷
思肖
憶翁
咸淳集
大義集
中興集
承天寺
狼山房
達始
釋氏施食心法
太極祭煉
謬餘集
一百二十圖
菊山集
龔開
聖予
陸丞相
秀夫
浚
唐馬圖
龔璛
文信國
柴市
燕雲
厓嶺
趙弼
文信公傳
无
啽囈集
張千載
毅父
文文山
燕中
歐陽夫人
程敏政
宋遺民録
祭文丞相文序
劉侗
帝京景物略
緑荷
咸淳
文丞相
炎午
生祭文丞相文
劉堯舉
堯舉
江廣
何見山
觀化齋
顔平原
申包胥
襄樊
楚懷
李陵
子卿
李光弼
史思明
李存勗
梁帝朱友貞
皇甫麟
朱友貞
李昪
楊行密
梁進
衍
陳東
薄昭
孟昶
晉出帝
李太后
安太妃
梅嶺
伯仁
望祭文丞相文
燕臺
侍中
干將
莫邪
鼎翁
梅邊
吾復藁
汪元量
水雲
元世祖
王清惠
陳真淑
黄慧真
何鳳儀
周靜真
葉靜慧
孔清真
鄭惠真
方妙靜
翁懿淑
章妙懿
蔣懿順
林順德
袁正淑
章麗真
袁正貞
金德淑
黄金臺
魏策
張遼
筆談
藝苑雌黄
上林賦
李華
含元殿賦
曹楝亭
鵬年
類篇
集韻
雪芹
沈德符
臭水塘
香山寺
王姑菴
韋公寺
單牌樓
雙塔寺
棊盤街
旛竿寺
玉河橋
舊柴炭外廠
新蓮子胡同
明帝紀
王敬則傳
漢武故事
前燕載記
説文解字序
子產
吿子
程伯子
叔子
答汪尙書書
答呂子約書
公都子
揚子
原性
荀揚
奕秋
林放
公孫丑
滕世子
老聃
或問
近思錄
原性篇
楊敬仲
答呂子約〔書〕
程叔子
明道先生行狀
周茂叔
張橫渠
伯有
天問篇
呂與叔
橫渠先生行狀
廖德明
錄癸巳所聞
李愿〔中〕
答何京叔
太極圖說
載
郿
洮西
程伯淳
正叔
二程
渭州
吕晦叔
公著
張載
崇文
天祺
伯淳
乾稱篇
訂頑
砭愚
程正叔
東銘
崇伯子
潁封人
横渠先生
誠明
明公
郿伯
秦州
馬涓
涓
謝上蔡
程正公
輞川集
大防
大鈞
大忠
延州
侯官
涇陽
天下一家
中國一人論
二程子
進伯
微仲
與叔
鄉約
馮少墟
秦關
心敬
少墟
楊伯起
仲雍
澇
伯起
關學編
趙廷璧
中衞
得炯
王仲復
文廟備考
雷氏
贛州
霍子
松軒
蒙君
仲復
二曲
游師雄
編
王豐川傳
維戊
馬相九
先登
孫酉峯
王零川
馮恭定公
楊君美
段容思
吕涇野
張雞山
豐川
周勉齋
桐閣
游景叔
劉宜川
賀復齋
關西夫子
恭定
東魯
王而農
尼山
許魯齋
皋蘭
平川
南元善
鄒南皋
高景逸
天泉
中原
劉念臺
恭定公
恭定公祠
少墟書院
復齋
做人説
涂敬源
徐匡嶽
趙志臯
輝之
寶慶寺
疑思録
訂士篇
學會約
善利圖説
淑遠
關中書院
周傳誦
西安
左衞
西遊漫言草
皋夔
蔡墨
爻
包犧氏
舜氏
石碏
碏
罃
坊記
深衣
士相見禮
聘禮
郊特牲
公食大夫禮
特牲饋食
少儀
少牢饋食
特牲禮
少牢禮
表記
少牢饋食禮
士昬禮
孟莊子
大宰
覲禮
宋閔公
有扈
叔隗
祭法
小記
潁考叔
司士
宗伯
士虞禮
江漢
崧高
張石卿
石卿
邵浩
趙書記
陳希夷
壽涯
四子
楞嚴
法乾
王子
存學
塨
晦夫先生
大學辨業
學規纂
果亭
匪菴
端惠
賈先生
九如
陸王要語
性理大全
氣質之性總論
爲學
存性
中州
剛主
未墜集
端木子
祁陽
趙晉侯
清卿
安先生
鹽山
褚子
澄嵐
泣血集
笠叟先生傳
蠡
李剛主
保初
成性
順治
笠叟先生
李處士
節白處士
澄嵐子
寧陵
吕新吾先生
次亭
三停岡
四禮疑
實政録
肥鄉
公函
郝子
漳南書院
天理翁
演
宗約
好人
閨戒
通俗勸世集
博陵
蜀漢
梁皓
美惠方
金玉先生
允德
索中堂
山右
胡文昭
范烈女
定興
范孝廉
雪棠紀
田處士
沛然
吟庵
賈子
徐烈婦
烈香集
雪棠
漳水
習齋教條
燦
公西子
肇南
函白
肇南公
效乾
冉懷璞
淇澳
子諒
懷璞
秀升
培
子一
三儀街
話心亭
函翁
劉誠意
客窗夜話
錫之
常忠武
進酒
關侯祠
丁公
山海
王廟
曹梅臣
君佐
瀋陽
北陵
韓英屯
劉四
希湯
神應記
王化麟
束鹿
白殿鄉
王明
狼歇莊
王輝臣
春若
思古人
九韶
柳下坐記
河洛源流
擬太學祀典
聖學直指
陸道威
許先生
鄭生
趙衰
子陵
仲連
許行
夷之
達摩
虙不齊
單父
冉仲弓
若
許白雲
曾子輿
石奮
管寧
黄憲
伏勝
高堂
曹丘
陳文達
夏峰
宗傳
文姜
刁翁
陸桴亭
性善圖説
彭使
性
學編
雪孫
夢誨
正字千文
七書
存治
彭九如
九
囘禄
四子書
斯文正統
孫徵君
鍾元
刁孝廉
蒙吉
張處士
張石室
公儀
王義士介祺
保
徵君
刁
王介祺
胡安定
介翁
功課記
毁念佛堂
許酉山
楊湛子
籌邊三略
讀史危言
治河一得
瘳忘贅語
存學後編
壁書辯僞
中庸辯
孟子疑義
伯益
靡
仍
虙子
言子
正誤偶筆
公西
宗文
廣宗
吉生
周易句讀正誤
濁漳
虙
記餘
錂
弟子職
西胡伽摩
誅佛論
觀文賦
重徵舉
參兩
蠡吾
鴟夷子皮
許繇
支父
離朱
樝林
莊生
蘧伯玉
叔山無趾
哀駘它
大癭
無脤
壺子
賣薑翁
船山
虎止
莊子解
王天泰
齊宣王
畏壘虛
亢桑子
子瞻
王船山
敔
紹緖
天下
讓王
坡公
竟陵
林氏
莊子因
董思凝
子綦
齊物論
駢拇
馬蹄
胠篋
天道
繕性
至樂
在宥篇
折揚
皇荂
北門成
黃帝
有焱氏
老耼
養生主
大宗師
魏伯陽
張平叔
葛長庚
西施
刻意篇
逍遙遊
顏淵
跖
扁慶子
扁子
胡亥
大叔
鄭莊
盧𣏌
鼂錯
曹叡
漢成
房中之歌
鄕樂
下管
鐃歌
升歌
合樂
楊廣
江南好
憶秦娥
菩薩鬘
陽關三疊
甘州入破
甘州
板
蕩
桑柔
下武
河滿子
九宮之曲
梁州序
畫眉序
小桃紅
下山虎
何承天
范蜀公
麟趾
陳羣
季康子
田建
似道
共城
松柏之歌
皋亭
呂不韋
九黎
呂
趙括
采齊
肜日
紀季
賈生
禚
魯莊
陽虎
季斯
斯
九峯
皇極
洞極
雒書
潛虛
兌
蹠
魋
宋萬
誥
農
陳亮
劍
李特
楊難敵
譙縱
孟㫤
梁元
三塗嶽
蔿賈
崖
兩河
蔡伯靖
樛木
芣苢
余闕
王逢
草蟲
摽有梅
惡來
采薇
司空圖
莊姜
終風
榮公
州吁
擊鼓
孟郊
曹鄴
北門
莊定山
謝榛
鍾惺
靜女
柏舟
衞燬
蝃蝀
相鼠
載馳
禮至
元咺
子鱄
申徒狄
檜
桓王
君子于役
揚之水
兔爰
采葛
緇衣
王子友
將仲子
忽
斖
還
淸人
甫田
王羲之
陟岵
杕杜
鴇羽
中谷
葛生
綢繆
卻縠
息夫躬
車鄰
駟鐵
蒹葭
晨風
屈氏
木門
綿上
羔裘
唐昭宗
四牡
干旄
有杕之杜
子桑氏
臺駘
袁譚
袁尙
蕭繹
蕭紀
殷靁
出車
鴻雁
魚麗
蓼蕭
湛露
定之方中
白駒
黃鳥
我行其野
我行
愼
小宛
舅犯
漢高
共世子
懷淸
大田
頍弁
車舝
文宋瑞
桐宮
菀柳
緜蠻
綿
古公
雲門
濩
嬙
行葦
泂酌
卷阿
子虛
大人
馬遷
二叔
漢章
五
六月
菁莪
民勞
魏無忌
阮嗣宗
王孝伯
桓子野
厲王
申伯
韓侯
皇父
文武
吉日
車攻
烝民
胡雲峰
補傳
誠意傳
語錄
玉溪
仁山
黃氏
鵝湖
王陽明
廿一史
鳲鳩
彝
雙峰
番陽
戴記
列
韓宣子
雲峰
伯喈
顏
朱子語錄
張子房
剝
觀物
素位
孔悝氏
許東陽
特牲饋食禮
虞禮
史伯璿
橫渠
要離
烏獲
北溪
游氏
維摩經
陜
黃洵饒
无妄
說苑
州綽
高昂
彭樂
孔悝
樊遲
曾點
慶源
雲漢
曾氏
馮厚齋
公子郢
子臧
蒯瞶
鲁
出
齊景
兔罝
顏蠋
嚴光
婁師德
糾
雍廩
蔇
召忽
猶
畝
微生
大學補傳
項羽本紀
竇嬰灌夫傳
千百年眼
史取
屠緯真
鴻苞
陳仲淳
古文品外録
李贄
藏書
羅念菴
念菴
龍溪
吾離
允姓
僑如
葵邱
師旦
崟
召奭
𣏌
鄋瞞
義渠
令支
卑耳
潞氏
炎
劉漢
三粤
燕旦
獯鬻氏
樓蘭
郅支
烏桓
羌部
益部
十六國
六代
苻
拓拔
北庭
薛仁貴
郭元振
并陽
趙保吉
劉六符
狄青
岳氏
風波
石守信
高懷德
田承嗣
王武俊
李納
䃃島
奇渥
荆北
關陝
福
瀘南
嶺海
嶺西
洱海
封邱
東昌
臨淄
博興
壽光
昌樂
臨朐
懷慶
潞安
沁
鄖
承德
平利
石泉
洵陽
白河
滍
淯
汝水
長淮
鳳陽
滁
安邱
諸城
莒州
商水
西華
項城
沈邱
忻
陽曲
榆次
太谷
祁
徐溝
清源
交城
壽陽
盂
靜樂
鴈塞
汾州
遼州
土門
秦隴
渭北
北洛
寧羌
平涼
鎮原
崇信
涇州
合水
寧州
真寧
狄道
渭源
蕭關
湟
清漢
鄂城
溳水
岳州
酃縣
耒陽
常寧
南條
黎平
平溪
清浪
偏鎮
撒
永定
永順
保靖
新化
澬水
瑞州
峴
寧國
三天子鄣
全浙
泉
福寧
狼山
倭
僰道
褒駱
嚴道
威
雜谷
天全
大渡
相嶺
東川烏撒
烏蒙
水西
烏江
平越
清平
興隆
思南
石阡
思州
銅仁
梅關
大帽
東鄉
郴
杉關
邵武
汀
連陽
灕水
灕潭
肇慶
灕口
羅定
高州
城步
新寧
西延
古泥
都匀
播夷
葉榆
滄
撾
甸
六詔
北緣
陸廣
平伐
鎮寧
泗城
鉅鹿
盱眙
花園
黨子
山南
河曲
綏寧
冥阨
温州
濡須
沅州
苗夷
川北
瀘水
威州
潮州
雷州
交夷
窮髮
慶遠
那丹
都泥
楚雄
哀牢
車里
老撾
翠微
古北
喜峯
定州
灤
三坌
白狼
灤水
三衞
金源
興中
偏嶺
飛狐
桑乾
廣昌
興和
句注
黑河
濁河
偏關
雲内
集寧
豐州
葭州
黄甫
花馬池
環
省嵬
賀蘭
楊制使
燕支
新秦
莊浪
嘉峪
西寧
磧石
河州
酒泉
河閒
萬全
岢嵐
環縣
六衞
靖虜
靜寧
金縣
鎮番
膠
屯氏
沽
淇
六安
木陵
黄土
汾
撫
筸子
犵玀
松潘
酉
太狼家
濱
邳
解池
靈州
西和井
隴右
山丹
許村
寳
富順
淯川
榮昌
大昌
開縣
鹽亭
吴松
滸墅
武曌
李巨川
張元
吴昊
海中丞
瑞
乾清
坤寧
鄧茂七
閩中
李文利
文利
胡文定
劉牧
秦仲
先天方圖
蔡九峯
九九數圖
潛虚
經世
先天圓圖
九九圓圖
圓圖
鄭夬
秦玠
桑通判
悦
玠
邵雍
劉舜咨
河議
新垣平
公玉帶
明堂位
釋道生
獲
魯莊公
臨品
明朝
金閶
烏衣
衛律
洪皓
冷山
安南供役紀事
漢朝
河圖洛書
朱之瑜
封神
前後漢
潛確類書
焚書
古文奇賞
鴻藻
汪二官
徐庶
漢世祖
吕子明
杜元凱
吴國
博陸
成方
十竹齋
陳選
南郡
之瑜
堅確賦
會安
穎川居士
長崎
東武
崎
安南紀事
紀事
子輿氏
張二水
果亭墨刻帖
確菴帖
三教平心論
静齋學士
梁山泊
神
劉謐
澄一
安東省庵
省庵
序説
詩箴
佛圖澄
誌公
生公
韓魏公
歐陽文忠
邵康節
蘇明允
古本大學
蘇子
喜兵衛
三謨
二酉
耕田歌
源公
白井藏之助
蘇東坡
文忠公
韓熙載
事文類聚
熙載
李文公
王文公
上公
千秋金鑑
水户
太史
宋景公
詠月詞
國朝姚江詩存
張廷枚
朱之嶼
楚嶼
泊舟稿
徐闇公
柴樓
張祕湖
邵二雲
若耶
棹歌行
諧
接輿
南伯子綦
商之丘
荆氏
折楊
顏先生
易直
渾然
博野縣
北楊村
顏氏
朱氏家禮
古禮
存人
李子靑
子靑
朱超
越千
楊德祖
會典大政記
肥鄕
郝文燦
文燦
漳南
文孝先生
奇逢
明性
淸苑
羅喆
祁州
寧晉
來鳳
餘佑
王養粹
李塨
王源
鍾錂
言行錄
闢異錄
無極
河洛
先後天
百泉山
孟子緖言
冉求
集注
語類
予欲無言
無行不與
莫我知
方員
深造
佛氏
君子之道四
書禮樂
眞德秀
許衡
薛瑄
王艮
羅洪先
鹿善繼
眞
桶岡
全書
知統錄
兩宋
佛
存學編
存性編
黃帝素問
金匱
玉函
闕黨
釐成
義姑
龐士元
孟敬子
甲申殉難錄
和靖
李先生行狀
助予
辛里
朱季友
晦庵先生
多學而識
不試故藝
博學而無所成名
文武之道未墜於地
文不在茲
遊於藝
如或知爾
可使從政
朱文公先生
張宣公
呂成公
二禮
椿津
壽厓
吳氏
儒
義內章
內則
張角
王法乾
五公山人
介祺
延善
餘厚
餘恪
餘嚴
雄縣
馬于
五公山
雙峯
通鑑獨觀
夏峯
君協
君夔
耿保汝
孫平子
孫箕岸
嘯臺
彭餓夫
保汝
爾良
楊蔭千
楊誠甫
李天祐
孔益仲
王制管窺
論井田封建
蔭千
極
張燦然
張仲誠
仲誠
沐
內黃
周平原
程伊川
沈仲固
典午
農山
趙奢
李靖
宋史評
韓侂胄
李淸臣
薛向
張商英
熊本
洞蠻
富
熙河
蕃
韓節夫
范祖禹
黃庭堅
神宗實錄
蔡卞
侂冑
韓平原
葉適
丘崈
於期
奸臣傳
郭汾陽
張曲江
秦老
朱注
恕谷
小興州
進忠
蠡縣
孝慤先生
習齋
孝慤
張而素
趙錫之
郭金城
王餘佑
彭通
劉見田
毛奇齡
孝慤公
吳公涵
秉義
掞
安谿
李文貞公
光地
徐元夢
永光
克勤
斯同
閻生
紹寧會館
辨業
馮壅
溫德裕
劉有餘
郭金湯
金城
金湯
子堅
桐鄕
楊勤
愼修
勤
博野
習齋學舍
馮辰
劉調贊
文子先生
習仁
習中
習禮
蕭山
大學逸講箋
苞
道章
崑繩
黃棃洲
威縣
劉用可
用可
小學𥡴業
聖經學規纂
論學
周易傳注
筮考
論語傳注
大學中庸傳注
傳注問
經說
學禮錄
學樂錄
郊社考辯
擬太平策
恕谷文集
詩春秋孟子傳注
學射御書數錄
田賦考辯
宗廟考辯
禘祫考辯
瘳忘編
閱史郄視
平書訂
運心編
覽天主書辨
鍇
長人
李伯子哀辭
戴名世
容經篇
尙書大傳
蔡淸遂
興於詩章
史籀
倉頡訓纂
盤銘
修齊條
治平條
諫格虎賦
瑞巖
毛河右
中論
孟子注
傳習錄
鄭朝朔
朝朔
刁蒙吉
張武承
徐愛
黃以方
以方
祭統
誠意條
黎立武
大學發微
聽訟節
王心齋
無訟節
王柏
崔銑
賢賢易色章
弟子入則孝章解
子游
儀禮傳
詩序
莒父
竇建德
薛舉
輔公祏
太平公主
楊惠琳
劉闢
吴元濟
太祖武皇帝
澤潞
太宗文皇帝
真宗章聖皇帝
清廟
生民
臣工
天作
雝潛
勺武
樂職
聖主得賢臣
晉陽武
獸之窮
涇水黄
奔鯨沛
元和聖德
宋頌
元和聖德頌
慶曆聖德頌
永叔
師雄
李賀
月蝕
濟北
張泂
李緼
石介
韓先生
逐鱷文
泮水
文翁
益稷謨
周頌
繇
楊億
怪説
龍逢
靳尚
是非辨
甯州
天慶觀
孔公
張綱
論佛骨表
逐鱷魚文
段太尉
朱泚
董偃
趙𤕠
士建中
泰山先生
𤕠
可嗟
夷王
王仲淹
王績
負苓者傳
負苓者
黄帝氏
顓頊氏
高辛氏
唐堯氏
虞舜氏
原仁
原毁
對禹問
佛骨表
諍臣論
汝墳
文中子
劉㮣
韓吏部傳論
諱辨
羅池
平蔡碑
蔡碑
㮣
辨謗
孫明復
至道
咸平
賈公疏
高公儀
劉子望
公疏
子望
明復
山東野録
帝刑
輔弼名對
春秋尊王發微
郭稹
稹
朱能
釋疑
張駕部
舜元
离卦
兵制
灌口祠
博陽侯
獨孤及
季札論
及
李唐
裴度
元相
微之
塗山甫
姚鉉
昌黎集
章武皇帝
李觀
張籍
元稹
白樂天
準易
道論
壽顔論
善惡必有餘論
畏聖人之言論
原福
原鬼篇
隨時解
夫子得時辨
莠辨
若蒙
鄆州
上李屯田書
思遠
天聖編勑
禹偁
明逸
咎陶
士君
齊宣
玄經
防風
明遠
互鄉
茅容
容
孟敏
郭林宗
荀況
楊雄
仲淹
丹鳳門
嚴上人
平臺集序
劉禹錫
柳仲塗
熙道
天説
䄍説
咸章
韶夏
昊
九五
奉符縣
臨涣縣
曹起
緼
黥布
馬大夫
太平鎮
姜潛
吴兢
貞觀政要
三朝聖政録
欽文聰武聖神仁明孝德皇帝
興國
國忠
崔祐甫
裴延齡
皇甫鎛
順宗
懿
褒姒
鉅唐
唐鑑
龔輔之
輔之
大瓠
唐子
三詩
季孫
田常
陽明子
魯哀
伊摯
呂望
高君
子輿
大毛公
小毛公
甄
𣏌伯姬
紀季姜
妹喜
妲己
嚴光傳
大別
長子
淝
黃山道人
方熊
賦歸黃山
彭生
郗太傅
王丞相
郗
郗公
少君
伯鸞
梁伯鸞
德耀
孟光
霸陵山
五噫歌
臯伯通
伯通
贏
十洲記
月氐國
賈充
劉尹
倉舒
邴原
倉舒誄
甄氏
李長者
謝太傅
螽斯
周姥
趙姬
虞韙
韙
趙母
王經
漢晉春秋
曹髦
魯昭
髦
班姬
惠班
扶風
曹世叔
世叔
天文志
東觀
家
大家
盧壼
禮注
韋逞
宣文君
劉孝綽
吳郡
張嵊
徐悱
孝綽傳
悱
劉三娘
徐勉
鮑令暉
左芬
太冲
令暉
香茗賦
小名錄
陳皇后
長門宮
文君
麗娟
李延年
芝生殿
回風
美人賦
王凌
司馬宣王
阮公
王安豐
王隱
籍
裴頠
阮孚別傳
魯靈光殿賦
遙集
李溫陵
嗣宗
仲容
左太冲
語林
張孟陽
河間王
琛
朝雲
團扇歌
舒雅
格言
瀛洲榭
歸風
馮無方
無方
韓馮
宋康王
靑陵臺
烏鵲歌
宋王
班婕妤
趙飛燕
長信宮
自悼賦
文頴
琴操
王昭君
齊國
王穰
漢元帝
孫恪
端州
峽山寺
遊山記
范史雲
尹臺
史雲
樊英
阮渾
長成
竹林七賢論
渾
樂廣
樂令
孝己
符起
陳太丘
荀朗陵
續晉陽秋
王湛
處沖
陳恭公
老人星圖
世修
范蠡遊五湖圖
陶朱
繆襲
渭陽
𧰼母
阮步兵
裴令公
名士傳
裴楷
戴逵
裴公
桓南郡
荻渚
王大
袁閬
祁奚
公旦
諝
張璠
和嶠
王武子
和公
王濟
王夷甫
王澄別傳
夷甫
劉凝之
志安
盛公
衡陽王
凝之
老萊
郭全
高隱傳
劉歊
劉訏
荀君
鍾君
歊
訏
孝緖
東亭
僧彌
珉
法護
鈕滔
衞懿
神州
匡簡子
禮樂
伯陽
五相類
補塞遺脫
丹經
召康公
嘉泰
漳州
仁義
扶中
截流
南陂
木蘭溪
沂春亭
舞雩臺
莆
曾晳
皓
守忠
燾
得朋
縉雲縣
隆
湗村
南塘
黃芻
季野
芻
林公
光朝
艾軒先生
沈君
體仁
仲一
吳興
瑞安
彬老
堯英
秀伯
淸朝政序
兵書
郭忠孝
長陽山
白羊
郭君
白羊問答
兼善
廣誨蒙
大安
九成
子及
王抃
論地震疏
岑文本
成子
哲
茂明
薛文憲
陳文節
葉忠定
章貢
黎諒
別集
陳伯玉
書錄解題
黎氏
四庫館
春龢
孫琴西
江山
進卷
廷對
外稾
後總
資格
銓選
科舉
吏胥
張蘊古
大寶箴
盧祖尙
祖尙
館陶公主
世尊
慈氏
瑜伽
攝大乘
集量論
入楞伽
辯中邊
集論
起盡經
決擇分
大乘阿毘達磨契經
解深密經
入楞伽經
增壹
莊嚴論
阿笈摩
增壹經
攝大乘論
二十唯識
觀所緣論
瑜伽論
顯揚論
薄伽梵
解脱經
攝大乘略
佛地經
姑射
魏王
皇華
陳寵傳
敞
顓曆
絳縣
春秋時令表
張翠屏
時令表
春秋經
鄧悔廬
史文璣
管窺外篇
陳定宇
張敷言
伯璿
七月篇
比蒲
陳説
太甲篇
泰誓上
臨卦
遯卦
汲冢書
曲沃莊伯
紀年篇
豳周
高允
貢父
華生
長曆
趙孟
本中
華子
曙峰
春秋年譜
春秋朔閏表
趡
奚
邾婁儀父
鄢城
朔閏表
施生
龍淵
佹諸
麇
春秋長曆拾遺表
趙東山氏
大衍曆
梅定九氏
宣姜
定九氏
李淳風
麟德曆
張子信
宣明曆
合朔議
原伯絞
預
姜岌
税安禮
春秋指掌圖
虢略
覃
戎狄
息
鄾
柏
蓼
州來
居巢
詩譜
春秋列國疆域表
召旻
邘
陸渾之戎
棠
歐陽子
魚臺縣
祊
防
須句
嶧山
東昌府
楚靈
章華之臺
薳啓疆
鄣
介根
牟
萊州
青州府
安丘
聊城
聊聶
堂邑縣
棠邑
茌平縣
重丘
泰安府
肥城
東平州
兖州府
陽穀
沂州府
曹州府
范縣
廪丘
天津府
慶雲縣
無棣
翼侯
蓐
荀侯
賈伯
常武
釐王
孟門
肥
鼓
少習山
商公
雒南縣
昭關
含山縣
長岸
東梁山
太平府
隨國
汝寧
郟縣
魯山縣
嵩縣
許州府
偃城縣
夔州府
奉節縣
徐州府
楚文王
鄀
鄢郢
申侯
楚莊
子重
巫臣
少習
王風
揚水
少農
達初
植謀
勞太夫人
蓮枝
太平海
百粤
羊城
西樵山
銀塘
白雲山
摩星嶺
馬江
諒山
延香老屋
七檜園
澹如
三塘
俾士麥
師丹
若敖
冉耕
張福
陳千秋
通父
新疆
東三省
費雅喀
斯巴達
美
愛爾蘭
倫敦
俄
奧
瑞典
那威
葡
西班牙
氣他拿
迦憐拿大
述之
贊修
昭忠祠
建始
三輔
石頭
營州
朱全忠
宋太宗
牛頭河
洮河
平陸
美國
南科羅打市
創世紀
挪亞
加拿大
秦風
涵滄公
華德里
光緖
玉如公
籐花齋
司空曙
爪哇
巫來由
石壕吏
梭羅王
荷
暹王
煙剪
亞洲
夜郞
非洲
黑蠻
臺灣
生番
亞齊
商湯
埃及
希臘
敍里亞
巴比倫
南北冰洋
婆羅門
猶太
大橈
哲孟雄
布丹
趙王上壽
君士但丁
耶教
回教
耶
婆
刹帝利
俄羅斯
華盛頓
林肯
三桓
七穆
孔教
光武本紀
胡狄
黑龍江
連州公
緹縈
柳氏母
鄧后
班昭
謝道蘊
郝
李易安
宋若荀
黃崇嘏
首陀
張公藝
法國
羅蘭
季姬
成風
齊姜
李陳氏
南洋
麥姓
金家
冰海
有巢氏
黥
敕勅
阿剌伯
東京大學
夏竦
蕭穎士
陸暢
張安世
哥白尼
奈端
馬達加斯加
亞非利加
高川
希古忒
大洋洲
親友島
頓加島
非地島
加羅連島
馬置仙島
馬來
亞美利加
其尼路
哥崙布
烟剪
日耳曼
基尼亞
超拉巴
般他爾
馬拉巴路
尼也兒
羅安高
班衣
北部巴路揸爾
阿里那可
印
意
瑞士
歸有光
周處
戴淵
耶氏
薛煊
朱晦庵
張南軒
采茨
梁甫
采薺
胎教叢編
滕文公
成覸
公明儀
滕文公上
公孫丑上
亞力山大
成吉斯
拿破侖
離婁上
有莘
牧宫
萬章上
諸馮
負夏
岐周
畢郢
離婁下
曹交
鄒君
告子下
鄭元
盡心上
夏后氏
李克
周唐
美洲
梁惠王下
奥
下
識仁篇
子襄
冉牛
有若
輪扁
陳白沙
禽獸説
傳説
孝經緯
龍樹
馬鳴
保羅
索格底
惡士滔圖
幽厲
告子上
爲人者天篇
玉杯篇
王道通篇
深察名號篇
本性篇
世碩
養書
宓子賤
公孫尼子
羊舌食我
叔姬
羊舌氏
祁勝
食我
商均
性惡
盗跖
漆雕
梵志
張獻忠
元紫芝
孟季子
上論
下論
力命篇
王命論
鍾輅
定命録
非命篇
命義篇
夏臺
歷陽
桓魋
猗
牛山
龍子
子都
牛哀
梁惠王上
宋鈃
曾元
長息
公明高
鄭子産
咸丘蒙
高叟
凱風
匡章
章子
滕定公
然友
非儒篇
翟方進
王修
趙宣
漢明帝
周武帝
公輸子
侯景
滑釐
頗
摩呵默德
畢士麻克
毛奇
竹林篇
諸夏
漢興以來諸侯王年表
梁襄王
薛仁舉
梁師都
南蠻傳
西伯利
泰西
西楚霸王
朱温
李克用
昆吴
豕韋
大彭
足利
鎌倉
織田
豐臣
德川
芝區
日光
德川氏
代蘭得
高歡
宇文泰
宋藝祖
漢高霸
唐太霸
宋藝霸
明太霸
朱玄章
嬴政
畢戰
普國
奥國
英國
俄國
三代改制篇
子服景伯
桓文
胡齕
有攸
滕文公下
古公亶父
牛僧孺
蕭衍
莊暴
暴
雪宫
轉附
朝儛
徵招角招
郭守敬
庖犧氏
殷商
長春殿
郗萌
晉成帝
安天論
葛洪
聳
穹天論
昕天論
虞聳
王仲任
渾天儀注
陸公紀
崔子玉
王生
濛汜
王蕃
渾天説
晉史
平陵
關子陽
子陽
靈憲
廣微
祖𣈶
西洋
札馬魯丁
徐光啓
裨竈
甘德
石申
庾季才
靈臺祕苑
僧一行
墨領
迦釐阿
沙萊
佛爾旨
風洞
桂山書院
康國器
秀峰
宣成
榕湖
穆宗
劉長佑
李公紱
穆堂
池籥庭
阿鏡泉
鳳文
馬平
王通政
拯
宗瀛
張靖達公
秉成
榕湖經舍
丕瑶
聯桂丹叔
燏棻
雲楣
人駿
安圃
遜業堂
高茂才
嘉仁
伯慈
康祖詒
陳立
公羊義疏
逢禄
凌氏
曙
朱先生
宋廣平
顧涇陽
劉蕺山
陸子静
吕東萊
胄
何瑭
劉元城
胡文忠
大鑒
虞恭
皇甫
裴鏡文碑
樊府君塼塔銘
多寶塔
郭家廟
漢儒學案
宋明學案
葉水心
立事篇
南子
公山
荷蕢
楚狂
幼儀
書計
黄梨洲
明夷待訪録
田何
衞宏
二鄭
六朝史
四朝學案
康先生
千秋
五帝三王本紀
吾邱壽王傳
二世
穆子長
尹洙
韓非子顯學篇
子弓
轅固生
公孫弘
轅
正名篇
改制篇
遼書
荀昱
北朝
長楊
羽獵
滕文
淮州府
潞縣
萊州府
六渾
二渠
懿文太子
懿文
魯惠公
子翬
犖卜齮
無虧
宰醜
朱鴻謨
趙世卿
顧憲成
黄道瞻
曾乾亨
董基
譚希恩
趙承勳
馮保
楊村
張灣
憂危
憂危疏
計安皇嗣
淵泉
約齋
麻溶
于若瀛
百將傳
尉繚
武經總要
問刑條例
密雲
薊鎮
王堯日
鴈
陣卿
王乾亨
王坤亨
繁峙
宗藩要例
寧化王
李妃
張應望
大明例
應望
范汝訥
沈敬溪
施守仁
劉世延
客用
陳忠
何忠
李忠
楊舟
劉定
周海
王銘
閻忠
劉保
楊桂
陳富
史環
尤澤
杜昇
王正
徐愷
閨範
閨範圖説
明德馬后
馬明德
女訓
楚樊姬
徐賢妃
衛宗
楚材
中儀
皇貴妃
竑議
女鑑
洽陽
嬀
汭
二雅
綱目是正
趙師淵
幾道
宋元綱目
馮琢菴
男訓
可山
吕子
南川
楊晉庵
啟昧
楊復所
復所
羅近溪
近溪
顔山農
救荒
李克庵
同冀
乾所
克庵
三生交砭録
心政録
惠文
昭襄
祖龍
十三篇
韜
略
苴
玄育
省心紀
太素脈經
難
金隄
瓠子
黄堌
小浮
河工箴
河平頌
箴
九罭
叔時
振鷺
恕吾
武臣
三雲
琥
敬所
天人寤言
胡君
閟宫
任泊
天鬻
逍遥子
孫淮海
繫
四十二章
鄒南臯
斷際
中峯
六祖
大慧
楚茨
采蘩
女教
桃園
司馬牛
牧誓
李膺
十三經註疏
六經集註
風憲約
獄政
武經要覽
百戰奇法
古今將畧
方畧摘要
武經七書
農書
再明遊食
豳詩
東垣十書
醫學綱目
醫學入門
醫林集要
醫經小學
醫學正傳
玉機微義
仁齋直指
名醫指掌
丹溪纂要
傷寒六書
傷寒指掌
醫方捷徑
立齋外科
痘疹經驗良方
蔡氏痘疹
名醫方考
醫方摘要
本草發明
本草蒙筌
本草發揮
丹溪脈訣
鄉甲約
常棣
出東門
雄雉
芄蘭
葛藟
采苓
青蠅
蟋蟀
瓠葉
明職
𧰼
公刘
庄
越石父
晏婴
卫郑
轩辕
尧
诗
书
𧰼传
庄周
人间世
东方朔
司马相如
优旃
汉
苏轼
李贽
傅说
龙
马融
广成
白驹
汤
赵鞅
萧道成
屈子
纪侯
传
齐湣
晋恭
阴符
洪范
雒书
礼
乐
孝经
谯周
冯道
释氏
魏伯阳
扬雄
关朗
司马公
虛
畴
四分历
释
韩康伯
河图
夏侯玄
太子弘
乾凿度
赵武灵
宋齐邱
羲皇
周易古經
易學啟蒙
平庵
項氏
姚大老
衛元嵩
運蓍篇
郭子和
河洛原舛編
春秋緯
原舛
關易
易論
訊易書
金素公
訊易
鉤隱
啟蒙
程氏遺書
入關録
紫巖
九洛
緯書
李尋傳
對災異
谷永
論語疏
盧生
鄭興
象數論
原舛編
包犧
説文序
玉版
陽虚之山
玄扈
孝經授神契
挺輔佐
吴草廬
笙詩
先天古易
蓺文志
武夷君
朱謀㙔
宋徽宗
歐陽永叔
姚小彭
袁機仲
林德久
趙汝楳
王子充
歸熙甫
郝仲輿
典謨
厚齋
閻徵君
若璩
九峰山
包羲
燧皇
燧人氏
包羲氏
連山氏
歸藏氏
王洙
列山氏
魏鶴山
蔣山
宋潛溪
永嘉薛士隆
士隆
黄帝内經
王冰
李覯
朱震
關子明
劉因
關氏
明堂篇
小戴禮
長民
劉長民
憬
宓戲
忠端
蕺山
陸文虎
九經解
文虎
尋門餘論
管公明
唐子西
武皇
禮傳
堯夫
焦贛
邵氏
王子合
易學啓蒙
竺
畧例
張遐
徐穉
遐
淨撿
令儀
誕
武威
撿
法始
建興
始
竹林寺
智山
罽賓國
竺佛圖澄
僧建
月支國
僧祇尼羯磨
戒本
升平
曇摩羯多
釋道場
戒因緣經
釋氏六帖
高行諸尼部
洛陽淨檢
檢
大宋僧史略
尼得戒由
得道證果
尼附
佛祖統紀
法運通塞志
康帝
淨檢
歷代會要志
神尼異行
晉康帝
僞趙建賢
令首
建賢寺
東莧
忡
後趙錄
徐忡
勒
浄檢
清和
智賢
扶柳縣
杜霸
西寺
正法華經
智賢雅操
同（司）州
法華經顯應錄
高尼
司州賢法師
符（苻）堅
高尼傳
妙相慧藏
北地
皇甫達
明感
高平
觀世音經
明伯連
建福明感
觀音經
慧湛
何充
建福
觀音慈林集
尼明感
曇備化導
晉穆皇帝
定陰里
永安
備
泰（太）元
曇羅
慧湛伏賊
僧基有志
褚氏
延興
竺道馨
法華
東寺
馨
道馨誦經
小品般若
廢帝
道馨
尼講
大（太）和
洛陽馨法師
楊令辯
事物紀原
山堂肆考
在寺講說
道容吉凶
烏江寺
晉明帝
簡文
太極殿
曲安（遠）
道容
新林寺
咸安
曲安遠
祈禱災異
建寺造塔
妖怪篇
感應緣
晉南京烏巢殿屋怪
南京寺記
波提寺
秣陵縣
青陵
簡文皇帝
歷陽郡
愛請篇
晉尼竺道容
竺道容
清水道
王濮陽
冥祥記
廣博物志
鳥獸
天中記
烏
新林亭
令宗
滿
金鄕
令宗濟貧
須彌山
尼令宗
晉孝武
妙音文章
會稽王
導（道）子
簡靜寺
音
王忱
烈宗
沉（忱）
仲堪
妙音
忱
會稽文孝王道子傳
國寶傳
陳郡
袁悅之
支）妙音
陳淑媛
烈宗孝武皇帝
悅之
簡文三子傳
王國寳
國寳
王國寳傳
支妙音
道儀
婁煩
慧遠
解直
何后寺
律藏
道儀遠姑
鴈門
慧果
毘尼
傅弘仁
景福
慧果苦節
毗尼
影（景）福
求那跋摩
慧燈
跋摩
法盛西方
法盛
聶
建福寺
道場寺
偶法師
曇敬
張辯
淨土立教志
往生高尼傳
淨土往生傳
劉宋金陵尼法盛
遇法師
彌陀
彌陀佛
淨土論
引現得往生人相貌
比丘尼得往生者四人
安養
曇愛
張辨（辯）
淨土聖賢錄
往生比邱尼
新修淨土往生傳
清（河）
往生西方淨土瑞應傳
尼法藏
法藏
超明尼傳
慧玉
牛牧精舍
首楞嚴
法弘
慧玉佛光
牛牧寺
玉
薛尙書寺
六重寺
彌勒
敬佛篇
彌勒部
釋慧玉
樊
靈收寺
妙光
釋法弘
集神州三寶感通錄
宋江陵金像出樹光照緣
靈牧寺
法和
江陵玉法師
牧牛寺
歷朝法華持驗紀
宋尼慧玉
道瑗
三藏
彭城寺
瓦官寺
南建興寺
無量壽
元皇后
道瑗造像
無量壽佛
劉宋丹陽尼道瑗
丹徒
建興寺
瑗
再（丹）陽
三莊（藏）
皷（彭）城
違（建）興寺
道壽
祇洹寺
道壽寶蓋
祇桓（洹）寺
弘贊法華傳
誦持
宋祇洹寺釋道壽
釋道壽
江陵壽法師
玄藻
路
安苟
藻
太玄臺寺
釋法濟
觀世音
兜率
玄藻金佛
宣驗記
玄臺寺
法濟
兜率龜鏡集
玄藻尼
安荀
尼玄藻
比丘尼傳
魯迅
古小說鈎沉
慧瓊不食
南安寺
江夏王
南永安
菩提寺
蕭永（承）之
慧朗
高座寺
慧瓊尼
南永安寺
蕭承之
孟顗
句容縣
普照
悲
勃海
安陵
南皮
張國寺
建熙精舍
慧孜
普照絕倫
建熙寺
慧敬
慧木
慧超
梁郡
築戈村寺
大品
木
四部戒本
羯磨
慧木至孝
築弋村寺
羯磨文
彌陀部
宋比丘尼慧木
靜稱
安養國
築戈邨寺
法勝通禪
南寺
河內
司馬隆
山氏
僧端
大涅槃經
永安寺
僧端涅槃
普敬
普要
尼僧端
光靜絕食
道婢
東遷
中寺
法成
廣陵中寺尼光靜傳
光靜
光靜尼
靜
○（善）妙燒身
繁縣
妙
僧果入定
僧果
修武
慧聰
難提
師子國
景福寺
大愛道
鐵薩羅
僧（伽）跋摩
南林寺
秦襄公
九嵕山
内史
章邯
雍王
廢丘
司馬忻
塞王
董翳
翟王
高奴
渭南郡
右内史
左馮翊
右扶風
英雄記
清明門
賈山傳
漢令
斄
長安城
霸城門
青城門
邵平
東陵侯
廟記
青綺門
天鳳
仁壽門
無疆亭
籍田門
籍田倉
凱門
漢宫殿疏
城東門
宣德門
布恩亭
宣平門
東都門
元帝建昭
枳道
東郭
春王門
正月亭
覆盎門
杜門
洛門
魯班輸
下杜城
漢書集注
杜陵
下杜門
永清門
長茂亭
未央宫
便門
平門
便門橋
三輔决録
便橋
信平門
誠正亭
章城門
三輔舊事
光華門
元延
萬秋門
億年亭
洛城門
高門
鸛雀臺門
進和門
臨水亭
横門
虒上
陳持弓
光門
横橋
朔都門
左幽亭
西京賦
萭子夏
柳市
東市
西市
醴泉坊
香室街
夕陰街
尚冠前街
劉屈氂
華陽街
張敞
章臺街
郅支王
藁街
宣明
昌陰
尚冠
修城
黄棘
北焕
南平
戚里
尚冠里
節女
大昌里
興樂宫
宫殿疏
五鳳
長樂宫東闕
常樂室
東闕
北闕
前殿
武庫
增成
昭陽殿
麒麟閣
天禄閣
青瑣門
朱鳥堂
畫堂
甲觀
非常室
鈎盾署
弄田
延年殿
合歡殿
回車殿
漢宫閣記
長年
温室
昆德
玉堂
增盤閣
宣室閣
武臺殿
神明殿
壽成室
王路堂
舊圖
織室
凌室
建章宫
建章
鳳凰闕
别風闕
嶕嶢闕
圓闕
桂宫
孝成皇后
宣室殿
未央
宣室
地皇
朱弟
張魚
温室殿
孔光
清涼殿
延清室
清室
延清之室
千塗國
麒麟殿
王閎
金華殿
鄭寬中
承明殿
承明
金馬
承明之廬
成帝鴻嘉
高門殿
通里
王褒
昭帝紀
始元
鈎盾
尚方
未央殿
神明臺
長安記
成都侯
始建國
定安館
定安太后
丙殿
鈎弋宫
鈎弋夫人
昭帝
鈎弋
堯母門
掖庭
雲陵
雲陽宫記
雲陽
通靈臺
甘泉宫
直門
梁山宫
好畤
秦始皇本紀
回中宫
笄頭
回中道
三良宫
集靈宫
集仙宫
存仙殿
存神殿
望仙臺
望仙觀
華陰縣
華山記
太元真人茅盈内記
濛
茅初成
玄洲
漢武帝内傳
魯女生
王母
衛叔卿
叔卿
度世
華岳
鄧紹
秦嶺
九嵕
靈囿
長安縣
上林苑
御宿
昆吾
五柞
御宿苑
御宿川
御宿園
博望苑
據
昆明池
昆明國
長安厨
三輔故事
豫章臺
靈波殿
豫章觀
關輔古語
織女
靈沼
石父
石婆神祠
神池
白鹿原
鎬池
秦始皇帝
平舒道
鎬池君
太液
關輔記
百子池
戚夫人
賈佩蘭
段儒
大風詩
于闐樂
秦酒池
魚池
酒池
羌胡
商辛
京城
長樂門
廣運門
永春門
永安門
鳳皇門
通明門
嘉猷門
定武門
安禮門
嘉德門
太極門
右延明門
左延明門
歸仁門
恭禮門
安仁門
朱明門
西上閤門
虔化門
肅章門
肅章
暉政門
虔化
武德門
萬春殿
立政殿
大吉殿
千秋殿
百福殿
承慶殿
兩儀殿
甘露殿
甘露門
東横門
日華門
西横門
延嘉殿
延嘉
承香殿
神龍殿
安仁殿
歸真觀
綵絲院
淑景殿
山池院
就日殿
凝陰閣
望雲亭
羽殿
咸池殿
景福臺
淩煙閣
凝雲閣
紫雲閣
佛光寺
四庫書提要
潛丘
元和郡縣志
太原縣
太原縣志
惠明寺
瓦窯村
居士
潛丘行述
貞逸公
仲寶
魏叔子
閻氏本支敍
周昭王
唐叔虞
修齡
仲寶公
嘉節都
西寨邨
晉水
女郎祠
本支敍
珍敖公
鉅鹿澤
鉅鹿縣
昭慶縣
真定府
隆平
西渠公
王山史
賀牛叟先生壽序
陳其年
贈閻梓勤二十初度序
梓勤
竹巷狀元里
左汾近稿
邱瓊山
過山陽
西湖嘴
狀元里
行述
雙溪公
萬曆甲辰進士履歷便覽
閻世則
翰
南雷文定
參議閻公神道碑
閻國順
覺吾
國順
世科
參議公神道碑
上猶
惠吾
湖州府
劄記示孫學翼
閻世科
南直
寧前
伯登
磻礎
陳幼學
李汝華
潞河
王紀
李養正
解學龍
王允成
敬刑録
計遼始末
淮上
蛟龍溝
北壟
許永祜
李藻先
杜嗣皋
山陽詩徵
龍門先生
楞伽臺
趙飴山
潛丘先生墓志
牛叟先生
魏叔子集
淮山肄雅
倪
元珙
牛叟先生壽序
乞言小奏
九鯉湖
眷西堂詩文
紅鷗亭詞
閻牛叟
眷西堂
金石庪
嘉樹軒
一蒲庵
影閣
鷦巢
鶴墩
平河橋
飲牛草堂
吴山夫
倪元珙
張虞山
靳茶坡
秋心
秋舫
冬涉
花閒
艸堂
清溪怨
青姬
授書圖
游泮圖
焚冠圖
巢父
飲牛叟
改詩圖
河濱
東籬圖
追和河濱
自題
杜蒼略
程穆倩
鄧孝威
紀伯紫
閻氏本支録
五思録
移寓雜興
柘塘脞録
白馬湖
茶坡
望社
杜茶村
傅青主
王于一
倪天章
萬年少
閻古古
三橋
閻母丁孺人墓表
再彭
文恪公
士美
姚安府
仙窈
少姜
吉家墪
濟陽君
己未詞科録
兑閣
閻牛叟貫花詞序
牛叟
兑閣遺徽詞
迦陵詞
浣溪紗
逮下詞
減字木蘭
花佐家詞
祝英臺近維摩天女恰同參詞
琴弈雙清詞
卓牌兒聯吟詞
杏花天
月華清病榻閒情詞
耳天閣
泛清波摘遍采菱詞
劉松苓
雪坡詩話
迦陵
卓牌兒詞
百詩
壽子仁
生日展期啟
杭大宗
丁孺人
迦陵詞賀新涼雙魚問爲閻牛叟賦
兑閣遺徽
劉節之
孔和
長山
鴻訓
長白山
劉澤清
節之
澤清
閻修齡
爾止
梁商丘
公狄
于一
小有
于皇
古古
阮應韶
筆訓
沈儼
劄記序
梁公狄
李叔則
魏冰叔
萬卷樓雜記
陶貞白
皇甫士安
題春秋左傳屬事
霞舉
紫嵐
華峙
企齊
孫豹人
枝蔚
溉堂前集
懷閻百詩就醫京口
閻伯子
昌谷
李寶應
叔則
金聖歎
若琛
題邵文莊簡端録
吴太易
困學紀聞箋
釋地天時不如地利
大河衞
大學辨業題詞
儒林傳稿
吴一清
閻百詩自淮至
邗上哭亡友王于一兼經營歸櫬感其古誼贈以詩
送閻百詩返太原故里赴試
賦得桂送閻百詩入秋闈
龔鼎孳
龔大宗伯
蕭松齡
木公
傅山先生
左錦
松莊
續鞫居
狐射姑
鞫居
陳留志
鞫亭
魯郡
子尾
曹嶷
劉杳
泠道
孟康
伏生碑
黎山
黎陰
傅宏仁
齊太公
李德林
隗林
移寓
傳青主
子壽
劉原父
歐九
謝承
錢牧
方少師
郃陽
曹全碑
謝書
范書
方坦庵先生自寧古塔歸遇家君誦余拙作甚多不知何從得之異日賦此志感并以爲弔
送閻徵君歸淮安序
程將軍
毛生
毛甡
西河詩集
九月十九日登程將軍冢
青主
褚師聲子
天監
劉炫
趙汸
顧寧人
水經注箋
營
昭餘祁
介休縣
鄔城泊
石嶺關
南雷哀詞
左思
賾
徽國
蔡沈
尚書序録
周郡守晉祠碑記
晉祠碑亭記
姜仲謙
晉祠謝雨文
顯靈昭濟聖母汾東王
仲謙
弋彀
重修汾東王廟記
汾東王
聖母廟
晉源神祠
聖母
邑姜
西寨村
王晞
唐叔虞廟
謝雨文
晉源
臺駘廟
隴右倡和詩
長汀
士宏
託素齋集
石寅
劍津
陳階六
錢虞山
鷃笑堂
階六
温玉亭
温玉
京山
李本寧
石霞舉
洪洞
太平縣
故晉城
新田
曲沃縣
王官城
晉城
黄儀
子鴻
絳水
朝邑
彊梁原
安民
碑林
岐山縣
岍山
隴州
佛峽
涇水
六盤山
金佛峽
嶓冢山
上邽縣
漾水
分水嶺
寧羌州
金牛驛
天水郡冀縣
鞏昌府
伏羌縣
朱圉山
冀縣
畢陌
劄記唐有永樂縣併入蒲州今爲永樂鎮
讀漁洋山人集知李義山玉溪在焉慨然作
永樂鎮
濬縣
大伾山
黎陽縣
贈倪六通
海州
鄒平
驌
宛斯
淮郡
靈璧
繹史
磬石山
鳳陽府
靈璧縣
葛嶧山
伏滔
北征記
聞楊公西狩督學秦中遥有此寄
魏昭士
閻再彭七十序
魏世傚
傚
璩
壽閻再彭六十一序
閻再彭
閻再彭六十序
魏禧
閻氏本支叙
禧
本支録
孟子自齊葬魯後解
鏡月歸余以先朝典故數事送難於令兄映碧先生先生以爲聞所未聞有僑札之譽感賦一律敬寄
李昭陽
與劉超宗書
吴志伊
季貞
爾梅
周茂三
屈翁山
大均
姜西溟
宸英
彭躬庵
士望
邱邦士
維屏
顧景范
祖禹
劉超宗
嚴蓀友
繩孫
彭爰琴
顧梁汾
顧炎武寧人
劄記與李天生
李天生
汪苕文
繆封公墓志
苕文
柳文肅集
堯峰文鈔
後序
王尚書
顧仲恭
北行日札
答閻百詩
送陳子度之任太原
贈陳解人
閩南
薊北
兑閣詞序
丁少君
丁夫人
北行日札賀閻牛叟先生壽序
冰叔
子德
與閻百詩札
書壽序後
邱如磐
與百詩
乞言
申公培
詩論
谷永傳
禮坊記
衞夫人
定姜
詩説關雎
十月之交
作篇
氏姓篇
居篇
揚子法言
李因篤
天生
周天王
季武子
劄記題益智録
與徐勝力
季悼子
與陸翼王
與徐電發
勝力先生
徐勝力
王昊廬宫詹招飲話舊
寄贈高澹人舍人
偶讀唐人李郢登第後爲妻作生日寄意詩戲簡毅文
毅文
九日和張毅文卽席韵
和毅文移寓待尊甫吏部公來京之作
口占贈毅文
摭言
毛穎傳
張水部
書毛穎傳後
與楊誨之書
韓生
陳傳道
信安
安定桓王
晙
叡素
仲卿
少卿
當塗
雲卿
紳卿
董晉
復志賦
汜水
陳許
張建
符離睢
建封
陳從政
符離
代京兆府賀徐州刺史張愔所進白兔表
愔
新史
禮樂志
陳京傳
京傳
議與韋武
王紹
張署
李方叔
陽山
江陵府
元和聖德詩
鄭餘慶
薛戎
石洪
登封
盧殷
少室山
李渤
少室
杜兼
兼
韋處厚
宇文籍
論淮西事宜
淄青
恒冀
張惟素
復國子監生徒狀
歷官記
李紳
紳
李逢吉
逢吉
李實
王播
吕文仲
李宗諤
黄陵
田弘正碑
顔之推
柳開
劉燁
朱台符
宋宣獻
王仲至
孫元忠
鮑欽止
辨證
荆林
武昌去思碑
舊史
軹
女拏墓誌
元和姓纂
赭陽
頽當
騫
韓安之
司馬休之
宰相世系表
堵陽
穎
播
棘城
韓騫
均州
姓纂
棱
弓高侯
尋
安定武安
武安成矦
耆
安定康公
仁泰
祭嫂鄭夫人
乳母誌
盧東美誌
祭嫂云
李翺
祭嫂
韓會
先友記
祭老成文
祭嫂文
楊炎
韓洄
括州
魏博
平盧
李希烈
涇原
姚令言
歐陽詹哀詞
示爽詩
祭老成
歐陽哀詞
答崔立之書
縣齋有懷
張建封
徐泗豪
薛公達
公達墓誌
公達
上河陽李大夫
自咸
李大夫
李芃
贈河陽李大夫
德宗建中
河中府連理木頌
咸寧王
渾瑊
咸寧郡王
邢君牙
唐科名記
明水賦
御溝新柳詩
賈稜
陳羽
歐陽詹
李博
馮宿
王涯
張季友
齊孝若
劉遵古
許季同
侯繼
穆贄
温商
庾承宣
員結
胡諒
崔羣
邢册
裴光輔
萬璫
姚康
科第録
科名記
歐陽詹傳
贈李觀
送侯參謀赴河中幕
祭張季友
與陸員外書
梁補闕肅
王郎中
礎
梁肅
諫臣論
城
顔子不貳過論
上考功宏詞崔虞部書
答崔立之
陸宣公
與韋舍人書
太清宫觀紫極舞賦
陸復禮
與崔虞部書
上韋舍人書
學生代齋郎議
罷齋郎以學生享議
朱絲絃賦
冬日可愛詩
盧邁
感二鳥賦序
上崔虞部書
畫記
祭田横
横
樊澤之
程致道
投邢君牙書
祭田横文
董晉行狀
劉宗經
韋弘景
宣武
汴州水門記
隴西公
洛京
碑
水門記
送汴州監軍俱文珍序
西公
李勉
晉行狀
陸長源
楊凝
杜倫
孟叔度
天星詩送楊凝郎中賀正
凝
祭董公文
丘穎
楊燕奇碑
此日足可惜贈張籍
唐諱行録
南陽公
與東野書
睢上
答李翺書
日者傳
山石
歐陽生哀詞
答張徹
徐泗豪節度掌書記廳石記
豪
杜佑
鍾離郡
濠水
佑
歸彭城
吴少誠
齪齪
題下邽李生壁
清泠池
文雅臺
脩竹園
微子廟
鄒陽
枚叔
下邽
下邳
贈張籍
翺
習之
弇
衛中行
大受
哀二良文
送僧澄觀
將歸贈孟東野房蜀客
諱行録
房次卿
蜀客
房武墓誌
次卿
祭房君文
與汝州盧郎中薦侯喜狀
權德輿
陸傪
侯喜
侯雲長
劉述古
韋紓
沈杞
張苰
尉遲汾
張俊餘
李翊
權公
苰
俊餘
韋羣玉
後餘
李楚金墓誌
盧汝州
盧虔
復黄陂記
温水
洛北
惠林寺
唐科第録
韋珩
羣玉
夏卿
正卿
珩
寄珩詩
送陸歙州序
宣州
羣
上京兆尹李實書
施士匄
論停選舉狀
縣齋
議禘祫狀
上陳京書
聱書
登華旨
與崔羣書
齒落
哭楊兵曹凝陸歙州傪
傪
禘祫議
獻祖
德明
論今年權停選舉狀
上李實尚書書
祭張署文
寄三翰林
禹錫
岳陽樓別竇司直
永貞行
寄贈三學士
皇甫持正
御史臺論天旱人饑狀
寄三學士
上疏
岳陽樓
王叔文
韋執誼
張正買
正買
叔文
憶昨行
伾
崖州
祭李郴州
别知賦
苗氏墓誌
祭張署
署
同冠峽
别知賦送楊儀之
送楊八弟支使歸湖南使府序
儀之
送區册序
區生
與竇存亮書
祭署文
臨武
郴州
王弘中燕喜亭記
張署墓誌
杏花
送文暢
送區弘
同官記
合江亭寄刺史鄒君
映
謁衡岳廟遂宿岳寺題門樓
自衡至潭陪杜侍御遊湘西寺獨宿有題
贈張十一
竇司直
竇庠
胄卿
賡韓侍御岳陽樓
裴訥之
平原公
八月十五日夜贈張功曹
寄贈王二十補闕李十一拾遺李二十六員外翰林三學士
王二十
涯
李十一
李二十六
共兠
王伾
召州
朗州
送孟琯秀才序
孟琯
鴈塔題名
嶺南異物志
荆潭唱和詩序
裴均
楊憑
河南同官記
上李巽侍郎書
五箴
感春
鄭夫人殯表
和張十一憶昨行
杜公
李花
寒食出游夜歸贈張十
署墓誌
邕管
豐陵行
豐陵
游青龍寺贈崔大羣補闕
贈崔立之評事
征蜀聯句
秋雨聯句
蜀士
會合
納凉
同宿
送文暢北遊
田季安
劉濟
祭十二兄岌文
元和聖德詩序
夏州
張承金
惠琳
高崇文
李師道
張愔
太清宫
丹鳳樓
四門博士周況妻韓氏墓誌
鄭餘
鄭絪
餘慶
絪
裴垍
垍
酬崔十六少府
東都遇春
與少室山人李渤拾遺書
寄玉川子
少室山人
來南録
石濬川
景雲
送翺詩
天封宫
福先寺
嵩山題名
樊宗師
李徵君
玉泉寺
韋濛
僧榮
太室
封禪壇
龍泉寺
龍潭
趙玄
布路斯國
艾林波
官文
布國
奕訢
崇綸
馬吉士
艾
美里登
布路斯國條約
税則條約
崇厚
税則
上海縣
小東門
黄浦
小河沿
上海
法國條約
番禺縣
吏部處分則例
巴夏禮
南海縣
朱燮
五福
周起濱
李福泰
恰克圖
邸鈔
色克通額
庫倫
長善
巴留捷克
斐利偏廓
汕頭
惠潮嘉
邱
水司
大高村
大𣽸
義安
海陽縣
天津定約
汕
王澤
邱步光
盧尚德
王治
陳咸熙
莊道康
洪紹平
捻
副島
柳原
澳門
大西洋
廈
澎湖
荷蘭
鄭成功
鄭若曾
日本圖纂
小琉球
薩摩州
五島
臺
雞籠
淡水
瑯𤩝
葆楨
霨
臺灣道
夏獻綸
張斯桂
日意格
斯恭塞格
車城
西鄕從道
柳原前光
牡丹中社
里乃三社
臺灣府志
廈門
滬
風港
枋藔
鳳山
烏里雅蘇台
明誼
塔爾巴哈台
伊犂
雜哈勞
勒布什
俄國續增和約
沙賓達巴哈
齋桑淖爾
特穆爾圖淖爾
浩罕
焕
比利時國
比利時國條約
荷蘭國
荷國
哥士耆
勒伯勒東
金谿縣
長江章程
大通
布國條約
通商税則
桂良
列斐士
蘇松太
吴煦
李梅
劉郇膏
德意志
重慶府
長安寺
崇因寺
訥多威
布
條約專條
通商税則善後條款
肅寧縣
黄惠廉
長江收税章程
赫德
漢黄德
鄭蘭
金執爾
江漢關章程
沈葆楨
廷曙
天津章程
津郡
徐宗幹
文清
耆齡
宣維禮
吉祥
黔省
胡縛理
趙畏三
青巖
晁家關
張如洋
趙國澍
田興恕
定番
勞崇光
戴鹿芝
文乃耳
吴貞相
夾沙龍
西林縣
張鳴鳳
和約補遺
多文
多
和約章程
大清國
蔡國祥
輪船章程
李泰國
國藩
鴻章
美利堅
伍崇曜
粤海
龍元僖
蘇廷魁
英吉利
文宗顯皇帝
黄宗漢
毛鴻賓
粤省
葉名琛
天津和約
俄羅斯國
烏力殺郭幅
連貴
三姓
訥爾吉
赫哲
烏蘇里江
吉成科
内外兼顧章程
西洋國
基瑪良士
通商條約
恆祺
阿穆恩
哈
李鴻章
僧格林沁
大沽
湯若望
則克録
丁拱辰
演礮圖説
吉林
景綸
俄國條約
天津條約
寶鋆
西洋國條約
禄斯色爾
大丹國
璧勒
丹國
丹國條約
璧
俄羅斯事例
俄國續增條約
刑律
續增條約
那蒙阿
色清額
莫哈拉
額爾得尼托羅輝
愛通阿
内固爾畢舍里
額勒登額
呼倫貝爾
明通
楚爾海圖
富寧額
朱朗阿
伊宛
李福斯
歐羅巴
萬國律例
噶𠷌喇
得〔德〕意志
阿勒拂勒得黑勒漫
給勒漫阿里思
梁各口
給勒漫
阿里思
布國和約
唐努烏梁海
固爾弼達巴哈
沙弼奈達巴哈
蒙古則例
沙弼奈嶺
額爾固訥
和國
礬大何文
伯飛鯉
廣東省
和國條約
蒲安臣
丁韙良
依怕木
依萬
多果什
烏勒都倫
孟振生
法國續約
金魚胡同
日斯巴尼亞國條約
薛焕
左欣那
天津練兵章程
美理登
陳欽
董恂
萬國公法
韙良
李常華
方濬師
大竹
毛鴻圖
威妥瑪
楊保安
郭嵩燾
西關
華林寺
張亮基
張心培
謝葆齡
繆焕章
救劫寶訓
貴陽府
救刧寶訓
夏發
韓超
何冠英
六硐橋
麟興
薩彦山
唐弩〔努〕鄂拉達巴哈
賽留格木山
新疆圖
巴彥台噶
台噶
唐努山
唐努鄂拉達巴哈
科布多
岳嵩武
新疆地圖
罕達蓋圖
牛莊
黄浦港
蘇省
王永盛
丁日昌
北洋
英國善後條約
卜魯士
善後條約
塔
錫霖
武隆額
巴燕岱
喀爾春布
哈薩克
俄國通商條款
和蘭
伯洛内
續約條款
英國條約
長江統共章程
陸路通商章程
俄国陸路通商章程
俄國陸路通商章程
張家口
口
聖祖仁皇帝
北京和約
恰
恰克國
伊犂通商章程
陸路章程
局外旁觀論
新議論略
略論
局外論
新議略論
香港
新議論略〔略論〕
續增和約
愛琿和約
松花江
英國天津和約
松阿里江
悉畢爾
續約
尼克來業福斯克
阿巴該推
墨爾根
愛琿
阿木爾省
通商章程
金德
柏卓安
比國
比國條約
棍噶扎勒參
俄國續約
李雲麟
英圭黎
松筠
鄂勒哲依瓦齊爾
霍尼音達巴罕
烏克果勒
烏梁海
勘分西界擬議章程
托木色
米珀拉特
分界章程
條約
景教流行中國碑
英國和約
高宗純皇帝
江南和約
同文館
中国
左宗棠
沙面
漢鎮
匈奴傳
李綱
晏敦復
長新店
後
西門
閩省
陸路税則
俄國續增税則
孫子十三篇
歐羅（巴）
伍胥
新加坡
檳榔嶼
老金山
斌椿
通商善後章程
長江通商
景教流行中國頌
設立學館章程
蔡錫勇
胡光墉
應寶時
江寜
撥解京餉章程
多倫廳
察哈爾
綏遠城
倭良戛里
察罕葛根
葛根
拜旨紀特
塔城和約
武旺
薩特
賽布拉特
他烏克
智忒阿爾阿拉河
烏拉斯忒河
撒爾噶梅塞他都斯公河
撒勒車庫山
塔爾巴哈台嶺
清國
法度條例
寧古塔
烏勒興阿
琿春
訥穆錦
摩闊崴
罕奇
千江
黄島
石廟子
蛤螞塘
海參崴
俄國分界圖誌
青島
香山縣
濠鏡
澳
佛郎機
賦役全書
孔毓珣
祁𡎴
啞嗎嘞
徐廣縉
黄埔
錦丕勒多爾濟
塔城分界條約
布克圖拉蘇穆阿
昌吉斯台
烏科克
德振
霍尼邁拉扈
玉全
大西洋國條約
瑪斯
大西洋國
金登幹
德善
大西洋和約條款
法國船鈔章程
尼廓來業福斯克
圖們江
日斯巴尼亞國
小吕宋
日國
吕宋
虹口
偉烈亞力
傅蘭雅瑪
高温
汽機發軔
汽機問答
運規約指
泰西采煤圖説
馬新貽
\U000f5d64唦
地捫
大西洋條約
志剛
孫家穀
赫
通商條款
善後税則
阿
萬國條約
太平洋
萬國條例
勞文羅（斯）
佟正笏
唐古忒
幹珠爾經
丹珠爾經
奥斯馬加國
續定税則章程
續增税則
布策
齊齊哈爾
龐齡
夾心灘
瑪尼圖噶圖勒幹
鄂倫布拉克
科
涂宗瀛
句容
羅淑亞
司默靈
法國話規
法國話料
袁保恆
保恆
畿輔
直省
陝甘
王家璧
沈應奎
索果克
勒爾津泰
改訂陸路通商章程
律例
名例
張光藻
天津縣
劉傑
修好條規
孫士達
李守一
新表
武陽懿公
大亮
守一
宗室世系表
蔡王
通元
蜀王
義節
南祖
敬元
蘇頲
授李守一别駕等制
洺州
崔行功
綜
行功
舊文苑傳
恆州
井陘
游安
李巢
秦相如
郭封
弘文館
崔承福
挺
信都
唐會稽太守題名記
淛西
吕温
唐故銀青光禄大夫守工部尚書致仕上柱國中山郡開國公食邑二千户贈陝州大都督博陵崔公
侯味虚
絳郡
薛季昶傳
萬歲通天
季昶
味虚
杜景佺傳
杜景佺
陸元方
百官本草
徐有功
士安
有功
弘敏
東莞男
李嶠
授徐有功司刑少卿制
〔莞〕縣開國男
房昶
房氏
韋凑傳
韋湊
韋述
唐太原節度使韋湊神道碑
延載
趙諠
仁本
諠
唐故正議大夫守門下侍郎同中書門下平章事成紀縣開國男賜紫金魚袋贈太子太傅貞憲趙公
神道碑銘
乾封縣
陸餘慶
陸元方傳
聖曆
廣平郡公
韋玢
東眷韋氏
閬公
德敏
玢
彭城公
元震
鄖公
授韋玢司農少卿制
薛縣開國男
唐紹
遵業
舊
唐臨傳
景龍
新傳
輿服志
魏奉古
刑法志
開元格
席豫
唐故朝請大夫吏部郎中上柱國高都公楊府君
碑銘
顔真卿
唐故通議大夫行薛王友柱國贈祕書少監國子祭酒太子少保顔君
廟碑銘
大唐新語
姚珽
奉古
寺塔記
柳七師
先天菩薩
李誠
東祖
仁穎
遣宣勞使誥
張敬輿
孫逖
授張敬輿
等諸州刺史制
高昇
渤海縣伯
武光
御史中丞晉州刺史高公神道碑
李晟傳
郭子儀傳
子儀
李國臣
代宗紀
集賢院
王佑
大唐清河郡王
紀功載政之頌碑
鄭倩之
滄州刺史鄭公
墓誌銘
倩之
王士源
孟浩然詩集序
華茫
浩然
劉彦回
廣異記
彦回
房州
御史大夫贈右丞相程行謀神道碑
宋詢
嘉定鎮江志
韋見素
南皮公
彭城文公
湊
見素
會微
黔中
楊慎餘
崇禮
慎餘
楊慎矜傳
吉温
〔冽〕
陳九言
尚書省郎官石記序
崔孝公陋室銘記
韋虚舟
南皮縣公
虚心
虚舟
韋虚心傳
東都留守韋公神道碑
荆州南泉大雲寺故蘭若和尚碑
韋刑部
韋侍郎
陳㴻
孫縣尉
㴻
楊恂
處相
知權
莊己
裴諝
南來吴裴氏
士明
虔州
裴曙
祈雨感應頌
林琨
定平
希邱
中都男
鄒縣
三源縣
蔣將明
將明
蔣乂
蔣乂傳
吕頌
黔州刺史謝上表
延英殿
大禮賦
希烈
李巽
趙郡李氏
西祖
嶷
令叔
竇參
唐故銀青光禄大夫守吏部尚書兼御史大夫充諸道鹽鐵轉運等使上柱國趙郡開國公贈尚書右僕射李公墓志銘
萬年縣
大唐湖南都團練觀察處置等使朝散大夫檢校左散騎常侍持節都督潭州諸軍事兼潭州刺史御史中丞雲騎尉賜紫金魚袋李公遺愛碑銘
會要
奚陟
殷卿
譙
褚藏言
故國子祭酒致仕贈太子少保府君
〔陟〕
唐故朝議郎守尚書吏部侍郎上柱國賜紫金魚袋贈司空奚公神道碑
儒學傳
陳少遊
大唐郊祀録
磻溪
齊太公祠
柳冕傳
陸質
禮儀志
宇文邈
先君石表陰先友記
鄭餘慶傳
元法寺
法湊
大唐同州澄城縣令鄭公
德政碑銘
李翰
河中鸛鵲
樓集序
美原
介公
庭立
邈
李元素
椿
大祁
韋成季
小逍遥公
逢
成季
李藩傳
王仲舒
吕洞
藩
祭楊郎中文
韋執誼傳
張正一
劉伯芻
裴茝
常仲孺
正一
執誼
苗晉卿傳
晉卿
贄
吕元膺
景夫
崔郾
陲
酆
廣畧
唐故銀青光禄大夫檢校禮部尚書御史大夫充浙
江西道都團練觀察處置等使上柱國清河郡開國公食邑二千户贈吏部尚書崔公行狀
敬宗紀
寳曆
安再榮
袁王
武昭
文宗紀
邠寧
劍南東川
元稹傳
遵古
罰劉遵古俸
〔料〕詔
王公亮可商州刺史制
宣室志
沛國
東蜀
涪江
寶刻類編
贈尚書左僕射劉遵古碑
長安志
朱雀街
宣平坊
韋審規
豐祐
授韋審規等左司户部郎中等制
贈韋審規父漸等制
韋審規可西川節度副使御史中丞等制
審規
樊澤
宗師
湖陽縣
紹述
綿州
南陽樊紹述墓誌銘
豆盧署
豆盧氏
中牟縣男
李虞仲
授王正雅等兵部郎中制
豆盧曙
獨孤朗
朗
唐故福建等州都團
練觀察處置等使兼御史中丞贈右散騎常侍獨孤公墓誌
鄭肅
乂敬
興平
趙元亮
趙憬傳
崔元略傳
元略
高元裕
少逸
元裕
景圭
渤海縣男。
李宗閔
蕭鄴
大唐銀青光禄大夫守吏部尚書上柱國渤海縣開國男食邑三百户贈尚書右僕射高公神道碑
鄭居中
獨孤朗傳
寶曆
崔晃
居中
開成二年三月三日禊洛濱留守裴令公召前中書舍人鄭居中等一十五人合宴舟中詩。
逸史
鄭舍人
東洛嵩
李師稷
師稷
楊嗣復傳
高少逸
允恭
重修承旨學士壁記
崔瑨
頲
璵
崔珙傳
瑨
〔循〕吏傳
盧弘宣
漢西嶽華山碑額
李德裕
鄭亞
河清
亞
子佐
鄭畋傳
李回
崔駢
坊州
上善泉
集古録目
唐修秦文公廟記
李伉
鄜畤祠
秦文公
衙龍神
文公祠
崔璵
珙
朗士
崔琯傳
崔興
委中書門下處分制科及第人詔
薛廷範
存誠
庭範
輔國
崔嘏
授薛廷範淮南副使制
韋博
逍遥公
昭義
授韋博司勳郎中等制
柳喜
睦州
齊物
宣宗紀
邠州
柳憙
王璠傳
王璠
遐休
東觀奏記
柳翰
柳熹
裴寅
中眷裴氏
裴向傳
懿宗紀
盧耽
文宗實録
蔣偕傳
牛叢
山南東道
定邊軍
四川成都志
順義郡公
東道
崔魏公
淮揚
盧丞相
耽
張郎中
鐸
韋退之
應物
慶復
韋退之除户部員外郎等制
李蠙
大鄭王
千鈞
蠙
懿山
潞州大都督府
昭義軍
唐語林
玉泉子
韋保衡
李鉅
因話録
沈詢
彬州
柳侍郎
祈雪華嶽題名
佛頂尊勝陁羅尼經
孟穆
鄭朗
南蠻列傳
薛廷望
庭望
遂之
薛廷望除美原尉直弘文館等制
唐摭言
蕭倣
鄭商綽
薛扶
李仲
續會要
崔鉉
崔瑑
義陽郡王
抱真
瑑
大〔中〕
魏扶
韋琮
張鐸
仲素
司振
懿宗本紀
藤州
于琮
李琨
小鄭王
宗閔
希立
李宗閔傳
李晦
申州
晦
宗室傳
河間元王
孝恭
僖宗紀
乾符
李繪
姑臧
僖宗
蔚
繪
德彰
李蔚傳
程匡柔
唐補記
王郢
李瞻
兩京
金華子雜編
王祝
李給事
周侍中
黄巢
劉相國
杜晦辭
崔寓
劇談録
興善寺
普照大師
劉都尉
崔給事
寓
張常侍
孫徽
孫逖傳
王鐐
文懿公
〔州〕
王鐸傳
鐐
王仙芝
王播傳
夏侯潭
懿宗
孜
虚中
夏侯孜傳
嗣襄王
煴
\U000f2cf4應物
沈作喆
韋刺史傳
王欽臣
韋蘇州集序
考夫
張履祥
公簡
姚子
大也
言遠
屠子
龍谿先生集
濂溪集
石經大學
知本要義
古本
石本
夾漈
靈帝
石經周易
蜀廣政
孫逢吉
邢璹
蜀中
石本大學
李鄴侯
晝
景逸
蔡中郎
豐南禺先生
履祥
宓子
裒仲兄
丙申筆記
澉城
龜山先生集
養生送死
性解
禪障
大學辨
孝先兄
孝兄
雲耜
自箴
約語
用晦兄
商隱兄
佩蔥兄
石長
渝安
穎生
韞斯
秦溪
季心
廛市
忠可
禾城
敬可
易修
張佩蔥
白方兄
同人約
白方
闇伯兄
近修兄
近修
近兄
伯繩兄
伯繩
乾兄
辭友人
乾初
童蒙須知
白鹿洞學規
居家雜儀
吕氏鄉約
茅生
司馬温公集
許魯齋集
吴康齋集
鳴臯
李忠定
日新説
家誡
石塚
嚴三求兄
許晋臣兄
敬菴先生
薛敬軒先生
開美兄
心意問答注
乾初兄
雲棲
開美
先正遺事
苕中
閔采臣
采臣
淩帷燈
帷燈
太常紀事
秋圃先生
開三兄
錢一士
園花
梅里
程仲孚
仲孚
禾中
仲老
證人
忠節公本傳
忠武侯傳
陳質叔
王闇如
君一
沈友開
友開
闇伯
近
闇
麗京
闇兄
一士
學規
忠節公遺集
三儀
祠堂增議
龍潭老人
康齋
石長兄
葬論
韞斯兄
沈兄
辨言
西山先生
先師語録
舊儀
間傳
裒兄
澉湖
擊壤
穎生兄
烏墩
宁膺兄
浩如
唐先生
朱夫子
與湖南諸公
柳下惠
壯
沈先生
讀書録
吴康齋
劉忠宣
芝房
言如
渝兄
狐狸
尹同
崦嵫
尼書
偉瀾
平翁
禦兒
正學集
讀書
居業
韶濩
丹書
兩漢書
厚語
子修
晋臣
元龍
易老
易修兄
袁黄
功過格
公綽
卞莊
臧文
先進遺風
則傚録
自警編
山陰先生
祝子
師説
甸華
中庸輯略
兒訓
周禮集説
廢興叙
賈氏
語溪
季老
字虎兄
遺安堂
端老
萬蒼
感遇
東莊約語
緑衣詩
幾
維翁
用兄
月川先生
朱子遺書
語水
公勇兄
程長年先生
薛楚老
無貳
存雅
維恭
攻玉兄
龍谿集
敬軒
彦時兄
予重
孝嘉
路乘兄
雲谷先生
飛老
沈氏農書
甑山
飛翁
士鳳
三水
莊烈愍皇帝
由檢
太祖高皇帝
天命
信王
天聰
愍皇帝
崇禎帝
客
廣寧
周延儒
溫體仁
世祖章皇帝
純廟
延安府
米脂縣
雙泉堡
世甫
金氏
破軍星
黃來兒
鴻基
鴻名
劉國龍
關廟
國龍
羅君彥
艾氏
艾老舉人
晏子賓
蓋君祿
李過
王國
王異
闖王
羅汝才
賀一龍
馬守應
劉希堯
竹山
竹谿
房縣
陳奇瑜
車箱峽
顧君恩
高傑
君恩
奇瑜
麟遊
湘陰
婁銹
賀人龍
張天禮
洪承疇
左光先
靈寳
左良玉
溱水
朱大典
老回回
革里眼
左金王
改世王
射塌天
八大王
橫天王
混十萬
過天星
九條龍
順天王
陝軍
獻忠
迎祥
信陽
曹文詔
艾萬年
柳國鎭
朱陽關
固州
趙躋昌
乾州
劉三顧
三顧
眞寧
王家永
閿鄕
魯山
盧象昇
確山
吳太朴
合肥縣
熊文舉
含山
黎宏業
馬如蛟
如虬
如虹
康正諫
趙世選
混天王
甘氏
汪之斌
徐元亨
蔣若來
李維樾
若來
陳于王
劉大鞏
李覺斯
覺斯
西沙河
祖寬
羅岱
祖克勇
朱龍橋
葉景先
查應才
盧家廟
祖大樂
穀熟集
陳永福
朱仙鎭
武穆廟
郜城鎭
石陽
湯九州
七頂山
𨿅
綏
俞冲霄
羅家山
孫傳庭
盩厔
曹變蛟
陽平關
七盤關
百年關
廣元
朝天嶺
葭萌
黃壩
七盤
梨樹口
麥坪
靑岡坪
土門塔
侯良柱
烏龍山
二郞關
昭化
王時化
劍州
徐尙卿
李英俊
江油
馬宏源
彰明
安縣
德陽
漢州
溫江
彭縣
張應奇
潼川
金堂縣
潘夢科
王維章
洮州
岷州
馬科
劉宗敏
田見秀
商洛
榖
鄭崇儉
魚復山
李雙喜
宗敏
張鼐
小張侯
𣏌縣
李巖
李公子
紅娘子
巖
牛金星
尙絅
絅
金星
車優
陬
牛
宋獻策
獻策
宋孩兒
唐啓泰
武大烈
萬安王
采𨮫
唐日泰
王紹禹
常洵
紹禹
王允昌
呂維祺
維祺
由崧
蕭氏
白守文
張道脈
劉顯典
錢福
李彰雲
焦如星
張鳴皋
杜一經
崔升
劉芳奕
韓金聲
楊萃
常克念
荀良翰
邵時昌
張旋吉
梅鼎盛
恭枵
黃澍
王燮
內鄕
汝才
劉國能
國能
漢南
傅宗龍
楊文岳
新蔡
文岳
宗龍
李永祺
汪喬年
邊大受
河間府
靜海縣
李氏邨
李萬慶
萬慶
永祺
聿鏌
猛如虎
劉士傑
郭關
猛先捷
艾毓初
邱懋素
姚運熙
劉振世
鎭平
鍾其碩
龔新
潘宏
通許
費令謀
上天龍
汴都
關永傑
侯君耀
崔泌之
王受爵
睢州
李夢宸
張繼世
商邱
梁以樟
徐作霖
吳伯裔
伯允
作霖
伯裔
以樟
王政
燮
楊呈秀
李貞佐
顧王家
寳豐縣
張人龍
貞佐
喬氏
侯恂
良玉
虎大威
楊德政
劉澤淸
朱家寨
馬家口
渦水
寧鄕
安鄕
柳圈坊
張名表
允售
允準
褚生
賀錦
爭世王
亂世王
藺養成
傳庭
左勷
蕭愼鼎
冢頭
王世琮
世琮
王鐵耳
朱國寳
文師頤
由樻
白馬渡
棗陽縣
郭裕
宜城縣
陳美
周建中
光化縣
萬敬宗
偏
陳睿謨
常潤
湘陰王
儼𨥠
宋一鶴
鍾祥
蕭漢
李振聲
楊承裕
獻王
王克生
張聯奎
聯奎
克生
宜城
潛江
雲夢
孝感
黃陂
京陵
黃州
方國安
常德
黃河
吉珪
老齊
一龍
守應
李帥
趙應元
楊承恩
王龍
李汝桂
楊承祖
徐起元
楊山
朱養
民
王可懷
郝有法
戴恩
袁時中
九問九勸辭
高必正
見秀
黨守素
辛思忠
谷可成
李友標
任繼榮
吳汝義
劉芳亮
馬世耀
劉汝魁
白鳴鶴
劉體純
袁宗第
謝君友
田虎
張能
馬重僖
襄陽衞
高一功
馮雄
通達衞
任光榮
牛萬才
張禮
荆門州
葉雲林
王文耀
揚武衞
白旺
馬世泰
謝應龍
漢川
汝寧衞
韓華美
均平衞
周鳳梧
襄京
楊永裕
永裕
襄陽伯
邵陵王
在城
棗陽伯
保寧王
宣城伯
肅寧王
術授
順義伯
均平府
揚武州
來儀
喩上猷
蕭應坤
招遠楊永裕
鄧巖忠
姚錫胤
邱之陶
邱瑜
之陶
陳萬策
李開先
新順王
京襄
李養純
唐縣
寳豐
折曾修
白廣恩
盧興福
陳可新
姜渭
周英
李大存
孫月
垣曲
陳勇
高汝利
喬元柱
臨潼
楊暄
商𨿅
黃世淸
王根子
馮師孔
黃絅
簡仁瑞
吳從義
崔爾達
章尙絅
王道純
焦源溥
源淸
田時震
磁川
祝萬齡
王徵
席增光
朱誼泉
鄜
朱一銃
中部
朱新堞
存樞
永壽王
誼保
西安府
蒲津
汴城
田斌
天保府
天保縣
唐時明
南氏
南企仲
企仲
居益
邱從周
惠世揚
張國紳
文翔鳳
鄧夫人
國紳
翔鳳
楡林
都任
尤世威
世祿
李昌齡
侯拱極
王學書
王世欽
王世國
世臣
惠顯
劉廷傑
王家祿
舒君睿
段復興
董琬
靳居聖
麻禧
稟塉
西河王
林日瑞
馬爌
郭天吉
哈維新
姚世儒
藍臺
羅俊傑
趙宦
西寧衞
靑海
自晟
甲申曆
李繼遷
天祐殿
宋企郊
陸之祺
鞏焴
張璘然
汝侯
澤侯
蘄侯
谷英
亳侯
李錦
磁侯
偀侯
義侯
綿侯
淮侯
劉國昌
岳侯
光山伯
太平伯
巫山伯
桃源伯
鄢陵伯
武陽伯
李佐
文水伯
楊王休
橫門
寧紹先
定鼎長安賦
張文熙
李化麟
宋衞
德璟
申葆
蔣臣
中左門
王鼇永
北新關
紀傳
李待問
孫承澤
汪惟效
元璐
汝玉
鴻賓
忠賢
趙黨
孫黨
熊黨
鄒黨
韓爌
文震孟
黃道周
黃安縣
鄒華
劉孔昭
大淸
吳履中
履中
李明睿
項煜
陳演
煜
蔣德璟
左懋第
馮元颺
直沽口
藻德
岳貢
鄭芝龍
芝龍
楊廷麟
何騰蛟
蔡春溶
賴繼謹
陳駿音
趙士超
毛至潔
芋源
責躬
萬元吉
陳伯輿
宋高宗
李伯紀
崇安
分水關
李世熊
〔管〕仲
趙魏
徐夫人
永勝
閻總
吉虔
呂尙
鴻逵
楊耿
周易訂詁
允彝
彝仲
瑗公
鄭三俊
方岳貢
史可法
弘光帝
徐復陽
文德翼
張捷
三吳
宋高
張邦昌
劉豫
吳志葵
吳淞
侯峒曾
徐石麒
黃淳耀
徐汧
之旭
松塘
幸存錄
完淳
陳子龍
蔣山傭
亭林先生
楊永言
吳其沆
王永祚
永言
其沆
世熊
泉上里
元仲
寒支子
何楷
睦夸
夸
桃簡
眭夸
永寧王
田千秋
公孫〔賀〕
李鄘
方召
張吉
荀彧
王導
導
陶侃
劉繼恩
李泌
劉琦
孟珙
正中
正撝
寧武侯
之仁
餘姚縣
黃宗羲
監國魯元年丙戌大統曆
大明監國魯元年丙戌大統曆
王之仁
孫嘉績
熊汝霖
錢肅樂
守諭
邵之詹
王藩
方藩
錢湖
寧武
擥蘭集
廣信府
馬金嶺
黃奇壽
牛頭嶺
王加封
奇壽
李瑛
倪彪
童家坊
婺
煖水
金嶺
老竹嶺
明堂里
張天祿
高萬榮
天祿
自悼詩
尊素
莊烈帝
曹欽程
劉宗周
防亂揭帖
滂
黃竹浦
世忠營
士英
陳恆
赭山
崇明
張國維
絕命詩
睿親王
多爾袞
一片石
朱由崧
可法
劉良佐
黄得功
至澍
繼紳
忠清
文天祥
千墩浦
顧野王
神烈山
涂（塗）中
圭年
章志
紹芳
紹芾
同應
同吉
東掖
湖清
石頭城
蚩
條侯
延英
雒邑
蒼山
東虞
少梁
勾吴
殽潼
高景
汾陰
金閨
南山歌
汀江
大湖
韓康
長桑
北固
王伯齊
浣花溪
神烈
常王
高廟
虞子大
二京。
田甲
甯成
小陰
郭解
田儋
吴趨
魯陽
三泖
九峰
蘭臺
六官
桃葉歌
青溪橋
白土岡
桃根
臨汾
隆武
元旦詩
霍縣
霍山
女媧廟
傅山
湖州莊廷鑨
王宏撰
驪山
乾陵
李顒
朱存杠
存杠
慈恩寺
大雁塔
玉壁
銅鞮
龍池
沙陀
晉陽宫
上源
京雒
從珂
雁門郡
三垂岡
百年
巨靈
青柯
桃塞
趙佗
王景畧
華清
宜臼
緜上
袁絲
鄴中
劉澤遠
近儒名論甲集
王畧
張弨
曲周
路文忠公
程先貞
李濤
先貞
蘇禄
程正夫詩序
慈仁寺
春秋纂例
春秋權衡
漢上易傳
陳上年
鈔書自序
鄭衞
服子慎
姜元衡
啟禎集
章丘
徐令
燕市
易京
平原里
歷下
卞
詩書
趙壹
七聖庵
文昌閣
元文
忠節録
謝長吉
謝重輝
申穟
叔斾
永年
申涵光
陸元輔
路澤濃
殷岳
大桑家莊
徐乾學
熊賜履
忻州
静樂
趙天羽
陸慶臻
蔡湘
盂縣
洪善
達夫
洪慎
蔣隱溪
立恭
隱溪
洪山寺
齊邱
化書
李千户
太乙真人圖
費無隱
蘇武慢
西峰
草埠門
金華縣
何文定
王魯齋
郭瑛
大成殿
李和
陳景茂
朱士真
務勤
沙羡
桐江
同倫
翠筠
汝敬
竹谷老人
大經
應雷
竹谷
鶴林
郭文通
樸齋
王邦彦
張伯原
劉允恭
文明門
伯原
時貴
永思堂
廣濟
泰和
王行敏
行敏
伯貞
行儉
稼軒
武姥
黄思恭
大羅山
王止中
止中
壽徵之庵
蕭自誠
石岡書院
省身
石岡
仙槎江
蕭子雲
遜
儀鳳
子安
福可
則善
齊壽堂
歐陽俊
三峯
歐陽氏
蜀江
以忠
劉岳申
吟嘯集
指南録
集杜二百首
鄧光薦
督府忠義傳
劉崧
教忠坊
劉履節
李庸
執中
劉諫議
士榮
謝敬常
劉彦達
彭永新
敬常
彦達
西昌
尹務厚
澄淵
禄勸
孔克準
宣聖
衍聖公
克準
魯林懷思圖
孔林
元君
武昌郡
夏汭
鄂縣
孫吴
武昌城
費文褘
石鏡亭
鳳凰山
孟孝子
漢陽郡
大别山
洪山
釋迦氏
禰正平
黄蓋
黄金
蕭秉文
秉文
禰氏
忠孝
原吉
匯
敬守
公緒
兼山先生
永興軍路
冲晦處士
頤正先生
慶宜
登州府
彦鉉
彦遷
瓊州府
彦思
彦常
襄府
三衢
江秉心
桂巖集
桂巖
瑕丘
次翁
應元
衢睦
民表
子遠
漢臣
王永
珪
岐國公
碩鼠
馮讙
尹鐸
秉心
仁宗皇帝
兩朝實録
余學夔
學夔
胡子祺
彭州
胡忠簡公
忠簡
孫吳
沙羡稾
石臺
蕭德蕡
桃源里
桃源
石臺里
石臺稾
穀軒
月窗
文玉
若敖氏
得常
十朋
賢卿
申甫
清甫
澄甫
濟甫
志弘
志道
志遠
志武
聖傳
壽傳
性傳
愛山圖
愛山
李芾
萬木圖
勉仁
達卿
阮德柔
吳景南
南窗吟稾
吳文正公
思明
金溪
思清
吳克彰
深溪
康氏
匡氏
稠
抃
訓
景材
度宗
桂林府
宗武
天臨路
慶洲書院
宗正
宗濂
魯橋
祁洲
珏
埧
坊
淘金驛
匡家坊
玨
魯匡
句須
慶洲
仲矩
巽初
羔羊
既醉
杜少陵
韋應物
玉雪齋集
樊公
慎
陳宗舜
吉州科舉録
須溪
思貽
楊氏家乘
家乘
歐陽哲
族譜
蜀江里
彤
永和鎮
\U000f5e0f
常溪
文忠集
曾氏譜
譜序
廣哲
蜀江譜序
勝用
君崇
君傑
子華
四
不移
本之
魯府
梁氏譜
家譜
梁氏續譜
長安門
陳光世
光世
曾子啓
王時彦
桂宗儒
章尚文
錢習禮
張宗璉
周恂如
陳德遵
彭顯仁
周功敍
胡永齋
劉朝宗
余正安
蕭省身
曾鶴齡
胡永齊
喜雨
王敬先
宜章
岳池
敬先
海桑
李伯高
楊忠襄
胡忠簡
周文忠
楊文節
皇明
伯高
劉氏慶源編
劉善經
子玄
幼孜
吴子恭
文信公
寧極
劉須溪
趙青山
子恭
源潔
易簡
養由
豐城
孫宗正
良初
周敍
張習
蔣君
用文
蔣氏族譜
伯齡
欽緒
惟雅
守訓
安中
楊雲翼
應茂
周雷
宫
崇明州
吴琳
蘭陽
王宣慰
止善
黄文獻
鈺
王氏家乘
北征集
太宗皇帝
幕北
本雅失里
金微
黄敷仲
張珂
敷仲
浙水
兩浙
熊敬方
吳先生
敬方
應天府
概
西澗集
梅花圖
史仲和
史氏族譜
史興
史蘇
史黯
史趙
史禆
史鰌
太史氏
内史氏
左右史氏
武陽侯
習
平臺侯
崇建武
溧陽侯
慶傳
譜圖
譜録
仲和
李昶
劉焕
士拯
安城
彭氏
中溪
東陽峰
劉像
像
白馬峰
黄牛嶺
石榴峰
玉井泉
密湖
毓敬
蘇文忠公
遠景樓
宋思陵
吕忠穆公
頤浩
升
岳武穆
楊太
臨安府
黄文節公
戒石銘
忠穆
晦庵
士皆
楊文節公
宋理宗
黻
太和州
顧侯墓志銘
梁潛
侯
陳亢宗
林環
吴侯
去疾
顧侯
羊叔子
亢宗
嚴本
嚴君
尹崇高
段時舉
張宗海
胡敏德
伊蒿子傳
蕭德聚
安正
瑞芝記
主簿公
斯和
匡山先生
公望
望之先生
虞文靖公
歐陽楚文公
相臺
子與
福健
竹亭先生
子啓
崇慶州
歐陽先生
楊先生
自立
子理
崇志
杭州府
德安府
子召
桃源山
淩雲軒
獻之
絳帖
絳本
潭帖
泉帖
史常
米南宫
黄伯思
封事藳
周文忠公
搢
真仙巖
劉長吾
揭文安公
范濬舜文
新州
豐水志
范濬
胡銓
忠節祠記
右軍
張彦遠
法書要録
泉州
楊耀宗
信國文公
集杜句
鄧中齋
劉中齋
張弘毅
山陰集
劉永之
仲修
練伯升
伯升
石守道
徂徠集
守道
吳紳
于役志
筠州
師魯
郢州
余
高若訥
通鑑續編
陳桱
子經
盤古
劉恕
金履祥
桱
劉倩玉
公潛
通鑑前編舉要新書
朱季寧
三禮考註
逸經
三禮敘録
虞文靖公行狀
康震宗武
晏璧
彦文
仲熙
敘録
奔喪
公冠
諸侯遷廟
諸侯釁廟
中霤禘
太廟
王居
逸禮
禮儀
服義喪
大記
喪義
正經
禮記纂言
當
經義
乾坤清氣集
正祀典名號詔書
詹希原
崇文閣
吳草廬
司馬文正
唐才子傳
辛文房
十史詳節
東萊年譜
延祐乙卯廷試録
郭儼
彦莊
養蒙
大訓
熊大年
經學啓蒙
初學經訓
小學禮詩
伊洛精義
饒氏
性理字訓
訓蒙理詩
毓蒙明訓
序古千文
朱子訓蒙絶句
孝經刊誤
字訓
程達原
程正思
説文字原
周伯琦
伯琦
宣文
巙巙
巙
宣文閣
周伯温
南翁
字原
正譌
宋景文公
景文
安雅堂文集
陳旅
衆仲
洪遵道
常袞
馬伯庸
虞學士
少保
省愆詩集
黄淮
鄒孟氏
憶昔詩
劉仲修
金君
范先生
鸚鵡賦
二年進士題名記
趙文敏公
胡文穆公
湯季庸
張中丞傳
張洎
季庸
龍參
夏仲達
湘中
戴氏
潘迪
胡學士
光大
鄭夾漈
共和
宋嘉祐
華山廟碑
郭香
漢淳于長夏承碑
陳登
思孝
蔡伯喈
趙名誠
廣平府
洺
鄒侍講
孔子廟學記
尊號
受禪
梁鵠
廟學
鵠
天璽
段石岡紀功德碣
皇象
天禧寺
胡宗師
吴志
天册
𠪾陽
陽羡山
天紀
王濬
智永
千文
宋鑒
惟憲
集古金石刻文
殷鐵石
周興嗣
劉後村
東方畫贊
歐陽率更
畫贊
醴泉
化度
大禮慶成詩
渦
皇帝初郊大禮慶成七言二十韻律詩
叔才
翁孺
鄭子
范寧
羊曇
謝傅
衞玠
深源
柳州
蓬山
邶詩
觀魚圖
碧雞頌
竺乾
觸
唐堯帝
單豹
張毅
窾水
宋榮
養生
雕陵
河伯
海若
子葵
德璋
子駿
祝腎
士行
頤山
柳氏訓序
柯亭
戴譜
淇園
具區
鴻都
盤盂
孔北海
范萊蕪
韓嫣
大禹經
中都府
邇英
夏戎
長秋
孟元
王巖叟
禮記王制
石中立
從簡
祖仁
劉煇
煇
武功郡開國侯
六典周官
褚
吾
卞耽
賀監
趙熹
山濤
柬之
戴胄
丘墳
攜
朝京門
壤歌
小正
吕韋
三五
紹聖常平免役勅令
澶
馬邑
結贊
王會
營平
伯始
漢儀
華戎魯衛信録
元豐勅令格式
編勅附令勅
編勅
元豐勅
洪獻
熙寧勅
勅
魏律
唐格
熙寧勅令
勅令
景德農田
慶曆貢舉
元祐差役勅
刑統
元祐詳定令
典墳
書詩
金鏡
神宗紹天法古運德建功英文烈武欽仁聖孝皇帝
神宗紹天法祖運德建功英文烈武欽仁聖孝皇帝
三五六經
文德殿
大長秋
軒丘
韓奕
麗正
中經
字書
畧録
新簿
洛宅
羊公
鄭武
徽之
仲猷
信安侯
嚮
奢
鬱林
光翼
唐上元
劉展
浦城
王潮
忠懿王
竇儀
王朴
李覃
何儼
趙隣幾
竇儼
方城縣
天興
王彦超
劉温叟
温叟
薛居正
雍熙詞
李昉
燕國宣獻公
龍圖
常山公
宣獻公
平棘
龜符
譙國公
宋元憲公
寳元
蘇舜欽
集慶軍
鄭國太夫人
王文安公
仁宗實録院
永厚山陵
閤門儀制
蕃國朝貢條例
元正朝賀儀注
宣獻
均公
建公
燕國公主
兗王
衛王
司馬操
隴西郡王
李用和
石保吉
徐國公主
王師約
漢藝文志
宣政
永厚陵
書闈集
西垣制集
東觀絶筆集
權僕射
李司空
唐大詔令
類例
河南志
集例
例要
蕃夷朝貢録
三川下官録
入蕃録
春明退朝録
韻類宗室名
安南録
元會故事
諱行後録
李翰林集
李北海集
顔魯公集
劉賓客外集
孟東野集
李衛公别集
寶刻叢章
王元感
陳伯宣
别注
九域志
濮安懿王
韓忠獻公碑
厚之
崔琳
姓苑
臨川郡
南城縣
仔倡
全諷
柳彦章
魯牙潭
楊渥
德昭
武肅王
晉國公
守文
白州
普門品經
龍聿
周整
整
聿
讞獄集
三朝寳字訓鑒圖
張安
戎瀘
儂智高
諫垣集
吳越
邾儀
韓忠獻公
景詢
秦鳳路
州
青唐
劉昌祚
劉構堡
熙寧編勅
高陽關路
瀛州
貝丘
白溝界河
趙用
用
連珠
霸州
中太一宫
集禧觀
昭武王
暠
冲
君威
滎陽縣
元超
彰國軍
康保裔
高陽關
中立
表臣
雅頌
宗諤
樂成侯
樂壽
饒陽
平昌
仁軌
君良
蕡
繢
將陵
永静軍
東光縣
五德鄉
東光
瀛關
安行
孝若
蔣陵
須城縣
盧東鄉
太谷山
寶典
偕
王景山
余京
方援
伍原
鹽城
侯叔獻
叔獻
五馬
永嘉唱和
聖咨
葉經
往生録
孤雁
晚望
時政十事
元章簡公
屼
石君
曾宣獻公
杜正獻公
解經訓傳
壽昌縣君王氏
晉陵
景雩
景需
奉化
景零
景雯
景震
長州
葉庭實
澤州
陵川
王慶叟
南劒州
將樂縣
江汝言
張褫
馬景文
李景常
虞芝
九巖山
潤
行録
春明坊
新里鄉
劉柴原
禮令
文懿
道卿
凌策
戡
時政記
恭公
榮靈
譓
西安縣
衛真縣
旼
霍丘縣
霍丘
京峴
崇德里
焦石山
孫冕
龍興佛舍
静安縣太君
盧夫人
周秦
西掖草
執政年表
奉使句驪叢抄
少林居士聞見録
嘉興縣君韓氏
周忠憲公
崈
李持正
韓戢
王荆國公
吴正憲公
景繁
張伯方
雩都縣
治邊十三事
李復圭
崇德縣君
居厚
居易
范世
鄒璠
論語指歸
奏議集
寳文閣
正臣
子難
胡翼之
姚闢
闢
杜祁公
觀文
王安簡公
張丞相
梁侍中
沈文通
何公南
開寳兵目
驛馬令
海陵
秉常
錢君倚
裴如晦
孫聖塗
掌
黨氏
掌同
燉煌
掌據
前燕
遂興侯
禹城
廷暉
鹿邑
李康靖公
元昊
周宣
鴻範傳
金明
李士彬
田京
用章
皇祐方域圖志
地里新書
神農本草
楊寘
晉陽刀筆
郡國手鑑
周易雜解
周易流演遁甲圖
南風之薰
羣玉集
治安策
續策
忠信
章望之
洎
倪天隱
蘄水
洋
岐下
洋州
解州
解池樞要
祫享太廟
治平初郊
丹扆十箴
梁山軍
鎮東軍
鬼章
好水川
白太傅
盧懷慎
盧齊卿傳
薛季旭
季旭
盧齊卿
鄭愔
敬暉傳
武三思
敬暉
中宗紀
良吏
李尚隱傳
崔湜
李尚隱
李懷讓
裴漼傳
裴漼
安樂公主
上官昭容
漼
外戚
武三思傳
張守潔
優恤張守潔等制
員嘉静
遣王志愔等各巡察本管内制
張行岌
崔宣
渤海靺鞨傳
張思義
俊興
思義
柳賁
張嘉祐墓誌銘
楊虚受
全文
請禁惡錢疏
遣使給
事中楊虚受安撫江東敕
河北道
冉祖雍
冉實
道宗
祖雍
河州刺史冉府君神道碑
文藝
宋之問傳
王同皎
三思
崔日用
新豐
鄭普思
日用
普思
宗楚客
延秀
齊卿
李𢘽
韋庶人傳
臨淄王
韋后
李𤤺
崔琬
元行沖傳
璆
大詔令
贈王仁皎太尉益州大都督制
賜崔琬彈宗楚客密狀敕
宗楚客傳
阿史那忠節
楚客
姚紹之
酷吏傳
瓊山
李詳
璣衡
詳
梓州
御史臺記
審己
機衡
史思明傳
許叔冀
姬處遜
周思忠
處遜
萬年
姬氏
楊茂謙
良吏傳
茂謙
臨洺
韋景駿傳
薛昭
瑚
高平公
思行
房光廷
石刻
韋濟
白鹿泉神君祠碑
恒州
倪若水
儒學
祝欽明傳
欽明
崔思兢
彭偃傳
李晟
安國寺
姚金之
朱泚傳
韋虚心
竇懷貞
劉幽求
授王丘主爵郎中等制
楊孚
諲
崇恩廟
則天皇后武氏傳
杜暹傳
華州
杜暹
暹
潘好禮
岐王
貝州
惠妃
蘇冕
好禮
邠王
玄宗貞順皇后武氏傳
洪子輿
洪察
弘氏
孝敬
神功
授洪子輿起居舍人制
韋安石傳
姜晦
韋安石
韋温
郭震
姜皎
慕容珣
薛登傳
薛謙光
惠範
太平公主傳
慧範
授慕容珣侍御史制
任正名
嚴挺之傳
元福慶
韋子
任生
詠裏行官詩
宗室表
博乂
懷讓
蔣國公
授李懷讓兵部郎中制
授李懷讓御史中丞制
授李懷讓給事中制
王上客
兩京新記
唐故監察御史贈尚書右僕射王公
上客
褚璆
褚遂良傳
授褚璆侍御史制
大唐國要圖
霍庭玉
霍廷玉
益州大都督府
武平一
東門頌
庭玉
張之宏
兖公之頌
崔庭玉
艾敬直
授艾敬直仙州長史制
王旭
李傑傳
橋陵
陸南金傳
盧崇道
李傑
元行沖
酷吏
王旭傳
王珪傳
李嵩
李全交
康漼
銀青光禄大夫海濮饒房睦台六州刺史上柱國汲郡開國公康使君
璀
康瓘
康璀
對嗣足不良判
楊瑒
楊瑒傳
何延之
蘭亭記
辯才
玄素
佺期
瑒
授楊瑒侍御史制
韓休
授杜暹等侍御史制
馮宗
游子騫
命柳城復置營州詔
授游子騫等侍御史制
授游子騫屯田員外郎制
黄元之
潤州江寧縣瓦棺寺維摩詰畫像碑
徐知仁
徐知
信安郡王
褘
應天門
唐故右金吾衞將軍河南閻公
徐知人
朝議大夫贈梁州都督上柱國徐府君
奉和聖製送張尚書巡邊詩
張冠宗
解琬傳
朔方軍
解琬
三城
方技杜生傳
張敬之
冠宗
宇文融
裴寬傳
裴寬
江南東道
翟璋
穆思泰
元光謙
吕太一
翟章
王琚
竇希瓘
周利貞傳
敬讓
授翟璋將作少匠制
授翟璋等諸州刺史制
喬夢松
西戎疏勒國傳
裴安定
疏勒王
册疏勒王裴安定
解忠順
貴鄉
突厥蘇禄傳
忠順可汗
彦囘
令侍御史劉彦回賑給同鄜等州詔
班景倩
宇文融傳
邊沖寂
邊仲寂
曾勤
館陶
涚
汾陽王妻霍國夫人王氏神道碑
李濯
宰相表
敬一
濯
可道
康日知傳
李惟岳
康日知
裴曠
裴氏
元簡
曠
河南少尹裴君復墓誌銘
郭虚己
蕭嵩傳
授郭虚己太子左庶子制
授宋鼎尚書右丞等制
石刻御注孝經碑
遣使祭嶽瀆敕
玄宗紀
蜀郡大都督府
鮮于少保碑
虚己
章仇兼瓊
河南府參軍贈祕書丞郭君
山南西道
郭祕丞碑銘
永王璘傳
郭順儀
竹承搆
蕭昕
唐銀青光禄大夫嶺南五府節度經略採訪處置等使攝御史中丞賜紫金魚袋殿中監南康縣開國伯贈楊州大都督府長史張公
贛縣
竹承構
陳簡甫
宣州開元以來良吏記
竹公承構
盧見義
見義
萬齊融
法華寺戒壇院碑
張光奇
羅希奭傳
希奭
賈至
授張光奇光禄少卿制
曹日昇
康楚元
楚元
鮮于仲通
楊國忠傳
瀘川
仲通
鄭怤願
中散大夫京兆尹漢陽郡太守贈太子少保鮮于公神道碑銘
董哥羅
崔光遠傳
韓休傳
韓浩
王鉷
鮮于氏離堆記
邵陽郡
雲南王
閤羅鳳
南詔蠻傳
西洱河
李叔明傳
雋
大唐御史臺精舍碑銘
三教珠英
陸景初
象先
兖文
貞公
象先傳
授陸景初大理少卿制
王守廉
王毛仲傳
守廉
溪州
授
王守廉申王府長史制
申王
吕延祚
突厥傳
薛訥
朔方道
五臣注文選
龔遵
梯儁
倭國
卑彌呼
倭王
王頎
狗伮國王
卑彌弓呼
載斯
烏越
張政
難升米
臺與
新羅
任那
伽羅
秦韓
慕韓
倭國王
裴世清
百濟
竹島
躭羅國
都司麻國
一支國
竹斯國
秦王國
夷州
何輩臺
哥多毗
大隋
奝然
職員
年代紀
滕源
白居易集
孝經新義
新義
任希古
大藏經
寧海縣
趙秩
良懷
祖來
如瑶
日向
筑紫
山城國
五龍山
鄭和
劉江
望海堝
山城君
山口
豐後
出雲
肥前
軍志
福清縣
陳見
閩安鎮
尹鳳
福清
見
鄔中涵
遇難殉節考
暹羅
紹興府
葉紳
韓綱
錢倉
白沙灣
仇邨
今峨
七里店
寧波衛
甬東
寧海
崇丘鄉
江橋
小溪
樟村
寧海衛
許東望
何常明
吴成器
劉錫
白米堰
直隸倭變紀
大捷考
鳴鶴鎮
杜槐
楓樹嶺
槐
嵊縣
宗憲
譚綸
容美
田九霄
王世臣
清風嶺
烈女廟
徐海
崇德縣
宗禮
侯槐
何衡
霍貫道
三里橋
烏鎮
錢燦
張冕
仙居
盧鏜
斷橋
彭溪
林同知
伍惟員
定海關
中中所
方大忠
劉朝恩
陳光祖
夏正
朝恩
樂清縣
張鈇
胡鳳
朱璠
胡珊
姚憲
梅嶴
窑嶴
鈇
定海縣
陳其可
蔡啓元
丘家洋
戚繼光
蔣家浦
其可
江口橋
啓元
平望
永保
塘棲
董士弘
王詢
任環
林懋舉
邦輔
倭賊
安定門
王崇古
董邦政
婁宇
張大綱
車梁
康世耀
吴林廟
陳淮
横涇
前馬橋
張恒
羅大爵
曾沂
新港
廟灣
馬邏
白蒲
丁堰
劉景韶
丘陞
唐公
順之
見大捷考
劉顯
曹克新
白駒場
沙洲
七竈洪
茅花墩
唐家渫
毛希秉
劉家河
三沙
寧波
殷明略
山東通誌
海道經
漕河
毉無閭
遼西郡
遼東郡
高句驪
開原
自在
黄龍府
濊貊
夫餘國
玄菟郡
金州
旅順
新河
羊堝島
三岔河
遼河
黄泥窪
路河
二十里鋪
前屯衛
中前所
義院口關
撫寧縣
撫寧
角山
喜峰
臨渝山
徐武寧
王滶
滶
童華
邵岳
王汝賢
葉宗滿
葉明
徐海傳
武尚文
宋鰲
胡賢
鎮海衛
陶一貫
周奎
孫勇
陸陵
周應辰
梁鄂
郭周
張景安
朱平
姚清
孫魯
浙江倭變紀
常熟縣
王鈇
錢泮
上塘港
泮
横石橋
劉英
樟邨
定海衛
惠安縣
林咸
鴨山
福建倭變紀
毛烈
禦海策要
漳郡
鄭應龍
倭寇
王文禄
閩縣
仇俊卿
王陽明公
若會
吴子孝
言子游
律令
爲善陰隲
孝友類編
懲惡簿
聖訓
旌善簿
唐順之
平倭略
劉基
蔣洲
張時徹
楊文懿公
唐樞
祖闡
宗渤
林賢
金鄉衛
惟庸
鄭曉
黄渡
闡化
闡教
輔教
贊化王
箬溪先生
西軒集
開市舶十利疏
樂清
東仔
銅茭
佛狼機
五帝本紀
五帝德篇
帝王世系
司馬貞
三皇本紀
蟜極
元囂
何良俊
讙兜
瞽叟
壽邱
舜紀
五帝紀
黑
弱
嶓冡
毛大可
尚書廣聽録
汲冡
魏武本紀
梁太祖本紀
孝
嬴姓
趙城
秦紀
陳仁錫
項羽紀
高祖本紀
高祖紀
惠紀
吕紀
高皇后
高后本紀
禄
產
吕后本紀
惠帝紀
漢書高后紀
昭靈后
叢臺
江水
望溪
吕后紀
孝景本紀
漢書舊儀注
景帝本紀
茅坤
柯維騏
將相名臣年表
孝景紀
將相名臣表
褚少孫
少孫
功臣侯年表
古今人表
道家
秦二世
渥洼
大宛
律書
狼
茅氏
紫宫
房心
權衡
虚危
天官
繫辭傳
孔甲
武乙
史敦
史儋
敦
儋
萇宏
秦繆公
欒大
萬里沙
河渠書
宣房
河渠
平準書
僅
弘羊
卜式
公孫宏
江都王
減宣
杜周
義縱
尹齊
王溫舒
夏蘭
孔僅
卜式傳
平凖
平凖書
吴世家
伯
徐君
季札列傳
餽禾
毋逸
管蔡世家
成叔
冉季
陳𣏌世家
穆侯
子比
越世家
越王句踐
掘突
趙世家
程嬰
公孫杵臼
武靈王
公子章
公子成
李兑
霍太山
屠岸賈
杵
代王嘉
燕王喜
陳涉世家
陳涉
涉
長平侯
冠軍侯
衛氏
趙王世家
楚元王
楚元王世家
曹叔振鐸
趙幽王
防與先生
留侯世家
項紀
高紀
景十三王傳
三王世家
申韓
老子傳
李耳
莊子傳
申不害傳
申子
韓非傳
孫吴傳
孫子傳
吴王闔廬
龎涓
吴起傳
伍子胥傳
楚平王
伯州犁
伍胥列傳
伍奢
王僚
伍胥傳
白起傳
王翦傳
王離
田忌
騶衍
慎到
莊子天下篇
韓子十二子
荀卿傳
齊襄王
劇子
樓緩
趙郝
公父文伯
馮亭
平原君傳
范睢傳
傅寬
靳歙
靳
傅蒯傳
論貴粟
言兵事
釋之傳
田叔
貫高
孟舒
柏人
趙王傳
倉
扁鵲傳
李𨢘
倉公傳
鄧以讚
魏其武安傳
魏其傳
魏其侯
武安傳
灌夫傳
韓長孺傳
壺遂
陳沂
韓長孺
衛將軍驃騎
嚴安
徐樂
諫伐匈奴書
過秦論
王韋
閩越王
東海王
東甌王
閩越
東甌
越繇王
東越王
繇王
東越
東越傳
卭
筰
駹
司馬相如傳
王世貞
難蜀
淮南王安
衡山王賜
伍被
獻牘
被
伍被傳
孫叔
石奢
李離
博陵王
延岳
炳章
湘川
白石
柳枝
洛中
讓山
燕臺詩
博山
戲
火鳳
郢市
聖水
太子
朔風
落梅
玉京
令威
姑山
中天臺
梓澤
漢陵
松溪
竹枝
金書
商隱
令狐楚
温庭筠
段成式
庭筠
羲叟
表狀集
義山
高鍇
王茂元
茂元
綯
柳仲郢
木蘭花
白老
温飛卿
衮師
樊南甲集
玉溪生詩
玉溪子
李商隱
杜拾遺
桷
潛庵
唐百家詩
思公
劉辰翁
楊廉夫
高季迪
楊孟載
高廷禮
源上人
高林庵
李集
鱸鄉漁父
錢龍惕
夕公
元季
玉臺
香奩
元振
劉司户
杜司勳
淋鈴
籌筆
寧公
杼山
首楞
杜詩箋
悟達國師
知玄
天眼偈
僧徹
别智玄法師
智玄
寄安國大師
大安國寺
安國大師
九隴
玄祕塔
端甫法師
粲可
雙峰寺
謝康樂
金縷
楊大年
牧齋先生
紅豆莊
玉谿生
老杜
元遺山
英華
文粹
劉蕡
党項
漢宫
瑶池
曲江老人
梓州吟
飛卿
柯古
義山集
朱鶴齡
猗蘭堂
劉克
延州筆記
張文亮
義山詩註
錢夕公
子椒
子蘭
次耕
玉峰
高駢
子晉
駢
王鐸
秦宫
韓壽
翼德
阿童
令狐
贊皇
放翁
阿侯
紫府仙人
老女
心有靈犀
聞道閶門
白道縈迴
相見時難
來是空言
鳳尾香羅
重幃深下
九日
吴喬
井泥
驕兒
行次西郊
籌筆驛
送宫人入道
殷潛之
于鵠
對雪二首
戊籤
李横
列禦寇
吿不害
中虺
典引
貞符
下泉
繹思
夫之
牧石先生
夏官明
胡思泉
歐陽正暘
全椒
玉卿
蓮花峯
黑沙潭
黃崗
奚鼎鉉
商文毅公
輅
皇明世法錄
東齋
定山集
柳慶
一山
靜峯
南楚
武岡州
少峯
惟敬
牧石
廷聘
蔚仲
黃初
子翼
家聘
朝聘
逸生
修侯
武夷先生
伍學父
定相
宗本
齊安
濓
繆西溪
昌期
小酉
允都
節菴
丹鄰
之馴
陳大士
淸卿
宗𢍆
向榮
介之
鄒泗山
學父
惺欹
憨山
德淸
良鄕
黃岡
孫月峯
過應山頂
歐五德
藏六支
綦
文佳
時章
參之
思恩
珠
蕭鳴南
子式
大操
敉
致
萬梧
勿藥
攽
繼之
儀珂
李報瓊
嚮明
生祁
李孟韶
生郊
劉近魯
茲
薳
劉堯誨
克謹
法忠
熊榮祀
時幹
湘鄕
劉象賢
羅珪
智大
杜焌
蕭僑如
周士侃
唐克恕
崇嶽鄕
曾家灣
劉永治
石崖先生
絲衣
家則堂
則堂
宜江
浴日
劉復愚
劉孝尼
山書
復愚
瀟
白蘇
小山
孝尼
王江
是玉
若啓
季昌先生
定王
思侯
荆沔
湘上
壽玉
聲玉
賜玉
白沙先生
江門
張廷實
林緝熙
陳冕
大崖先生
林容
一峯
醫閭
汝愚
楓山
大崖
龍谿
黃公臺
雨蒼
占解
端笏
送大崖還嘉魚
邗上
神亥
燭陰
峚鍾
五指
若瀘
巫
酉潊
鐔漊
夫夷
都梁
耶薑
漣
條山
裔水
不周
常羊
小嵩
雙髻
玉女
石廩
麥積
欒塢
皋宅
嵩高
恆祠
豐隆
赤帝
九仙
潤牛
毘盧
雷祖
九龍
潛聖
妙高
明月
涌几
金紫
流杯
烏石
黃華
荆紫
大潙
洣
回雁
瀟山
降湘
南陵
弘景
山經
又新
伯倫
顧渚
金砂
娑羅
貫道
水簾
虎跑
堵
仲緘
別山
西崑
香山
少文
致堂
嬾殘
石鏡
丹霞
鹿門
金輪
勞山
黽阨
陽雲
台蕩
濓浯
鄣都
漢廣
南衡
嬴
亭州
歐陽節庵
開建
馬丹鄰
郭季林
鳳躚
夏叔直
汝弼
何偉孫
一琦
聖典
駱
嵇
魏絳
杜欽
徐鉉
陟𡴾
子桑
衡州府
衡陽縣
王夫之
永曆
管嗣裘
𦙍錫
晏淸
瞿式耜
汪郊
昭江
皖江
金簡峯
螺江
西夷
騶虞
平格
許行章
商紂
晨門
一貫章
隆中
不學不慮章
誠意章
曹孟德
晦菴
甯武子
潘子
易略例
節
主之
韻會
荀九家
爾雅疏
爾雅注
公叔文子
晁説之
蒯通傳
終軍傳
蘇林
裂繻
子帛
醫和
王伯申
充人
詩疏
攷工記
斟尋
斟灌
京氏易傳
秋官
卜楚丘
杜氏集解
毛詩傳
廣成
夏癸
阿房
僰
悼蜀古風詩
袁安
唐衢
方朔
異獸圖
林泉
西門生
洛都
秦惠王
開明氏
周翰
後係
丘生
吴姬
洛歌人
咸鎬
王好古
乞伏矩
韋宿
劒門
方井
上官氏
張奭
江南東路
陳緯
田錫
梁周翰
封禪記
泰山銘
趙履信
聲賦
擬富民侯傳贊
詹何對楚王疏
何曾
衛紹欽
上官正
峯州
悼蜀詩
乖崖公
神和子
羅自賓
王文正
處士
贈神和子歌
仙遊閣
五靈院
李畋
張及
張逵
上善若水賦
秋風生桂枝詩
朝日蓮詩
禹稷之功王者事業
文行孰先論
送三秀才應舉詩
兩川
張詠
復之
墳史
王摶
魏文公
蘇易簡
新昌郡
陽秋
真考
誡民集
川蜀
詵
乖崖子
錫
乖崖文行録
張頤
乖崖事文録
乖崖廟
顔瑞
徐瀚
謚議
濮郡
邢表
乖崖祠
楊光溥
乖崖集
本傳
直齋書録解題
愛日精廬藏書志
欽定四庫全書提要
錢易
費莫星源
嘉績
樊子
李嘉績
張乖崖先生集
勾漏山房
忠定全集
陳振孫
郭森卿
乖崖先生
錢希白
直齋
黄丕烈
五松居士
巵史
星衍
張忠定公集
獨山
莫大令
祥芝
張青芝
乖崖先生文集
孫淵如
荃孫
馬寒中
益州重修公署記
昇州重修轉運司公署記
韋南康
孟先主
靜涵
青芝
懷甯
潘兆麟
翰坡
廣方言館
莫君
趙君
陽湖
蕭敬孚
新陽
趙靜涵
敬孚
龔夢龍
寄潭州劉郎中
庭竹
朝日蓮
益州重脩公署記
昇州重脩轉運司公署記
趙希弁
莫祥芝
楊馥堂
汪閬原
潘茮坡
寄劉郎中
愛日蓮
益州修公署記
跋
龍猛
藏園主人
沅叔
忠定公
宋代
森卿
振孫
王禹偁
送宰崇陽序
祠堂記
項安世
北峯亭記
傅霖
陳輔之詩話
蕭林之
張乖崖
游趙氏西園
青箱雜記
贈官妓小英歌
吴處厚
乖崖祠堂記
北峯亭
欲
新淦州
王欲
希白
美美亭
淨刹院
陶楙
梵安
三公廟
手讚
趙翰林
孟頫
拜觀書
蔡君謨
小吴牋
李及
真贊
真後贊
自贊
鸚洲
鶴樓
馬知節
周渭
梁鼎
黄誥
寇準
安陽集
故樞密直學士禮部尚書贈左僕射張公神道碑銘
宋故樞密直學士禮部尚書贈左僕射張公墓誌銘
錢銘
臨黄
宋狀
王顯
綽
石鼓縣
堯民
童罔縣
高錫
文苑傳
望春
朱雀
保康
宜秋
閶闔
天波
南薰
宣化
含暉
金輝
長景
汴河
宣澤
上善
通津
惠民河
普濟
廣濟河
善利
金輝門
開遠門
護龍河
宋神宗
講武池
周美成
汴都賦
鼓吹臺
鄭門
酸棗門
子門
宣和遺事
上清寶籙宫
景龍門橋
天波門橋
郡城沿革
順天門
新鄭門
利澤水門
萬勝門
固子門
歸田録
固子橋
地理通釋
韓通
建昌宫
大寧宫
五丈河
歸德軍
大名府
天雄軍
鄴都
興唐府
廣晉府
楓窗小牘
左掖
右掖
東華
拱宸
乾元門
右昇龍
右長慶
右銀臺
左承天祥符
右承天
左承天祥符門
宣祐
右太和
西上閤
右嘉福
大慶殿
皇儀殿
需雲殿
昇平樓
清景
慶雲
壽寕堂
延春閣
福寕殿
右昭慶
延真
積慶
感真閣
資政
崇和
蘂珠
嘉德
延康
景輝門
迎陽
崇聖殿
太清樓
化成
清心
翔鸞
萃景
翠芳
瑶津
延福宫
穆清殿
柔儀殿
欽明殿
廣聖宫
太清
冲和
集福
會祥
流盃殿
慈德殿
觀稼殿
延曦閣
邇英閣
延曦
隆儒殿
慈壽殿
慶壽宫
保慈宫
玉華殿
基春殿
承極殿
睿成宫
宣和殿
凝芳
瓊芳
重熙
環碧
元符
崇寕
聖瑞宫
玉虚殿
玉華閣
親蠶宫
燕寕殿
碧琅玕
晨暉
麗澤
穆清
成平
會寕
睿謨
凝和
崑玉
蕙馥
報瓊
蟠桃
春錦
叠瓊
芬芳
麗玉
寒香
拂雲
偃蓋
翠葆
鉛英
雲錦
蘭薰
摘金
繁英
雪香
披芳
鉛華
瓊華
文綺
絳蕚
穠華
緑綺
瑶碧
秋香
叢玉
扶玉
絳雲
雲巋
層巘
明春
玉英
玉澗
杏岡
晏春
飛華
童貫
楊戩
賈詳
藍從熙
何訢
景龍門
天波門
景龍江
懿親宅
壺春堂
擷芳園
大明宫
長安圖
宣政殿
沈括
入閤圖
孔毅父
談苑
皇朝類苑
楊待制
節卦
賈魏公
無逸圖
無逸篇
迎陽門
二閣記注録
章得象
張仙
蜀王孟昶挾彈圖
花蘂夫人
馮深居
汪水雲
謝道清
陳剛中
景定
唐六典太史門
李郢
陳履常
元和國計圖
晏元獻
詠上竿伎
興國坊
梁太祖
利仁坊
郭熙
徐擇之
馮鑑
續事始
董秀
經武要略
張誠一
誠一
王正仲
胡完夫
李評
曾令綽
職官志
文昌雜録
張闓
范堅傳
邵廣
刑罰志
吕不韋春秋
祕笈新書
右掖門
何次公
龐莊敏公
黄覇
蓋寬饒
魏丞相
寬饒
張次公
桓次公
覇
莊敏
京兆府
諫院記
退朝録
燕侍郎
福善坊
翰林志
蔡魯公
英廟
吴冲卿
韓持國
刁景純
龔鼎臣
周孟陽
王汾
韓忠彦
李尋
續翰林志
三輔黄圖
大玉堂
小玉堂殿
玉堂殿
繼古叢編
答契丹書
大年
陳彭年
定陵
墨允
墨智
彭年
春秋少陽
梁祖
貞明
右長慶門
左昇龍門
涉弼
彭幹
朱載
吕龜祥
錢俶
張觀
李淑
宋郊
開元四部録
崇文總目
吴及
蔡抗
陳繹
郭友直
秦觀
成都府路
孫覿
倪濤
汪藻
劉彦通
祕書總目
榮州
李東
王闡
張宿
闡
李至
宋琪
至
太宗實録
真宗實録
元符觀
王文穆
英宗實録
慶寧宫
潘師旦
劉丞相
沆
劉燾
續法帖
滎王
蔡攸
秦熺
宋白
杜鎬
劉師旦
九域圖
趙彦若
衞州
獲嘉縣
彦若
玉宸殿
四門殿
麗景
含輝
金耀
金耀門
新宋
戴樓
新曹
萬勝
固子
陳橋
新酸棗
宋用臣
京畿
薛可言
岳珂
斡離不
和維
愚見紀忘
上清寳籙宫
新門
右升龍
左承天門
壽寧堂
延春閤
感真閤
龍圖閤
天章閤
寳文閤
寧陽
宜聖
華景
延慶殿
崇徽殿
延羲閤
邇英閤
顯謨閤
玉華閤
燕寧殿
玉清神霄宫
宋朝會要
萬歲殿
明德門
葉少蕴
李懷義
柔儀
清居
升龍
銀臺
洪邁
容齋三筆
陳後主
臨春
結綺
連昌
玉清昭應
會靈
祥源
燕都
楊奂
汴故宫記
豐宜
龍津
丹鳳
文武樓
郊社
登聞檢院
登聞鼓院
檢院
待漏院
鼓院
都堂
大慶門
日精門
左昇平門
右昇平門
嘉福樓
嘉瑞樓
德儀殿
德儀
左升龍門
右升龍門
隆德殿
東上閤門
仁安門
仁安殿
内侍局
内侍
近侍局
近侍
嚴祗門
撒合門
授除樓
仁安
純和殿
純和
雪香亭
瓊香亭
玉清殿
寧福殿
寧福
苑門
仁智殿
敷錫神運萬歲峯
玉京獨秀太平巖
山莊
翠微閤
僊韶院
湧翠峯
大滌湧翠
湧金殿
湧金
蓬萊殿
長生
浮玉殿
浮玉
瀛洲殿
閲武殿
閲武
内藏庫
尚食局
尚食
宣徽院
宣徽
御藥院
御藥
右藏庫
右藏
左藏
點檢司
點檢
祕書監
祕書
學士院
學士
諫院
武器署
儀鸞局
儀鸞
尚輦局
拱衞司
拱衞
尚衣局
尚衣
繁禧門
繁禧
安泰門
安泰
壽聖宫
明俊殿
徽音殿
徽音
燕壽殿
震肅衞司
中衞尉司
小東華門
祗肅門
將軍司
太后苑
慶春
燕壽
小東華
正東華
尚厩局
尚厩
臨武殿
宫苑司
尚醖局
湯藥局
侍儀司
符寳局
器物局
三廟
德昌
文昭殿
光興殿
宣宗廟
安貞
三司
獫狁
虹橋
元豐倉
順成倉
東水門
折中
富國
廣盈
萬盈
濟遠
陳州門
夷門山
何文縝
吳正仲
吕元直
元直
陳后山
吕䝉正
張士遜
吕夷簡
沈倫
向敏中
盧多遜
趙令
盧相
㓂萊公
蘇侍郎
周朝
魏仁浦
吕餘慶
劉熙古
沈義倫
多遜
程戡
吕端
温仲舒
王化基
楊萬里
范晉公
王文獻
趙韓王
薛文惠
王文貞
馮文懿
吕文靖
曾宣靖
富韓公
吕正獻
蔡師垣
秦師垣
陳魯公
惟張魏
吕文穆
張鄧公
蔡元長
韓康公
章子厚
李文定公
趙忠簡
張魏公
沈必先
權朝美
葉審言
黄繼道
林駉
論兩府
程伯
繼遷
薊門
田公
丁度
趙明
滕達道
重修御史臺記
真宗皇帝
宣化坊
雷德驤
諫院題名記
胡寅
寄政府書
齊小白
符堅
登聞
馬端臨
金鑾殿
張澹
閣門
劉禕之
元萬頃
翰林誌
晁文元
迥
王文恭
王文忠
宋文安
章文獻
得象
趙清獻
楊内翰
陶尚書
丁文簡
扈尚書
蘇參政
賈參政
李昌武
孫文懿
胡文公
徐常侍
歐陽常侍
梁給事
李相州
殊
馮章靖
李文簡公
正明
崇文院
秘閤
吳及
史館
秘書省
秘書總目
玉壺清話
吳正肅公
劉原甫
元厚之
趙與旹
賓退録
右文
真宗史
三朝
兩朝
欽宗
四朝
壽皇
永思
尤袤
高宗實録
宋朝燕翼詒謀録
朱雀門
吕純禮
畢仲衍
范鏜
張璪
王黼
文廟
首善閣
先聖
先師
稽古
翰苑題名
開封教授題名
大金登科題名
女真進士題名
開封尹
愧郯録
續通鑑長編
府尹題名
居潤
包孝肅公
梅花堂
祥符縣
晉高祖
崇仁坊
旌孝坊街
雲老寺
夷山
艮岳壽山
劉混康
孟揆
介亭
蕚緑華堂
書館
八僊館
紫石岩
棲真磴
覽秀軒
龍吟堂
壽山
鴈池
噰噰亭
藥寮
西莊
巢雲亭
白龍沜
濯龍峽
蟠秀
練光
跨雲
萬松嶺
倚翠樓
蘆渚
浮陽亭
梅渚
雪浪亭
鳳池
流碧
環山
巢鳳閤
三秀堂
揮雪亭
極目亭
蕭森亭
麗雪亭
漱瓊軒
煉丹
圜山亭
高陽酒肆
清斯閤
勝筠庵
躡雲臺
消閒館
飛岑亭
回溪
芙蓉城
瑶華宫
蓬壺
茂德帝姬
艮岳記
陽華宫
朱勔
昭功敷慶神運石
慶雲萬態奇峯
絳霄樓
萬壽峯
壽岳
絲谿
仇池
泗濱
林慮
靈壁
芙蓉
承嵐
崑雲
紫石
祈真
攬秀
龍吟
噰噰
巢雲
白龍淵
跨雲亭
倚翠
浮陽
雲浪
研池
巢鳳
三秀
九華玉真安妃
揮雲亭
麓雲半山
極目蕭森
漱玉軒
煉丹亭
勝雲菴
祖秀
陽華宫記
壽山艮嶽
飛來峯
杏岫
黄楊巘
丁香嶂
椒崖
龍栢坡
斑竹麓
紫石壁
瀑布屏
朝真磴
海棠川
瓊津殿
擷
瀟湘江亭
金波門
擷芳苑
躍龍澗
漾春陂
桃花閘
迷真洞
昭功
敷慶
神運峯
盤固侯
朝日昇龍
望雲坐龍
矯首玉龍
萬壽老
捫參
衘日
吐月
排雲
衝斗
雷門
月窟
蹲螭
坐獅
堆青
凝碧
金鰲
玉龜
疊翠
獨秀
棲煙
軃雲
風門
雷穴
玉秀
玉竇
鋭雲
蓬瀛
須彌老人
卿雲
瑞靄
溜玉
噴玉
藴玉
琢玉
積玉
翔鱗
舞僊
玉麒麟
南屏小峯
伏犀
怒猊
烏龍
留雲
宿霧
藏煙谷
滴翠巖
搏雲屏
積雪嶺
抱犢天門
寰春堂
張淏
壽山艮岳
梁師成
二廣
二浙
宋史筆斷
論花石綱之害
勔
鄧肅
陳過庭
張汝霖
容齋續筆
徐鑄
應安道
王仲閎
李彦
任輝彦
李士涣
王滸
毛孝立
紫閣山北村詩
紫閣峯
回回
三山兒坡
寳籙宫
夢華録
舊封丘門
金水門
城池沿革
太安門
金宣宗
术虎高琪
河渠志
楊劉
李穀
赤河
棣
愽
姚恕
杜審肇
御
濮陽
曹翰
田告
禹元經
張齊賢
白馬津
治河通考論黄河故道
新鄉
地志
魏郡鄴縣
周定王
酸枣
張秋
于家店
金龍口
山東曹縣
陡門
草店村
焦橋
蘇村
九龍口
太和縣
千乘
黎陽觀
東郡津
汲縣
滑縣
延津縣
護河堤
官渡
八柳渡
新莊
儀封縣
大岡驛
大岡
通許縣
雙溝驛
太康縣
義安驛
長嶺
崔橋驛
宛丘驛
項城縣
武丘驛
王回
水議
治書
平當
朱光庭
論治河當專責水官
乞詔大臣早决河議
乾寧
深
論黄河回復故道之難
王孝先
夏國
論開河分水之非
羗
桑羊
京西
陜西
小吳
孫村
賈讓
論回河成功之難
界河
李偉
論汴水疏鑿之由
黎陽山
舞陽縣
漯水
千乘縣
貴鄉縣
莽梧河
陰溝
中牟臺
官渡水
莨蕩渠
出五池
王景
王吳
浚儀渠
敖城
敖山
旃然水
三皇山
鴻渠
皇甫誼
揚子江
耿壽昌
廣濟渠
裴耀卿
河陰
含嘉
齊澣
淮陰縣
李正己
田悦
渦口
梁崇義
蔡河
雞鳴山
青社
鎮海
惠民
五丈
論汴河
函秦
梁燾
乞開舊日汴口
廣武山
汴口
謝德權
上善門
泗州淮
白渠
王文正公筆録
周景
陳傅良
論汴河最重
浙東西
荆湖南北
閔河
陳霆
兩山墨談
靈壁縣
汴堤
天源
京水
黄堆山
祝龍泉
陳承昭
后廟
板橋
青龍河
超字坊
咸豐門
容佐
七里河
宋昪
索河
天源河
梁山濼
都城積水爲害疏
論都城積水第二疏
清汴
東太一宫
君綦
西太一宫
大遊
大游
小游
四神
天一
地一
真符
臣綦
民綦
龔明之
中吳紀聞
五福太一
太一宫
八角鎮
郭若虚
圖畫見聞誌
景靈宫
孝嚴殿
張龍圖
西宫
景靈東宫
天慶宫
魏漢津
朝元宫
熙春閤
虚皇臺
朱温椒蘭殿
徽廟
王文則
孫升談圃
玉清昭應宫
五岳觀
玉清宫
萬壽觀
王魏公
李若谷
會靈觀
洞霄
五嶽廟
崇福宫
上清儲祥宫
靈惠法師
王太初
宣仁太皇太后
上清儲祥宫記
金源氏
趙秉文
全真
長春公
太古
栖雲
重陽觀
重陽真君
惠和坊
相國寺
資聖閤
朝元宫閤
登雲樓
八大王樓
譚樓
元儼
譚積
趙與峕
三槐堂銘
晉國王公
魏國文正公
懿敏公
栖筠
德裕
符彦卿
王晉公
彦卿
曹門
王魏公神道碑
金明池
瓊林
牟駝岡
郭藥師
冷宗元
井記
名賢祠
賀侯
子噐
歐陽脩
王文正公神道碑
王素
昭應宫
文正王公
子明
許國公
徹
魯國夫人
秦國夫人
妣任氏
徐國夫人
邊氏
杜重威
臨江縣
趙昌言
錢若水
元份
趙德明
寇凖
凖
武勝軍
李穆
行簡
劉承規
承規
滋福殿
大邊村
榮國夫人
韓億
蘇耆
范令孫
睦
王文正公
曹沂王
李和文
王貽永
和文
寧德宫
寧德皇后
鎮潼軍節度觀察留後李公墓誌銘
鎮潼
隴西李公
感德軍
襃親鄉
端懿
元伯
元靖王
崇矩
繼昌
鎮國軍
許和文公
遵勗
齊國獻穆大長公主
和文公
單州
獻穆大長公主
鎮潼軍
李校
校
王則
仁壽郡君
諄
訢
建安郡公
宗保
夏倚
宗景
世逸
楊氏先塋記
魏陵鄉
伯俞村
敬直
野訥
興聖宫
秦國公
李孟
趙孟頫
賈鈞
劉賡
梁國公
史弼
潤夫
延佑
趙松雪
𡻕月志
高文進
王道真
孤獨長者買袛陀太子園因緣
李用
李象坤
牢度義鬥聖變相
誌公變相十二面觀音像
降魔變相
李元濟
大相國寺碑
慧雲
安業寺
建國寺
王温
吳道子
文殊維摩相
邊思順
排雲閤
乙速令狐
石抱玉
護國除災變幻相
車道政
于闐國
毘沙門天王樣
天王像
瓌師
梵王帝釋
法華經二十八品
功德變相
智嚴
三乘因果入道位次圖
程大昌
相國
高待詔
孫子發
申先生
老申
哨遍
蔡絛
鐵圍山叢談
王銍
默記
李後主
心經
李氏國主
般若心經
王君玉
甯鳳
徐鍇集
等覺禪院
王嗣宗
彭太素
克烈
王可汗
柰蠻氏
曲薛窟撒不剌
亦剌哈
博爾朮
博兒忽
赤老温
按臺
札木哈
九原
野狐嶺
澮河堡
宣德府
德興
紇石烈
允濟
豐王
闍别
紫荆口
朮虎高琪
槊赤
大口
尋斯干城
庚午元曆
金實録
高户部
李都運
特立
趙禮部
克剛
克基
楊翰林
賈庭揚
吳王
涪水
乾竺
閻浮提
大鐵圍山
大聖
鐵輪王
銅輪王
銀輪王
金輪王
三禪
周發
邵伯
大梵
帝釋
四天
大梵天
靈威仰
大梵王天
四天王
劉約
渾天儀
魯襄
能仁
清浄法行經
大迦葉
儒童菩薩
西昇經
符子
釋迦文
五天
老聖
流沙
關尹
毱多
跋闍
離波多
摩訶提婆
智論
文殊師利
鐵圍
文殊
舍利弗
集異門足論
目連
法藴足論
迦多演那
施設足論
提婆設磨
識身足論
世友
品類足論
戒身足論
迦多演尼
發智論
迦濕彌羅國
大毗婆沙
秦正
失利房
傅毅
蔡愔
[...]
